#version: 0.2
e n
e r
Ġ d
a n
Ġ v
i n
e t
e l
i j
Ġ o
Ġ h
Ġd e
a a
o r
s t
Ġ m
Ġ w
Ġ b
Ġ g
i e
c h
Ġ t
Ġ e
Ġ a
Ġ z
a t
Ġv an
Ġ en
i s
Ġ k
i t
aa r
Ġe en
o or
Ġ n
Ġ in
o n
in g
Ġh et
l e
Ġg e
d e
Ġ s
d er
Ġ p
r e
d en
o e
i g
Ġo p
j e
r o
ch t
Ġt e
a l
Ġb e
Ġv er
ij k
Ġ is
Ġv oor
Ġ u
a r
Ġ D
ij n
g e
k en
e e
Ġ l
o m
g en
Ġo n
Ġa l
e er
Ġm et
i k
v er
u r
Ġa an
i l
Ġ st
r a
o l
i et
u n
Ġ je
Ġd at
i d
an d
o t
t e
a m
o u
Ġ c
Ġ H
v en
Ġz ijn
z e
a s
o g
Ġo m
â Ģ
o k
el ijk
aa t
c t
s ch
r u
Ġd ie
Ġ er
Ġu it
o p
Ġ f
en t
Ġ B
Ġh e
Ġ A
Ġn iet
Ġ M
Ġ S
Ġw or
er s
r ij
Ġ j
el e
Ġ E
ĠD e
f t
st e
h e
Ġ 1
Ġw e
u s
Ġb ij
Ġ re
i en
Ġo f
a g
i er
a an
at ie
Ġ V
er k
Ġ I
Ġ (
aa l
u w
el d
Ġo ver
Ġ le
an t
s en
Ġ W
Ġ 2
Ġo ok
a k
Ġ ik
n en
u l
l en
Ġ O
Ġ N
Ġal s
e s
ing en
a d
Ġhe b
d t
i m
Ġd oor
t en
Ġ G
er en
Ġz o
Ġk un
Ġ P
o o
s e
Ġ T
an g
k t
i cht
a p
Ġd an
b e
i c
Ġz e
e m
Ġw aar
s p
Ġm aar
Ġ C
e el
u ur
Ġon der
Ġn aar
ig e
Ġs p
Ġs ch
on d
Ġ L
. .
Ġa f
Ġp ro
Ġwor den
is ch
o et
Ġk an
ee ft
Ġde ze
Ġge b
l ijk
Ġ K
t er
Ġ Z
i st
Ġ R
Ġal le
o en
k e
Ġh eeft
oe d
el en
Ġ âĢ
Ġ r
it e
Ġw at
an der
ij d
ĠH et
he id
oe k
u it
or m
Ġw el
Ġwor dt
0 0
Ġt ot
Ġn og
Ġm eer
v e
p en
a st
r aa
u t
s l
a cht
Ġ J
er d
b en
Ġon t
o on
in d
el f
u m
Ġv ol
o d
z en
Ġd it
Ġw as
e en
om en
Ġheb ben
ĠI n
ar t
âĢ Ļ
k er
Ġ ander
or t
ie uw
ig en
Ġm a
D e
Ġ F
o s
Ã ©
ie s
i a
Ġm e
Ġp l
Ġb et
i ch
isch e
Ġg ro
Ġd aar
er e
i on
Ã «
on t
je s
on der
ou w
Ġb l
Ġkun nen
Ġm oet
w e
Ġw il
p l
st en
st el
Ġge m
Ġj aar
r oe
a f
Ġm ee
w ee
Ġu w
d at
Ġh ij
Ġt oe
u is
Ġ 3
l and
Ġm en
Ġw erk
Ġgeb ru
g t
ar en
Ġk l
aa k
g el
at en
Ġbe d
o f
Ġt er
Ġge en
in e
ct ie
Ġh ier
i p
Ġv eel
Ġ2 0
Ġge v
m en
elijk e
ĠA l
Ġg oed
u k
am en
ite it
Ġn ieuw
ra cht
Ġe er
o c
w erk
ie k
Ġz ich
d u
Ġw ij
a b
Ġ -
in der
v oor
w ij
ro uw
h ou
aa m
a c
Ġs e
Ġm ijn
o op
oor d
Ġ U
aa kt
Ġon s
Ġon ze
a le
Ġc om
r en
in nen
Ġk le
ing s
o el
e der
Ġh aar
i Ã«
ge v
i de
i r
Ġn a
Ġander e
Ġw eer
Ġb el
Ġz elf
cht er
Ġw er
m a
Ġh oe
b er
aar d
u g
eer d
Ġgebru ik
Ġs l
Ġma ken
al en
Ġge w
an k
al s
i v
e d
el s
Ġbe st
p er
Ġp er
Ġbe g
raa g
Ġh un
b aar
an n
u b
Ġ20 1
Ġkun t
Ġe igen
Ġg en
as s
Ġ ru
ĠE n
Ġge z
ĠI k
op en
e c
Ġ el
or g
Ġb en
o er
et en
a ge
re s
ur en
o og
Ġn u
ie f
.. .
sch ap
a ct
ĠE en
Ġg aan
Ġ 4
Ġt wee
Ġm an
ge ven
a gen
b ij
og elijk
Ġs n
Ġ ro
Ġd i
id d
ĠâĢ ĺ
Ġa r
Ġte gen
in k
f orm
Ġver sch
Ġt ijd
Ġz ou
u id
at uur
e g
Ġe x
f f
us sen
or en
u i
Ġ 5
eder land
Ġd us
Ġh ad
Ġbe h
ĠS t
Ġg aat
Ġk w
ij den
Ġz al
re k
Ġt o
Ġnieuw e
m er
n em
H et
Ġpl aat
t ijd
w er
Ġm ogelijk
) .
v ol
uit en
Ġw erd
n e
ge b
el ing
Ġbe sch
v an
at er
Ġge d
a re
Ġver k
gen s
Ġc ont
Ġe ven
g er
d s
Ġbe z
on den
aa g
Ġg r
ĠN ederland
Ġp ers
el l
Ġs amen
Ġ ie
r ijk
Ġh ou
âĢ Ŀ
m e
Ġmen sen
k s
p p
Ġver b
m ent
Ġv in
Ġd ag
o ven
Ġk rij
Ġc on
e st
r an
Ġk om
Ġd oen
ĠD it
o cht
Ġb innen
i o
iet s
ul t
Ġk omen
e u
Ġo u
d ien
der s
Ġp r
i den
Ġeer ste
Ġm oo
Ġhe el
k om
Ġl ang
Ġ1 9
Ġalle en
ee m
Ġin ter
b s
r ie
il len
Ġo r
ken d
Ġst aat
o st
u st
ĠD at
m aal
ra gen
es s
d ig
Ġh and
z elf
Ġg el
rij f
c e
it ie
Ġl aat
be eld
Ġ '
r on
l ie
ik k
he den
Ġzo als
atie s
I n
t al
ĠO p
Ġm oe
ĠV oor
Ġm in
Ġbel ang
Ã© n
er t
Ġgro te
Ġv rij
i f
ĠJ e
re e
u ro
l ing
oo f
Ġe cht
Ġa d
o w
am er
Ġbl ij
ak k
Ġh ele
is s
h uis
in t
Ġz it
ĠO n
ĠDe ze
el t
Ġz ien
ĠW e
Ġz w
Ġt ussen
aa st
lijk e
o ol
Ġpro du
Ġ 6
ĠM aar
s s
Ġle ven
p t
Ġg ele
ĠD aar
Ġel k
Ġal tijd
Ġver t
Ġn atuur
ct en
st and
Ġsn el
Ġd en
ĠâĢ ľ
er g
z ien
al l
Ġter ug
Ġkom t
Ġh uis
ee k
ar d
Ġgro ot
ru k
Ġh el
Ġversch illen
an den
Ġk inder
ijden s
oe ken
at ion
r i
a u
z et
Ġm ij
d ag
z oek
id ing
k omen
Ġa ut
un t
d ing
Ġz ij
Ġre cht
ra m
an is
form atie
ĠAl s
a v
o b
Ġv ia
od ig
n l
ĠE r
Ġbe p
er m
aar t
ar k
a de
am e
' s
Ġa chter
Ġ "
at is
Ġge sch
Ġie der
el len
ul len
Ġhe m
b l
al len
Ġmoet en
en s
p ro
z icht
Ġpro b
oe de
Ġplaat s
w el
Ġto ch
c o
oo d
Ġv rouw
Ġ Ã©
ot en
ijk en
d oor
am p
e b
ie d
Ġ iets
oe g
Ġt ra
er v
Ġeen s
eer t
eer de
w ikk
Ġwe bs
de el
Ġ ch
w oord
Ġverschillen de
al iteit
Ġver g
Ġde el
ĠO ok
Ġu ur
ent en
Ġh oog
il l
e ft
Ġver h
aa d
Ġk en
u d
Ġwe g
ĠM et
Ġ 7
Ġn et
Ġl ig
o ver
Ġf ot
Ġg roe
Ġl aten
st er
Ġh er
Ġru im
c l
Ġv l
ĠB e
ĠÃ© Ã©n
m ee
Ġom dat
o sten
Ġin formatie
ann eer
i el
I k
ie den
ik t
in a
Ġop en
o v
ant en
âĢ ¦
ĠA n
Ġgem aakt
o ot
Ġaan tal
as sen
i ken
ĠV an
o ok
Ġ2 00
r ien
Ġ 8
Ġs u
k ken
ĠV er
Ġb uiten
ĠâĢ ĵ
or gen
Ġbelang rijk
ij f
Ġar t
rij s
Ġbe v
a der
Ġbe ste
Ġaan ge
m an
g gen
om m
Ġ ra
Ġst aan
ier en
oor t
Ġst ee
a y
Ġ1 0
Ġse x
Ġge k
Ġz onder
oe m
ĠB ij
Ġge h
gen de
Ġver der
on en
ĠZ e
Ġt en
) ,
t ra
Ġv ak
icht ing
Ġn odig
rij ven
Ġg oede
A l
Ġalle s
Ġvin den
c ent
i re
Ġsp ec
of f
ĠH ij
Ġd ien
Ġbed rijf
w aar
en d
Ġkinder en
ant ie
ar m
o gen
il m
Ġor g
an c
Ġj on
Ġw aren
st aan
p e
Ġp art
Ġw eten
Ġpers oon
pl aat
l ine
Ġz eer
Ġge ven
Ġd er
oof d
n is
Ġstee ds
Ġer g
p le
q u
ar i
Ġt ijdens
ol le
u cht
Ġelk aar
geven s
t u
Ġp le
Ġont wikk
c es
v l
ig ing
Ġcont act
Ġver l
ĠC h
b are
ig heid
Ġl and
Ġk eer
a ken
E en
voor beeld
m idd
ĠZ o
Ġg eld
n a
Ġen k
k ker
ĠS p
Ġb oven
Ġheb t
u re
ur s
Ġver z
stel ling
Ġver m
Ġwer eld
aa s
Ġv ast
Ġv orm
ie ke
ĠS ch
or n
Ġver w
Ġb er
Ġj aren
em en
der en
et ten
iÃ« n
Ġt he
Ġm ag
Ġze ker
v ang
Ġwer ken
Ġst r
we g
e f
Ġb ent
le s
Ġs le
ĠH ier
e il
Ġp re
ch n
Ġwebs ite
m at
al is
Ġv aak
acht en
e ct
g aan
Ġr ond
v oer
Ġ 9
ver s
Ġk eu
Ġm aakt
hou den
Ġgr atis
Ġ 0
i aal
Ġm is
Ġdi re
s c
ĠW ij
i ve
Ġg er
Ġer v
ee s
re cht
ge m
et je
Ġwil len
Ġorg anis
u in
Ġg raag
Ġw ant
Ġb ere
Ã ¯
sl ag
â Ĥ
on ing
âĤ ¬
ra g
v eel
Ġwat er
u z
Ġle ver
2 0
Ġver d
g ele
Ġv ind
Ġb as
e x
i z
Ġ1 8
Ġre g
an s
Ġa pp
Ġkrij gen
Ġm inder
Ġp ol
Ġm il
z onder
Ġz org
et t
u ist
Ġfot o
o de
el den
Ġg l
Ġbij voorbeeld
d oen
Ġa c
der e
a ch
m m
g ang
st ig
ar ing
st r
Ġd rie
ar te
Ġst uk
Ġre s
ĠE uro
Ġmee st
Ġmoo ie
m and
Ġmoo i
c on
g d
Ġv ragen
un d
gev ing
Ġvol le
Ġj ul
z aam
Ġ rij
Ġbe sl
Ġgew oon
on e
k ing
n et
g ram
Ġt oen
Ġn emen
Ġman ier
Ġop t
Ġb oek
Ġm aat
Ġwe et
Ġnatuur lijk
iet en
Ġbe w
Ġge sp
Ġz ullen
Ġh oofd
aal d
Ġv rien
Ġa ct
Ġprob le
Ġst e
Ġre gel
Ġlaat ste
ic e
Ġwel ke
Ġ ide
Ġart ik
Ġhou den
Ġgebruik t
ge st
ĠA m
ken de
g r
oo s
Ġst ad
Ġj ouw
Ġle kker
et er
Ġon line
Ġm om
Ġaan b
Ġk n
Ġj ij
Ġ1 5
ĠG e
i le
hou d
je ct
akk elijk
os s
Ġ &
ĠO m
stel len
Ġs y
wij s
ĠL e
or d
Ġgem een
Ġb ren
Ġg ere
in s
ar kt
Ġge eft
Ġz oek
Ġme d
Ġg et
Ġl icht
Ġonder zoek
Ġin st
Ġw eek
r it
Ġzo dat
c om
h and
b ouw
Ġt ele
Ġge st
z ij
d racht
ur g
Ġbas is
be d
l ingen
Ġ [
Ġpro f
zelf de
Ġm idd
Ġs h
Ġh eer
Ġb r
k l
Ġad v
Ġgebru iken
ol og
t je
Ġbet er
Ġaan v
Ġvin dt
Ġander s
o ge
in n
o eren
p s
Ġle uk
Ġt h
Ġ âĤ¬
g a
Ġd agen
re ken
at e
O p
Ġk on
ru m
el de
ul p
Ġme de
ĠA r
ant woord
Ġsle cht
Ġ ,
Ġvan af
Ġvoor al
ĠW at
an nen
Ġvol gende
Ġp aar
ak ken
Ġc l
ijn en
Ġw anneer
Ġkle ine
ia le
Ġp racht
Ġex tra
ĠB el
i b
Ġf ilm
ou d
Ġs m
k amer
re ven
Ġ im
Ġzelf s
it u
le iding
Ġaut o
kom st
00 0
ĠEuro p
ra f
ee st
Ġel ke
ze ker
oo it
Ġe ind
uur t
Ġkw aliteit
l er
g et
iv iteit
ra s
gram ma
om s
Ġhele maal
ĠR e
Ġv raag
am elijk
en de
Ġwil t
Ġ1 2
Al s
Ġcom p
Ġz on
an ge
b in
Ġb ouw
oor den
Ġf un
Ġo or
Ġlig t
id s
o ur
ĠD oor
ub l
Ġp rijs
Ġmom ent
ijk t
Ġd oel
e k
Ġkrij gt
Ġa p
Ġblij ven
re den
Ġv ier
Ġma and
Ġ .
werk ing
Ġv eil
el ingen
aan se
Ġvoor zien
Ġu n
Ġin d
b o
Ġdire ct
Ġenk ele
em ber
Ġop l
h a
ru ik
ĠM ar
al t
st eem
Ġgev al
Ġle er
e ken
n aast
Ġg a
ag ina
Ġc olle
iÃ« le
Ġuit ge
Ġge be
atie f
Ġsp eel
Ġd uid
schap p
ig d
Ġl ief
Ġsch ool
Ġh uid
an gen
a den
Ġgr ond
i um
Ġ /
Ġr el
ĠP ro
n ieuw
Ġn ooit
E N
t s
Ġst and
ist en
ĠD an
Ġin ge
Ġalle maal
er ie
Ġe chter
Ġk op
Ġk ant
v ing
Ġz ie
Ġre st
Ġc ent
g roe
sch ien
Ġkle in
Ġk osten
E R
ind s
Ġd oet
Ġzit ten
Ġt huis
Ġaf ge
ig n
aal de
Ġte chn
Ġeer st
Ġtwee de
Ġw oon
Ġwer den
Ġf l
Ġge gevens
Ġbeh and
s y
m b
Ġde s
Ġbesch ik
Ġ ele
h op
Ġken nis
Ġk ie
ent ie
erg ie
Ġwaar in
Ġprodu cten
raa k
Ġkw am
y s
p el
o elen
Ġk ijken
Ġartik el
r ip
ie dt
a il
Ġn aam
et s
st erd
Ġe ff
aak te
Ġieder een
ĠH oe
Ġ an
Ġop ge
Ġge he
Ġkle ur
Ġvrouw en
rij d
Ġf in
Ġb ele
ui zen
aar s
re d
sch e
ink el
s ie
ĠN a
V oor
Ġd ruk
Ġ :
a x
wij l
ac k
ic atie
Ġa v
um mer
Ġd raa
ij en
ro kken
i al
ra kt
ĠB l
b el
Ġbe kend
ot el
sterd am
al ing
d aag
Ġle u
Ġe uro
am il
ou t
le g
Ġwaar door
oop t
Ġgemeen te
van gen
Ġbe k
Ġre ken
Ġver ander
us e
a ire
ass age
1 0
Ġwaar bij
ver se
rek ken
Ġbet eken
Ġm uz
Ġd uur
Ġ1 6
icht en
5 0
Ġzo wel
ijn a
ĠNederland se
p ass
u te
Ġv oet
Ġbij zonder
ic k
ro om
Ġjul lie
Ġvrien d
wer p
nem ers
Ġz orgen
cl us
d elen
Ġ *
p te
e ur
Ġst erk
Ġse ks
Ġk ort
Ġt op
Ġm od
ĠW il
ctie f
Ġruim te
re in
Ġniet s
Ġblij ft
h er
Ġver st
b r
on g
Ġ1 7
Ġgeb ied
Ġres ult
f oon
Ġst ap
Ġb iedt
Ġl id
Ġk ind
Ġg ing
m in
gen omen
er ing
Ġw it
W e
Ġj ou
o den
v in
le den
Ġhad den
elijk heid
Ġkeu ze
Ã« n
Ġbez oek
Ġ1 4
ĠG ro
a ir
1 9
ap p
v al
Ġn eem
Ġv ele
Ġ i
Ġd r
Ġhel pen
. âĢĿ
Ġv or
Ġs c
! !
Ġ Y
Ġro l
z ig
er de
it s
Ġgev ol
Ġsp el
ĠT e
or den
c k
orn o
Ġze ggen
Ġb ieden
ui ste
Ġvan uit
u ten
or te
ĠAm sterdam
ij st
am es
ere cht
Ġvol gens
Ġbest aat
Ġs oc
w w
or gt
m et
un ten
Ã¯ n
Ġged aan
Ġie mand
gel open
Ġwerk t
Ġgroe p
Ġeen v
u p
Ġbet re
ĠD ie
a z
Ġvak antie
Ġprodu ct
Ġ3 0
Ġvol doen
Ġn amelijk
d acht
Ġbest aan
g oed
Ġ eten
en te
Ġt uin
Ġw ie
Ġl ich
ver en
ol en
ur t
es e
Ġm ater
s el
Ġz at
sp ro
Ġbren gen
Ġn e
Ġou de
Ġbe etje
wee st
De ze
or e
Ġk re
Ġb lijk
Ġj uiste
Ġduid elijk
Ġleu ke
m erk
o ft
er st
d st
atie ve
ij l
in ig
Ġsp elen
Ġb ro
b urg
ĠE l
3 0
Ġb ijna
Ġte am
Ġde c
Ġc re
om e
Ġdi verse
wer ken
r is
Ġ Â
ĠK l
Ġge weest
a ste
at or
Ġp as
Ġv roe
Ġh al
Ġh en
erv ice
a ur
Ġcom m
ĠP l
in de
im aal
Ġop dracht
en en
ĠU it
Ġom geving
on s
aa p
is c
ri ft
ra k
n er
ce pt
Ġver vol
O n
ĠOn der
an te
Ġb re
on de
a uw
ĠA an
Ġon gev
Ġv ide
Ġw oning
Ġf amil
Ġcom bin
io de
ĠO f
Ġm aan
ĠAl le
r ik
Ġl ucht
ab el
Ġz etten
werk t
Ġ1 1
Ġz iet
Ġ1 00
Ġz om
Ġtra in
ĠT he
Ġv is
Ġze gt
elijk s
Ġkun st
Ġover een
Ġeigen lijk
Ġl ater
Ġple k
eren de
Ġof f
Ġp rakt
Ġm ot
o erd
Ġen ergie
oe p
Ġou d
Ġgele gen
gest eld
or p
as e
oe kt
Ġaan we
ĠV ol
ro l
1 8
Ġl ie
Ġte k
Ġbed rijven
ĠD en
Ġerv aring
Ġin t
Ġonder ste
o ch
Ġver wij
v is
Ġ |
ion ele
Ġver v
Ġ x
Ġst ellen
Ġdien st
ĠO ver
ol l
m p
Ġmil j
Ġf e
s k
Ġgen oeg
in ter
Ġvolle dig
nem en
ĠA f
ar is
or ie
ic o
Ġl ijkt
Ġt ran
at eg
rouw en
D it
Ġk racht
ank elijk
Ġen ige
Ġm o
r y
Ġ et
in st
Ġ2 5
z ak
ĠBel g
Ġsp ort
Ġplaat sen
ĠG r
a ctie
Ġ ...
Ġmuz iek
Ġide e
om st
Ġge p
Ġter wijl
ou dig
Ġlang s
Ġdaar om
it ter
Ġmis schien
aal t
oe men
B ij
Ġp at
ĠV l
ig h
Ġh art
at t
sl oten
Ġwe inig
ru ct
ĠS ex
if ic
Ġh ard
Ġg elijk
Ġl oc
aard ig
c ces
Ġgew eld
ver t
Ġp os
Ġs oort
Ġw and
re g
Ġpracht ige
ip s
Ġmaan den
Ġden ken
Ġjon g
Ġsu per
Ġkan s
Ġl open
Ġp ar
Ġd ingen
Ġh oge
Ġgeb ouw
Ġverh aal
Ġ1 3
ven s
g ing
sp raak
Ġkl anten
Ġvoor t
Ġfin anc
Ġz orgt
ma il
k le
Ġbe eld
Ã ³
Ġb le
ist er
Ġuit geb
Ġslecht s
Ġmin uten
stel lingen
Ġ201 8
ĠDaar naast
Ġaan dacht
ver d
Ġper f
mat ig
Ġorganis atie
Ġkie zen
M et
at ten
der d
Ġst art
Ġgesch ikt
Ġer voor
Ġgele den
le i
ul d
Ġs oms
Ġv oel
ig er
ĠI s
Ġl ast
iviteit en
Ġp ubl
Ġkl aar
Ġbe ve
nem er
u x
Ã ¨
Ġlich aam
Ġre den
p h
Ġont vang
Ġ2 4
res s
Ġw en
e uw
ĠD uit
Ġhoog te
id den
Ġpro gramma
waar den
iss ie
k oop
Ġl eren
ij s
r atie
o h
Ġd icht
o ber
i an
Ġbeschik baar
mer ik
r et
Ġwe ken
Ġs ite
Ġgev oel
Ġt ien
Ġpro ject
Ġh ulp
j aar
raa d
Ġme is
on nen
Ġden k
it es
Ġvan daag
Ġb ru
Ġmogelijk heden
plaat s
ment en
Ġt oek
Ġinter net
E r
Ġbest uur
Ġin sp
Ġmee ste
c te
s h
i x
Ġeer der
Ġm erk
Ġmen s
Ġmoe st
p unt
Ġm arkt
Ġb uurt
wer pen
Ġproble em
n ation
Ġtele foon
c a
y p
Ġf ijn
Ġopl oss
Ġav ond
Ġre is
oen en
Ġgez ien
acht e
mm ing
um ent
J e
st uk
Ġk open
Ġkl ant
uk k
Ġbeg in
Ġp agina
Ġsu cces
Ġst em
ĠA d
Ġpol itie
Ġongev eer
1 2
l og
b al
ke ur
ĠZ ij
Ġl os
t h
il ijk
W ij
p ers
z org
u il
Ġprof ess
Ġt erecht
Ġg ar
un i
Ġcon s
Ġz aken
Ġ5 0
Ġma x
m ers
af el
Ġm assage
Ġp ark
Ġl ange
Ġmede werk
zet ten
Ġgez ond
ĠF ran
Ġ X
it t
Ġv oed
ru im
op pen
res ent
a ut
Ġle s
ĠU n
Ġal ler
ĠM e
E n
Ġl ink
Ġaf gelopen
Ġn aast
ge ver
Ġh otel
Ġj uist
gel s
u ele
Ġver antwoord
Ġm ogen
ge gevens
Ġmidd el
Ġvol gen
Ġkeu ken
Ġreken ing
Ġk aart
Ġmoe ilijk
Ġm akkelijk
Ġeenv oudig
ch e
Ġn orm
sl uit
stand ig
Ġwaar de
Ġc o
Ġzou den
staan de
ĠN ieuw
Ġvoor komen
ul ier
Ġv ijf
o om
Ġle zen
Ġst u
Ġde zelfde
Ġs inds
oem d
k ant
Ġmeer dere
Ġin f
oor ten
Ġs itu
Ġbep aalde
Ġw arm
rij zen
Ġlig gen
Ġb ad
A N
ast ing
Ġman nen
Ġh og
v orm
Ġnieuw s
Ġtoek omst
.. ..
Ġd ro
Ġc m
k k
Ġz in
oe f
Ġre d
ag er
Ġgen ieten
Ġgehe el
ĠW aar
Ġzo veel
Ġele kt
am ers
Ġgroot ste
iden t
Ġwe dst
Ġtoe pass
âĢĻ .
c ies
schap pen
olog ie
ee d
ind elijk
Ġw et
Ġz oeken
Ġbeteken t
an u
ive au
Ġf orm
Ġsch oon
Ġf eest
w are
Ġfe it
Ġe euw
i ele
Ġg ra
Ġac c
pl icht
s n
Ġge Ã¯n
Ġru st
Ġn ov
f ort
Ġw inkel
Ġt ro
sch rij
m ber
b et
at h
r il
Ġfamil ie
Ġo og
it y
Ġp op
r ist
Ġcon c
sch ijn
d am
Ġou ders
Ġp orno
Ġproble men
ast en
Ġgro ter
p ort
be h
Ġuit er
Ġhou dt
ĠG od
t t
o zen
ct or
Ġkle uren
op t
erd ag
sl and
1 1
Ġheer lijk
ro le
Ġtoe ge
ven t
S t
ger icht
Ġverg elijk
Ġd elen
Ġbez ig
o it
Ġpr iv
Ġge geven
v el
Ġr is
gem een
Ġen orm
le x
Ġp assen
Ġper iode
Ġblijk t
ct ion
Ġb al
im a
u e
Ġsch ade
pte mber
Ġv ond
Ġpers onen
w on
Ġv lie
Ġ19 9
Ġv re
ug d
W at
ee uw
Ġle eft
en e
er ken
Ġd oc
I N
im ent
Ġ ant
Ġgez ell
gev oerd
ĠN iet
Ġver zeker
Ġbeg ele
ĠC l
heid s
con om
i oen
vol le
ĠA merik
i ers
Ġin dien
org anis
aur ant
ukk ig
ak t
eren d
1 5
y n
b oek
on eel
in den
anu ari
m ot
Ġbe sp
omm ige
ĠL ees
Ġecht e
Ġmoe der
Ġuitgeb re
Ġo kt
f eer
Ġvervol gens
ĠM ijn
cht en
Ġle den
Ġmet er
iÃ«n ten
ge w
Ġwaar op
ur k
ig it
Ġgem akkelijk
z ing
iÃ«n t
d ruk
Ġf or
Ġn acht
b ele
Ġdi ent
voer ing
Ġn ood
Ġsl aap
k op
Ġz et
Ġd o
we ge
Ġcom ple
a h
Ġont vangen
y pe
Ġbep erk
Ġneem t
Ġcomm un
groe p
Ġkre eg
ond ag
s m
Ġpl an
Ġb oeken
Ġ201 7
sl agen
t jes
Ġme i
Ġwij ze
midd els
r ing
Ġp ast
Ġbet rokken
Ġvide o
u le
sl uiten
Ġwil de
Ġse ptember
om p
Ġst ud
ĠEurop ese
ĠW el
Ġw ee
gr ond
st of
le ven
u im
Ġadv ies
ĠZ w
Ġj anuari
je cten
Ġont de
Ġonderste un
Ġnov ember
Ġj uni
Ġar be
Ġc ult
Ġmet een
f in
h al
Ġl oop
ie u
Ġa ss
Ġsy steem
Ġact iviteiten
av ond
l icht
Ġa cht
Ġverw acht
V an
Ġbe ide
Ġop nieuw
et ail
Ġpersoon lijke
Ġ y
Ġb i
ie w
raa gt
Ġieder e
Ġaanwe zig
Ġa mb
ge d
Ġn ad
ge men
Ġo gen
n ing
ic a
j ar
Ġhe en
âĢ ľ
Ġwaar mee
O m
Ġsch il
o ze
Ġontwikk eling
er n
Ġs ub
Ġtot aal
Ġokt ober
is e
w or
ĠN u
Ġzw em
iz oen
Ġk ijk
r ank
w ijk
ĠE x
Ġk orte
clus ief
Ġz ee
ĠJ an
i vers
Ġl aag
Ġbr and
Ġvoldoen de
1 7
Ġ201 6
c ont
gemen e
Ġm aak
rip t
Ġbeg innen
Ġv alt
ĠB en
an en
Ġgew orden
Ġa ctie
Ġl ok
k un
Ġenk el
le m
de eld
Ġh oor
Ġonder wijs
ree k
Ġbet alen
str aat
Ġhoe veel
Ġk off
ma ken
Ġpre cies
Ġd oe
Ġuit e
Ġdaar na
Ġander en
ĠB ru
ann ing
Ġf iets
Ġmo der
oem de
Ġre c
1 6
Ġsch e
o eld
Ġwaar om
Ġeven tu
Ġh alen
Ġbesch erm
Ġl og
ff en
Ġder de
D at
ig de
Ġw oord
Ġwe b
ot ter
ĠW anneer
Ġkrij g
Ġgeh ad
z er
Ġover zicht
Ġte ken
g elijk
Ġverk l
Ġbelangrijk e
Ġjon ge
oo i
Ġ and
Ġ2 2
Ġbl og
Ġd ik
plaat st
ie p
Ġpro cent
off en
Ġ2 1
Ġwaar van
et jes
d ra
ĠN oord
Ġ201 5
a in
Ġs erie
it er
een s
h ankelijk
v rij
Ġpro ces
d ige
o x
we zen
ĠOn ze
Ġk ru
Ġhoe ft
Ġst ond
Ġ #
Ġmaar t
m ak
bed rijf
Ġlang er
d it
Ġhuid ige
u ter
b re
Ġmogelijk heid
b ank
Ġcombin atie
Ġt rouw
Ġgeld t
schijn lijk
Ġp ap
Ġloc atie
Ġh anden
st aat
Ġsamen werking
w eer
ĠIn ter
ĠH e
Ġze i
ang er
i zen
um enten
Ġk ost
ĠZ ijn
ot h
in o
f l
b ere
ul dig
Ġgev onden
Ġdan k
Ġmilj oen
Ġm on
ct ies
Ġris ico
Ã ¶
og raf
Ġbetre ft
Ġz iek
ber g
rek king
Ġb ank
Ġmedewerk ers
Ġzat erdag
r icht
ra ken
Ġk o
Ġaut om
a us
Ġ Q
geb ouw
ver b
ra b
ĠS te
Ġon be
l oop
pp ort
ĠP ar
Ġh oop
k w
or st
r aal
st ad
m ijn
Ġd on
Ġdaar bij
e ctie
ĠD us
ie ken
Ġap ril
Ġk erk
pro du
Ġprakt ijk
Ġn o
ure au
t re
Ġ aard
m per
Ġveil igheid
Ġvorm en
Ġ4 0
Ġk il
Ġbehand eling
ij ven
b ren
Ġe inde
p ar
Ġp rijzen
E L
Ġdien sten
eu ken
Ġz ak
as h
Ġm ob
in es
Ġdec ember
Ġk ap
Ġgem e
m aat
ste mming
Ġapp ar
z ier
ĠS l
Ġcom fort
N a
ieden is
Ġad res
Â Ń
Ġrest aurant
a and
Ġuit v
k osten
D F
ĠM eer
o y
ĉ Ċ
Ġs feer
Ġinter nation
ig ers
ol land
ĠG el
Ġv oer
Ġwerk zaam
ap en
Ġl anden
ĠP r
Ġspec if
Ġp ost
Ġv le
z ijn
Ġgeb oren
Ġbedrijf s
Ġk amer
Ġrij den
1 4
geb ied
Ġop v
Ġh oren
midd el
Ġn ummer
Ġsitu atie
l ijn
b on
b ad
w assen
Ġm idden
Ġvroe g
Ġaan p
ap t
. "
Ġonder deel
O ok
u ut
vl oed
ver len
Ġver plicht
Ġverz am
Ġaf stand
im e
Ġresult aat
Ġhal f
ĠT h
Ġz icht
Ġna uw
Ġd ieren
Ġmed ia
et te
Ġd igit
Ġb and
ro t
sch ool
oe gen
ĠâĢ ¦
u ik
otter dam
i der
ow nl
Ġz ondag
d eling
Ġlief de
Ġbeg int
Ġd isc
m oet
Ġregel matig
M aar
gele gd
l open
âĢĿ ,
Ġreg io
rij den
Ġz oekt
Ġstu den
ank s
Ġstand aard
Ġrecht s
Ġbek ijken
is en
Ġs ervice
ĠAn t
Ġen t
Ġtek st
ownl o
Ġverb l
ruim te
Ġleeft ijd
ra le
Ġd ak
aar de
Ġn eer
ĠZ uid
. âĢĻ
sch rift
m arkt
Ġsl ag
ot s
we gen
Ġlever en
re gen
Ġzw arte
Ġtoepass ing
z ame
Ġpos itie
d el
Ġgen omen
Ġma il
Ġoploss ing
Ġwedst rijd
Ġgem idd
Ġon ver
o se
sp ort
ĠN e
Ġe conom
Ġr ichting
o i
ab y
ar s
Ġge houden
v iew
Ġpop ul
Ġm aakte
n ame
Ġb us
i ft
z el
re kt
Ġ201 4
ik ken
oog le
ro ken
Ġuit ste
ol f
Ġh uur
âĢĻ ,
Ġtoe gang
ĠS h
Ġpracht ig
Ġinst all
Ġk oop
ĠS e
ie ve
ĠR otterdam
uren de
Ġk ar
kom t
Ġjul i
ss el
Ġ qu
v eld
Ġbed rag
ist ische
sp el
ĠEurop a
oeg d
oc k
Ġverk rij
Ġt w
Ġs oorten
A R
Ġp resent
us s
he b
Ġ2 3
Ġw oorden
Ġk m
u de
Ġsoc iale
il t
Ġinter ess
sp re
Ġj a
Ġleven s
ve st
Ġa t
ie el
ch ine
Ġw ijn
1 3
roe f
, -
use um
Ġzich zelf
z itter
il iteit
Ġaanb od
Ġst ijl
Ġhog er
Ġl ijst
d f
Ġo oit
Ġgev allen
Ġpr ima
t recht
l ang
Ġmeest al
Ġbijzonder e
Ġp unt
p akk
g eld
baar heid
ap pen
Ġje zelf
h et
Ġv ader
w ater
t oe
Ġuite indelijk
ĠP DF
Ġf ile
ug ust
Ġgen oemd
Ġver s
oe ien
he m
Ġvrien den
p art
Ġzom er
Ġge s
h alen
Ġte v
ge sch
Ġhet zelfde
Ġaan t
Ġst il
Ġaan geb
sy ch
Ġz ag
ak e
z o
Ġdaar mee
Ġprob eren
Ġer van
i ent
ut t
ff ende
ee f
ĠT er
Ġle ggen
Ġver en
m al
Ġgebe ur
Ġin houd
rien d
Ġt al
Ġb ur
Ġbed oeld
le ment
V er
oft ware
ĠW est
Ġg ren
ĠDaar om
Ġgl as
Ġpart ijen
Ġst er
Ġont werp
Ġop le
eb ru
Ġbev at
Ġop leiding
Ġmater iaal
Ġwen sen
ĠB oven
Ġfun ctie
Ġmod el
Ġd ood
z ie
i alen
Ġs im
en n
vin c
Ġ Ã
Ġc amp
Ġstr and
w ill
aar ten
id t
Ġont staan
ĠF l
h ol
is sen
Ġsch rijven
j a
Ġin middels
ot o
Ġh a
Ġvoor waarden
Ġrel atie
Ġverb et
ken s
Ġf act
amer a
Ġse izoen
Ġt aal
as se
Ġf iet
Ġst elt
Ġz es
Ġp ijn
un g
an de
Ġm at
el k
sp l
co unt
w aard
p ast
ra ct
ĠJ oh
ver zeker
z oeken
omm issie
Ġd ames
zij de
g ro
d agen
Ġerv aren
jar ige
Ġh ar
Ġv allen
ĠIn dien
uur d
Ġpart ij
Ġex per
B e
dien st
Ġcent rum
te gen
Ġm ocht
Ġde ur
Ġc urs
Ġgeb racht
Ġa ctief
Ġr ijk
Ġp ass
âĢĿ .
Ġbl oed
Ġver oor
een komst
r ic
Ġl oopt
Ġst of
igh t
Ġgest eld
Ġmaat schapp
Ġh or
Ġleer lingen
Ġmot or
Ġl en
S T
stel de
raag d
k elijk
Ġvrij dag
Ġspec iale
Ġcl ub
Ġn iveau
Ġgesp rek
waar de
g de
ec te
sc ript
vl ak
it i
Ġvoor dat
raa f
alis eren
Ġcolle ctie
Ġaller lei
ĠB r
ugust us
at ische
Ġpers oneel
Ġ Ð
Ġge ze
Ġvl ak
ind ing
ell er
ĠM en
Ġs ele
/ /
Ġdaar van
Ġou der
Ġkoff ie
b le
ĠC ent
Ġre sp
im ale
Ġperf ect
Ġken nen
Ġc ar
age ment
is me
Ġk onden
gen d
Ġc or
sp ron
Ġuit gevoerd
oe den
k und
ist or
ark et
Ġbeg rij
el le
Ġgevol g
Ġw achten
an ken
Ġple zier
cent rum
Ġs ommige
Ġ antwoord
der ing
et ter
Ġber icht
t o
Ġsp ra
ĠU trecht
Ġ201 3
ĠâĢ Ļ
Ġbesl uit
at isch
Ġbelangrijk ste
Ġ Ã©n
be st
ste m
ebru ari
Ġb ar
Ġz aak
Ġth is
ĠN eem
ok ken
ateg orie
4 0
oth eek
n ummer
Ġspec iaal
Ġstr aat
O R
Ġ +
ĠGr atis
Ġpersoon lijk
ond s
Ġje ugd
ul l
z aak
Ġ2 8
Ġveil ig
Ġvor ige
ig in
Ġhier voor
Ġbep aald
iv id
Ġop genomen
r im
Ġk erst
ru it
em ent
el aar
" ,
Ġre ed
an e
Ġgel uid
ĠT ot
ĠH eb
ĠI tal
Ġw ww
k ijk
Ġge komen
et e
Ġal gemeen
or ten
Ġpubl iek
ĠNederland s
Ġp ot
Ġge g
Ġkw amen
z ijd
Ġde ed
Ġf ant
ĠOn t
kom sten
ĠF rank
Ġbeg on
Ġverk oop
Ġd orp
2 5
ĠW ant
Ġzw art
Ġt afel
Ġsh ort
Ġwaar schijnlijk
te s
en k
Ġin v
ree kt
Ġbestaan de
st al
Ġfinanc iÃ«le
Ġ2 7
am s
Ġvol wassen
in ken
Ġverm eld
Ġvan wege
Ġbet rekking
Ġge plaatst
' .
6 0
Ġw onen
k aart
ĠBelg iÃ«
Ġsm aak
Ġin zicht
a i
ent ies
Ġbeh eer
standig heden
Ġresult aten
ic ro
Ġapp arte
Ġcolle ga
Ġun ieke
Ġbere iken
r ent
Ġa ugustus
ĠO r
Ġvolle dige
ĠT wee
Ġged rag
script ion
ĠT ijdens
ig t
in c
Ġt oon
ĠG oogle
w oorden
Ġt oer
n ov
ge z
Ġbren gt
de s
Ġu p
ĠA pp
Ġdire cte
Ġsch er
Ġbe stellen
ro m
sch erm
Ġf ebruari
ar ingen
midd elen
y l
Ġr icht
Ġm eld
ac y
Ġarbe ids
E T
oed ing
Ġkle ding
weg ing
Ġv ij
Ġge sl
s gegevens
Ġw ind
ter n
Ġdat ing
ĠC on
Ġhou t
wij f
Ġger icht
roe p
Ġspeel t
re gel
ik s
Ġnet werk
Ġbre ed
Ġte vens
Ġp unten
Ġthe ma
i alis
Ġv oeren
p rijs
Ġpl at
Ġgebruik ers
Ġont moet
w iss
Ġinsp ir
Ġaan sp
Ġver sie
E D
Ġi P
ot te
Ġmeis jes
Ġvl ucht
Ġpart ner
: //
Ġd ragen
l oos
Ġb os
Ġhel pt
w agen
Ġv aste
reg elen
sluit ing
Ġan al
Ġr aad
ist ratie
it el
ers e
Ġwee kend
Ġo ef
u ff
sc ort
Ġsch rij
d us
in dt
ĠM an
Ġw on
Ġd ub
ĠL aat
Ġind ruk
ruct uur
ĠV eel
Ġse c
Ġbew ust
Ġgesch iedenis
Ġheer lijke
Ġbe kende
Ġm erken
ĠG em
Ġspra ke
Ġbed oel
Ġoff ic
Ġvol gt
Ġgebe urt
Ġ201 2
eb ook
Ġn ot
Ġru g
ĠH aag
oen s
a ro
Ġar ch
ie mand
Ġt ab
il le
Ġ2 6
i ste
Ġw ist
Ġgek ozen
ĠH el
Ġuit voering
ks hop
Ġzw aar
ut ie
Ġw inter
R O
Ġle es
Ġet c
Ġcont role
Ġwit te
Ġ6 0
ĠG eb
Ġtoe v
ree f
Ġm ond
Ġvoor bij
Ġonder nem
ux e
Ġp sych
spro ken
ĠK le
hou s
am b
d anks
Ġcon st
Ġbl auw
m on
G e
i elen
Ġvoor af
Ġontwikk elen
Ġp df
A T
ĠG een
Ġzo on
D aar
Ġle iden
Ġverz org
z ingen
u c
art s
Ġovereen komst
Ġcomp uter
Ġind ivid
Ã ¼
Ġbezoek ers
zen d
Ġont sp
Ġt ips
Ġdo chter
Ġn amen
Ġlink s
Ġpol it
il and
Ġg ast
ru g
Ġw ink
id ingen
te ken
ig ingen
Ġvoor beeld
k ast
Ġuit zicht
bl ad
f er
ac e
Ġter mijn
Ġeff ect
Ġversch il
Ġkomen de
ĠH aar
b es
Ġb ron
Ġprofess ion
Ġgez icht
Ġnatuur lijke
Ġal l
est iv
geb ruik
Ġber oep
schrij ving
ĠAmerik aanse
D oor
Ġb ak
an ce
ĠVer der
Ġgeze gd
Ġc ir
Ġver zoek
ca use
olog ische
Ġdes ign
be elden
it ief
act ies
Ġa s
Ġbe cause
ĠIn d
Ġl ag
Z o
Ġadv is
ort iment
Ġvert ellen
Ġlok ale
Ġaf sp
Ġde scription
oe s
Ġprodu ctie
Ġdon ker
l y
Ġal gemene
sy steem
Ġin g
stig d
e cten
ouw en
inder en
Ġl ijn
w it
og elijke
Ġfun ction
re pen
Ġin vloed
Ġuiter aard
Ġs al
Ġvl oer
onder dag
Ġd ou
Ġ19 8
te el
ell ing
derd aad
ac ebook
ĠT oen
Ġra d
he en
ste men
ĠM in
Ġgel oof
Ġverd w
ĠO ost
Ġn ame
H oe
ga ve
Ġmoder ne
is h
Ġste v
ar ie
âĢ ĺ
av or
Ġkil om
oe st
d aan
Ġverh alen
p os
ui den
Ġhier bij
w et
o le
Ġw acht
Ġbouw en
Ġzie ken
Ġver vangen
gem aakt
ĠV eren
Ġfilm s
ĠN atuur
Ġre gen
Ġwaar onder
hou der
Ġkant oor
oe pen
Ġmeis je
Ġkl im
Ġvrij will
ĠH eer
a zen
aa f
Ġsex y
Ġd u
r ische
on ie
Ġw ar
Ġmoe ite
Ġc as
Ġverk eer
Ġdie p
ar ten
ader ing
Ġgen er
Ġd etail
ĠB er
Ġd erg
k ort
Ġpro vinc
Ġbuiten land
Ġgew en
Ġim mers
hou ding
ĠN aast
Ġge ve
Ġbep alen
oe der
Ġge de
2 00
Ġover heid
Ġbere ik
ode m
ander s
ĠBoven dien
d r
Ġdaar voor
Ġs k
Ġtev reden
Ġb aby
Ġvoel t
re m
ĠAr t
h oek
Ġass ortiment
Ġent hous
Ġh ond
Ġcom pl
am a
oens dag
ĠR aad
ow s
Ġbe stelling
Ġe et
Ġste un
Ġm m
Ġschil der
u igen
Ġp akk
Ġverantwoord elijk
n ers
sch ak
ivers iteit
Ġstuden ten
Ġor igin
ĠP h
op er
h ode
ĠW ie
igen s
ĠG en
ĠN et
Ġ =
Ġkl ass
Ġop er
v rouw
h uizen
Ġdag elijks
Ġvoor bere
Ġzon ne
u eel
Ġk ent
ĠC ont
Ġmax imaal
Ġgez et
Ġdat a
Ġk e
Ġst ij
Ġspec ial
Ġonder delen
Ġv al
woord ig
ĠC ar
w inkel
Ġs oftware
Ġpre st
Ġble ek
Ġv oelen
Ġin clusief
p unten
v aart
Ġlief st
ĠOm dat
Ġaf spraak
Ġjong eren
" .
ĠS u
Ġon ge
Ġt oet
ĠE U
ras sen
n aam
Ġwerkzaam heden
her ap
Ġ2 9
Ġspecif ieke
Ġinternation ale
Ġcult uur
Ġwor d
Ġj ur
Ġad vert
u kt
Ġbad kamer
Ġbesch ikt
Ġer n
O N
h oog
Ġnood zak
Ġinf o
s er
ĠP er
ĠS amen
iet e
ĠB ar
Ġs er
Ġbetre ffende
Ġgek regen
Ġn ation
b aan
Ġstap pen
our n
v ast
Ġru stig
ie ur
o ond
Ð ¾
Ġruim e
Ġk r
H ier
d o
Ġre chter
Ġjaar lijk
arket ing
k racht
Ġbe oord
Ġn ou
Ġtran s
Ġf avor
Ġa bs
Ġt rekken
Ġk at
le ggen
l et
Ġer ot
ol d
ĠS c
Ġb aan
Ġf ab
gaan de
ken nen
ĠHier door
ĠBe kijk
Ġmater ialen
f ilm
f en
Ġdaar door
ip pen
Ġartik elen
Ġcommun icatie
Ġen e
Ġaf beeld
Ġn at
gen aam
Ġl uist
Ġreed s
ver ing
ĠI eder
r ichting
ra st
Ġover al
ke ken
v ak
Ġte mper
Ġk ader
Ġregel s
ce du
Ġbel asting
ol ie
Ġst uren
Ġbeve il
ĠG ron
won ers
Ġg ingen
ĠS int
Ġverb and
Ġp an
Ġ it
g l
Ġc amera
b and
m eer
Ġm ogelijke
Ġcomple et
Ġher inn
Ġmaand ag
I S
Ġcre Ã«
de k
Ġpersoon sgegevens
Ġin du
Ġm acht
Ġbeg onnen
ge geven
Ġh tt
A L
b y
we st
C H
ĠVol gens
Ġst at
is schien
ert ific
Ġtrain ing
Ġre actie
Ġ201 1
Ġg af
ĠZ elf
pro gramma
Ġte gelijk
Ġd ownlo
Ġsp reken
Ġhel aas
Ġvert rouwen
Ġuitgebre id
it ies
Ġonder houd
Ġhel ft
Ġlever t
Ġg ang
Ġin iti
Ġontwikk eld
Ġpro jecten
ĠM ed
Ġp e
bl ijven
ten s
g te
Ġgeweld ig
k n
Ġaf hankelijk
a w
m ogelijk
Ġvoor deel
Ġaan zien
Ġk ut
Ġstud ie
aat s
Ġ201 0
Ġdeel nemers
A M
ik e
n iet
ĠS n
ĠA c
v riend
Ġvre em
mee ster
Ġf il
per vlak
Ġo b
4 5
Ġbele id
Ġt ype
Ġperf ecte
eder l
Ġgel ukkig
ag n
g baar
t ussen
ĠS m
vis ie
am pen
ĠT och
Ġv raagt
Ġkl achten
de m
Ġro ute
Ġbet aal
ist eren
Ġondersteun ing
Ġgro en
ĠT w
ĠCh rist
ĠEn gel
Ġge gaan
Ġin derdaad
ater iaal
Ġgesch reven
u ig
ak ter
Ġgoed kop
8 0
Ġv ocht
Ġf ys
Ġn eg
Ġle g
Ġc ook
ro on
E S
Ġh ang
Ġb or
p ark
Ġover leden
Ġonder sche
Ġorganis aties
Ġwor kshop
dat e
hou t
du c
re st
l ijst
Ġin nov
ij t
ĠB ed
d om
ins dag
Ġk amp
Ġp ens
Ġgele verd
omen teel
Ġsl uiten
Ġm ar
Ġn iks
p r
Ġle iding
estiv al
Ġbe elden
k amers
a ul
I J
Ġgev aar
2 4
hand el
Ġn oemen
ren d
Ġo lie
M ijn
' ,
ĠC om
Ġverbet eren
Ġte st
Ġziek te
ic s
Ġz acht
Ġenorm e
Ġdigit ale
Ġover tu
Ġnad at
Ġb ood
Ġh y
co de
Ġv est
Ġgeh ele
age s
Ġn am
and aag
Ġver dien
7 0
Ġge est
Ġverk open
Ġhand ig
- -
Ġt re
Ġbez oeken
z aken
Ġbl oemen
aardig heden
Ġl uxe
Ġprofess ionele
Ġt ent
k el
erk t
h eer
ĠDuit sland
ad res
m od
d itie
Ġbet ere
Ġverbl ijf
A f
or s
d ro
Ġer op
Ġwel kom
i eld
Ġe isen
e eld
g ere
beh eer
Ġst rijd
Ġbeh ulp
Ġde fin
gen t
Ġver len
in kt
ik el
Ġc ategorie
in er
Ġzo ver
s id
ple eg
Ġro de
Ġpre m
Ġbr ief
Ġd onderdag
ill a
Ġn iemand
qu e
plaat sen
Ġkw art
Ð °
deel te
acht off
ĠA ut
kund ige
z w
ou de
Ġuitv oeren
Ġinst ru
Ġo ut
as eerd
h oven
Ġac count
Ġgezond heid
ĠT ra
Ġpriv acy
Ġvak er
Ġsp annen
bele id
ĠVl aam
ĠÂ ·
Ġontvang t
Ā Ā
Ġoor log
aag d
Ġgezell ig
Ã ¡
Ġmin ister
Ġk oel
Ġdien en
Ġl iet
Ġged urende
am mer
Ġt rein
Ġsl ot
ĠH ar
Ġh istor
te gr
Ġlie ver
Ġboven dien
Ġgroe ien
er men
ver k
Ġ8 0
ĠS ur
ijn t
h one
inc ip
ist r
ak ker
Ġzwem bad
Ġh oort
Ġoff er
Ġre ger
b um
Ġp ak
ast er
Ġsl uit
Ġoor spron
me de
Ġverb onden
sluiten d
Ġop nemen
ĠB o
Ġvoet bal
Ġbet rouw
x x
ar ch
ber t
Ġover l
Ġpart ic
Ġgevol gen
Ġwerk ing
ver l
un ch
Ġd acht
Ġd ier
Ġverwij deren
Ġhier van
Ġom standigheden
p an
Ġer gens
ĠDuit se
wor pen
Ġduur zaam
C T
Ġin zet
l d
Ġmil ieu
ĠK on
ĠâĢ ŀ
Ġc a
Ġn euken
z i
2 2
ĠG er
Ġor de
ĠZ org
Ġaanb ie
I T
Ġw oensdag
W anneer
Ð µ
Ġover leg
ma chine
Ġont b
elijk se
Ġden kt
ri b
ru kt
Ġgebe uren
re en
ikk ing
Ġsn eller
Ġsm art
Ġ3 5
Ġprovinc ie
Ġaangeb oden
Ġwij z
at s
Ġkar akter
Ġm ass
Ġsch rift
den ken
O S
verlen ing
9 5
Ġtra dit
ĠK amer
Ġvrij e
A n
Ġgez in
ar a
ĠNe w
ï ¿
w at
ul ling
re erd
Ġal tern
Ġmaat regelen
ĠM on
k an
ome in
st ra
Ġwebs hop
ree ks
Ġpl annen
Ġfiet sen
Ġra pport
Ġeventu eel
Ġh onder
Ġim p
Ġl iter
Ġf lex
Ġs ol
Ġv og
Ġfant ast
op p
Ġst room
Ġkilom eter
On ze
Ġver leden
Ġautom atisch
Ġhou ten
Ġw ett
Ġter ras
Ġgroter e
Ġpl anten
s sen
Ġz ult
Ġver lie
ot e
Ġbij dra
p pen
ĠT en
Ġopt reden
Ġin form
ou ten
oef te
Ġv uur
al le
Ġsterk e
ĠW er
Ġp ij
x t
ree p
Ġge c
Ġbijdra ge
Ġb oot
ir t
Ġ3 1
n og
Ġgev raagd
Ġbro od
ik te
Ġverander en
Ġmen ing
Ġaanv raag
ĠG a
bij t
rijk e
Ġc ade
ge zet
ij e
Ġb erg
ĠF acebook
Ġal dus
Ġh eren
Ġvoor uit
Ġge ile
Ġnorm aal
Ġmooi ste
Ġcurs us
ĠU w
Ġgro ene
Ġverkrij gbaar
B O
2 3
Ġsch erm
Ġon gel
Ġ >
ĠVan af
Ġp ort
tegen woord
i aanse
Ð ¸
od ige
Ġv ari
Ġr ele
zen ding
f un
Ġwe der
mer ken
Ġw ijk
in ess
ver g
Ġuit dag
Ġw iss
Ġv ar
Ġgemidd elde
Ġh oek
ĠAlle en
Ġtechn ische
oc ol
ĠW et
Ġverk ocht
ĠSt ichting
d ragen
p agina
om in
Ġtoe stemming
Ġt v
gele gen
Ġg asten
Ġf ra
ĠI I
r ont
on es
ĠQ u
Ġgeb aseerd
ĠB innen
Ġad min
Ġpap ier
IN G
Ġpark eer
Ġspel ers
Ġeventu ele
Ġwaar d
Ġ ident
Ġv ac
Ġle ef
ade m
i us
Ġ200 9
ĠK ijk
sch reven
Ġvor ig
Ġn ab
ĠGron ingen
anc ier
i pl
Ġgroe pen
ver m
y t
st offen
k elijke
Ġbed ien
Ġbew on
Ġontvang st
Ġgelegen heid
Ġwebs ites
Ġwar me
Ġgeweld ige
Ġjon gens
Ġstuk je
z us
vin den
Ġbeh oor
v allen
U it
er ij
Ġd w
Ġter rein
Ġg oe
Ġe scort
Ġbeh oe
A S
Ġv e
Ġrond om
Ġver e
Ġdank zij
ĠH er
Ġw ens
Ġver voer
pl an
Ġro od
Ġa sp
Ġbeperk t
im um
Ġver le
ze k
ĠO pen
ĠL and
Ġde b
eer den
ĠS y
ge komen
Ġb od
Ġbesl oten
Ġ ang
Ġwarm te
Ġr onde
d an
Ġvert elt
ĠG l
Ġverg eten
Ġze ven
9 0
Ġapparte ment
Ġr et
ĠFrank rijk
Ġhier onder
Ġste den
Ġsnel le
Ġvoor l
g ra
Ġg as
A an
Ġb ot
Ġal len
Ġh ot
M eer
Ġbescherm ing
Ġderg elijke
Ġkort ing
W il
Ġnoodzak elijk
aan s
Ġpr ett
ha ven
Ġuit str
Ġl ive
V ol
ĠIn st
Ġcent raal
Ġon af
or k
ĠDaar na
Ġeigen aar
Ġpolitie ke
ve il
ĠP ol
Ġbez it
Ġre izen
Ġbesl iss
Ġverm ogen
ijf ers
g ers
Ġabs ol
ð Ł
Ġverb eter
Ġaan m
Ġerv aringen
Ġver f
Ġbet aling
Ġt itel
oo ien
Ġge organis
ud get
re et
Ġ â
Ġr and
Ġuitgebre ide
ĠH olland
Ġvle es
un ning
Ġonder werp
Ġwerk nemers
Ġsch reef
. )
oor n
vol gens
es se
Ġl age
Ġ !
âĢ¦ ]
Ġhe et
ĠKl ik
Ġk amers
Ġh uw
Ġw innen
Ġdro og
b ureau
pl ic
I E
Ġdr inken
Ġop merk
Ġgeme enten
Ġh yp
Ġm uur
Ġ )
Ġs ign
Ġcomple x
Ġt el
Ġbet aald
and id
Ġover w
Ġf ac
Ġh onden
Ġd insdag
- ,
Ġd aad
Ġge sloten
stuk ken
Ġmoe sten
u ze
Ġaanwe z
Ġgebouw d
Ġst uur
Ġze g
Ġw inst
ite ct
oud ige
7 5
Ġaan ra
Ġop zicht
Ġorganis eren
Ġf ruit
ou den
Ġe iland
Ġfijn e
oor te
or iteit
ĠR eg
ĠN ederl
ograf ie
Ġrecht en
il et
Ġ ?
u res
Ġm aal
res sie
r iek
un st
Ġide aal
ï¿ ½
Ġgroe i
kom stig
Ġverw achten
ran den
Ġdat um
i ders
Ġcor re
Ġz en
Ġm ult
Ġ7 0
ĠGro te
Ġdik ke
Ġgew icht
Ġbl oem
Ġbegele iding
Ġvlie gt
ul eren
Ġpr aten
Ġaant rek
m aar
ge en
Ġduur zame
Ġ200 8
Ġst raf
pers oon
Ġre cept
ĠGeb ruik
Ġz ul
Ġen z
Ġgezell ige
Ġst im
Ġk ern
Ġhoog ste
e den
im burg
Ġp en
Ġkun sten
Ġgel den
ww w
ĠN ation
Ġge ef
Ġe mot
Ġmin imaal
Ġst ra
Ġvoor delen
y se
Ġger ust
ĠSp ort
Ġwink els
Ġeff ic
Ġachter grond
ele ct
ap an
. ,
st ers
ve ster
Ġenthous i
Ġv ing
Ġflex ib
Ġkre gen
Ġgoed koop
Ġde m
Ġide ale
Ġl etter
elt je
Ġv eld
Ġvoor n
w ijd
Ġpens ioen
Ġge f
ĠH and
Ġp ad
is se
b ers
Ġuit zonder
Ġgere cht
Ġ aarde
w acht
Ġopt ie
z a
l o
p ol
Ġbe vol
le ving
. '
ver h
Ġpr incip
ĠJ a
Ġge werkt
Ġvoor zitter
et ers
rab ant
Al le
ud io
Ġweten schapp
Ġaansp rak
ĠB est
Ġk ast
Ġver nieuw
el aars
ĠF in
Ġmidd ag
ic i
Ġs et
Ġaan be
elen d
s be
p ut
Ġinter ieur
Ġst arten
verzeker ing
Ġopen baar
Ġrecht bank
Ġdoc ument
Ġo l
Ġgek ocht
Ġgesp ec
Ġzicht baar
ĠC an
Ġcont rol
Ġstr ateg
d oet
al ingen
br ief
Ġprodu c
Ġf ris
acht ig
k ers
Ġveren iging
Ġdoor dat
Ġp akken
9 9
Ġsim pel
Ġc ap
Ġk wij
Ġpl ant
Ġa bon
Ġtechn ologie
ĠP ers
Ġtoe gev
r ichten
ĠBru ssel
Ġover igens
Ġcook ies
ĠK ort
Ġvoed sel
Ã³ Ã³
ve en
Ġu ren
r ingen
Ġsch olen
at ter
Ġt r
p jes
Ġp orn
On der
Ġ9 0
Ġar m
al ist
ĠK om
n eem
Ġsh ow
Ġr it
Ġreger ing
Ġst op
g ar
i ot
g aat
kle ur
T ijdens
Ġwerk gever
f eest
Ġlast ig
ste en
Ġbev indt
O ver
Ġm orgen
ĠB rit
ĠE ind
b us
gen e
ĠC ommissie
Ġtemper atuur
Ġr en
ĠI N
6 5
ag ne
ĠBelg ische
Ġvert rouw
ĠFran se
Ġtegen over
an kt
Ġin woners
Ġk rit
le ur
Ġvoor raad
Ġred elijk
te chn
ĠM il
Ġbe weging
B en
ĠV ia
o wer
Ġidee Ã«n
c el
ĠP iet
Ġhoeveel heid
doen de
Ġme ub
Ġzieken huis
h ang
Ġtegen woordig
e iden
Ġsch ak
cl ub
Ġ ;
ker ing
Ġmidd elen
ĠP ark
st reeks
t ing
pro ces
aan deren
ĠP art
ã ģ
Ġble ef
Ġt wijf
d ie
Ġmob iele
Ġmod ellen
Ġbeh oefte
um mers
Ġvoed ing
Ġ[ âĢ¦]
H eb
r and
Ġtien er
Ġoploss ingen
kun de
Ġpubl ic
Ġpolit iek
ĠV rij
ĠiP hone
Ġvol k
Ġst oppen
Ġe ss
bo x
Ġconc ur
cedu re
d in
Ġlekker e
Ġb odem
Ġfl ink
ĠP aul
Ġbewon ers
Ġinteress ant
Ġs ing
3 5
ge vers
open d
ran s
Ġbl ok
elen de
ĠM isschien
Ġaanp ak
Ġsl achtoff
Ã¨ re
Ġz and
Ġvroe ger
Ġdraa gt
ĠA b
ĠWil lem
Ġerot ische
onder zoek
u be
em a
Ġoef en
man s
un n
ge s
Ġwel k
Ġontsp annen
in ten
Ġkie st
ĠU S
Ġm omenteel
t ie
Ġver tegenwoord
Ġf out
an a
res ident
ĠW ind
Ġpriv Ã©
Ġre par
as is
Ġals of
ĠL a
Ġwon ingen
b oven
i ct
j aard
ett ing
Ġont bijt
Ġpakk et
Ġuitstr aling
Ġ4 5
Ġpositie ve
Ġge deelte
Ġover ige
Ġpat iÃ«nten
er tijd
h aald
ĠD ank
Ġgewen ste
Ġafsp raken
Ġgren s
n ess
Ġcont ract
Ġin c
Ġk eur
ĠNieuw e
Ġkw al
Ġbel len
Ġverzeker ing
Ġsmart ph
Ġver spre
ĠH uis
Ġgeme ent
E M
Ġsch oenen
J a
hou dt
hand eling
Ġcont in
as c
ic it
Ġwel licht
Z e
Ġm arketing
Ġle idt
Ġver slag
ĠC o
Ġver zek
ust r
Ġtot ale
mal ige
elt jes
ĠZo als
ieuw d
s w
Ġman ieren
Ġbeg rip
le ed
ĠW erk
Ġaan leiding
Ġvrijwill igers
ĠI J
Ġbere ikt
Ġaange geven
mat eur
Ġv it
ĠAl les
ĠJe zus
h of
Ġp roef
Ġt ieten
Ġc ond
Ġgen iet
Ġt yp
Ġgar antie
wer eld
ĠM ich
waard ige
ied ingen
mer c
Ġverd iep
aar den
ou der
Ġkwij t
Ġdraa ien
Ġgespec ialis
Ġm ate
Ġorigin ele
Ġontwikk elingen
nem ent
Ġuit voer
Ġgeve stigd
Ġco ach
Ġsub sid
v uldig
ĠDaar bij
Ġre aliseren
p je
Ġt onen
Ġgeorganis eerd
aa i
Ġ200 7
ĠK an
kle ding
h el
int ig
Ġg raf
der ij
Ġd uizen
Ġopt imaal
Ġopdracht gever
2 8
Ġuit sluitend
Ġonder zoeken
Ġhar de
ĠcreÃ« ren
Ġont worpen
h oe
ocht en
te st
Ġk ont
ĠOn line
ubl ic
Ġvrij wel
c am
du id
at ing
Ġtoe g
midd ag
Ġk ijkt
r el
form ulier
Ġbesch ikking
oi res
v at
ĠW it
ur ele
ran je
Ġsl im
ĠW or
Ġhoe f
Ġin gericht
Ġbegrij pen
ĠA ir
Ġun iek
v raag
Ñ Ĥ
ie gel
Ġgez amen
Ġv oren
? ?
S ch
ou ch
omm od
Ġiniti atief
Ġont staat
Ġt oel
racht en
6 6
el oos
Ġer bij
Ġge pl
ĠM aak
Ġder den
ĠE ven
Ġondernem ing
Ġhier mee
ĠDe s
V D
Ġonder nemers
sch uw
p akt
Ġin stellingen
Ġsamen leving
Ġstuk ken
it ion
k te
Ġadv oc
Ġprof iel
b ak
Ġfavor iete
Ġh angen
b ron
2 1
wij ze
Ġdr ank
us sie
Ġaan get
Ã« l
Ġzw anger
Ġl ager
ĠR ijk
Ġontde kken
Ġg oud
ĠJ ac
Ġappar aat
ann e
Ġtro ts
ĠIs ra
ĠM art
Ġvergelijk en
ĠT ele
Ġwoon kamer
) :
al d
ĠS oc
Ġsele ctie
Ġ19 7
ĠD el
sp ec
Ġwaar voor
Ã¶ r
Ġen ig
sl aan
W aar
ĠE er
ĠB ra
ĠEl ke
Ġh om
Ġuit ger
Ġonder staande
st ijl
Ġse ctor
ui f
Â ²
p ot
ĠC O
ĠNatuur lijk
ĠSt aten
om a
Ġa ute
Ġeconom ische
Ġbl ik
ĠWer eld
Ġbl ad
al k
ant ies
m el
Ġverb inding
Ġaan koop
Ġk ab
ĠW ater
Ġdaar in
bed rijven
c ess
Ġl at
Ġtechn iek
Ġeen maal
Ġlie p
Ġv et
Ġinstall atie
Ġkop p
bren gen
ch ines
zetten d
Ġvoet en
Ġst rak
ĠDen k
sch rijven
ĠK e
u gen
Ġer f
ĠP orno
Ġb ier
Ġsle ut
ĠZ ie
Ġaf le
ur f
Ġ5 00
oor de
Ġhe den
2 7
Ġh uren
Ġjon gen
P ro
ĠSur in
rik a
Ġuitste kende
m is
Ġk eren
hou ders
ap e
Ġhog ere
Ġgez onde
cht end
Ġvrij blijven
Ġr iv
w arm
Ġvoor keur
og ing
ow n
Ġbest and
ĠH oog
a ven
wij zen
Ġben eden
ĠB et
af Ã©
Ġb ord
ide o
2 6
r ies
Ġin komen
b ar
Ġverz orgen
Ġt ijden
ĠGel ukkig
Ġeind elijk
ĠTwee de
I D
Ġin vester
Ġgeb oorte
o un
Ġdaar naast
Ġk aarten
app ar
Ġgev angen
Ġcomp et
Ġn odige
Ġaange zien
m ond
g o
em enten
Ġgel uk
Ġaf deling
P S
uz iek
al ve
Ġch at
Ġbur ger
Ġal bum
Ġgere geld
Ġaan sch
Ġple kken
ĠR es
re is
Ġbesch ermen
aut o
gebouw d
Ġto ilet
Ġcamp ing
ont wikk
Ġkl ik
Ġbeste mming
Ġcas ino
Ġhou d
rim in
oe ps
in en
Ġzo genaam
Ġ ðŁ
- )
Ġme zelf
al m
Ġnieuw ste
L e
Ġk andid
geb racht
Ġcompl ete
Ġw h
be g
Ġgesp eeld
T e
Ġgesp roken
ĠP e
Ġsch ad
ĠN og
Ġst ro
Ġhet e
ĠApp le
ĠG oed
Ġvriend in
in ke
Ġtrouw ens
Ġgebruik te
z aakt
Ġt aak
Ġver werkt
ol atie
le es
acht ige
Ġsoc ial
Ġreden en
Ġst offen
Ġth ee
Ġvoorn amelijk
ĠH eeft
Ġd ing
Ġeer lijk
Ġverl oren
Ġdag elijkse
S p
on y
un a
l oze
Ġf les
Ġzw are
ge meester
org d
Ġb oom
Ġs ier
m ateriaal
Ġm y
yn am
E G
Ġstem men
we dst
Ġl unch
Ġgra den
Ġn ag
Ġmet hode
Ġslaap kamer
Ġo chtend
ĠT V
Ġv ro
y steem
Ġpopul air
Ġd is
Ġlever ing
Ð ½
ĠS inds
ou s
ĠWaar om
daag se
Ġresp ect
it aire
Ġver de
ĠP ort
ui ven
Ġz il
Ġn aakt
Ġd uurt
ar ief
Ġaanb ieden
Ġa b
Ġav ont
Ġher ken
ar den
Ġop pervlak
Ġdownlo aden
ru st
ĠB ouw
k amp
ac te
ion s
Ġdaar op
urg ers
ru ctie
i h
Ġme et
Ġgoe deren
Ġde k
Ġont zettend
Ġ %
Ġon danks
Â °
Ġre e
ĠS oms
N u
an je
Ġpos itief
ĠS k
ĠT op
Ġwit h
Ġbesch rij
Ġqu a
Ġw int
Ġdraa d
Ġst ation
Ġuit leg
Ã³Ã³ r
st rie
Ġ ijs
l ig
Ġacc ess
Ġschrij ft
Ġb oer
ĠV rouwen
Ġverg ro
Ġre acties
Ġsnel heid
Ġ200 0
p assen
ĠB uiten
Ġklim aat
gele verd
H ij
Ġz uid
Ġoor deel
Ġle ert
Ġbeh oren
Ġsl apen
apt op
al a
Ġver pakk
Ġdirecte ur
Ġou dere
Ġbesch ouw
Ġbeschik ken
v ies
jaard ag
z ers
y c
ĠM er
Ġmuz ik
Ġb orst
l ijnen
Ġg od
ble men
Ġklass ieke
Ġgebruik er
ulier e
ĠM o
!! !
Ġnauw elijks
Ġeven eens
am ent
ad at
Ġre cl
ĠV rouw
R e
st ap
os sen
Ġlen gte
Ġnog al
hal ve
ĠC olle
Ġuit bre
Ġhang t
ot t
Ġop gericht
Ġres er
Ġvan zelf
z ocht
Ġindivid uele
Ġgemidd eld
Ġb udget
Ġn r
Ġle ek
Ġelekt rische
Ġvrij heid
Ġeenv oudige
ac iteit
Ġbere ken
Ġbeteken is
ru s
Ġuitste kend
Ġ ij
Ġk or
Ġb ang
Ġv iel
Ġst ab
Ġfun cties
ĠVlaam se
roe ven
Ġk ies
Ġk oning
ul den
ĠD on
ow el
N aast
Ġdaad werk
4 4
v d
ĠA p
Ġplat form
Ġverk ie
ad s
Ġ200 6
Ġm ont
Ġvoer tu
der t
Ġa m
Ġbere id
Ġk ook
Ġl ijken
alis eerd
Ġster ren
Ġnation ale
Ġle eg
Ġa kk
Ġg isteren
Ġaange past
h ank
ĠT urk
Ġcomfort abel
3 3
Ġbe houden
ion eel
Ġex tre
Ġverantwoord elijkheid
Ġra den
Ġaf val
Ġm ak
ĠSu per
Ġlicht e
Ġge con
A G
E l
zijd s
Ġverd achte
ĠC ol
bren g
omm un
ir l
Ġn ederland
ĠKon ink
ge sp
Ġtoe stel
Ġr ente
Ġonder nemer
Ġn oem
herap ie
O C
Ġbeve st
ist erie
y m
Ġ Ġ
Ġd raag
ĠB re
ĠO l
Ġs ites
ĠP eter
Ġen erg
Ġoffer te
Ġsoc iaal
f on
Ġvoed ings
Ġt rek
ĠAl l
Ġaan gev
Ġkl as
ĠVoor al
2 9
Ġgew one
Ġin tegr
Ġc ode
s b
Ġbehoor lijk
ĠN ij
Ġvij ft
Ġp aard
Ġf ig
Ġw are
Ã© l
Ġst el
Ġvol g
Ġm elk
ĠK n
Ġles sen
Ġm useum
pen s
kw aliteit
Ġge opend
ber gen
Ñ Ģ
st ation
Ġb on
Ġinspir atie
Ġp and
dat um
Ġvriend elijk
bel asting
il d
Ġeven ement
Ġdou che
ader en
Ġtradit ionele
r iet
Ġd re
Ġopen bare
C h
Ġvast gesteld
ĠAnt werpen
if icatie
Ġsp oor
Ġondersteun en
Ġcon cept
Ġonder houden
Ġhistor ische
ĠGro ot
Ġnab ij
Ġged achten
3 9
u y
Ġa ft
c m
Ġopt ies
Ġz ol
ĠGem een
Ġp od
ut ers
oo ie
ĠTe vens
veren iging
ver de
ĠC D
Ġver rassen
Ġd room
i que
Ġvorm t
oor log
ob by
mat ige
Ġhel der
Ġaange sloten
g if
Ġverg oeding
Ġdetail s
Ġtele visie
groe pen
Ġl ied
Ġv ullen
dien sten
Ġver werken
Ġbesch ad
Ġt ax
Ġk ust
ĠD E
Ġc am
ost er
Ġland schap
Ġc ijfers
Ġconcur r
Ġaanv ragen
u ste
organis atie
ĠS im
Ġang st
Ġvoor stellen
Ġgen oemde
Ġst een
te g
Ġaanb iedingen
Ġa dem
c ul
ĠFran s
Ġdraa it
is er
Ġwe gen
m ed
o ken
h am
a ft
Ġuitdag ing
lang s
um in
w oning
Ġvier de
Ġb omen
Ġont werpen
alis atie
Ġverl ies
Ġcolle ge
ĠHoe wel
v aard
Ġde uren
Ġle gt
ĠW h
Ġtran sport
Ġvoel de
Ġrel atief
Ġl as
Ġl a
Ġt and
att ing
ĠE m
Ġbevol king
ast ic
ĠEn gels
Ġro t
m aak
ĠK ar
ĠAr n
ĠWind ows
u ck
atie ven
Ġhier door
Ġsu ik
aan b
Ñ ģ
Ġaanv ullen
Ġh aal
ĠHier bij
ĠE igen
se x
Ġvis ie
pro b
T he
es l
Ġvoor beelden
Ġy ou
Ġin gev
Ġin vest
il en
oo st
U R
Ġverh oog
ĠSe ks
Ġvoor del
schrift en
ag eren
ch en
ĠV erk
Ġsp reekt
ĠM ax
Ġmed ische
erv ic
Ġuiter lijk
ĠF rie
Ġsn eeuw
Ġst ress
Ġuit spraak
Ġexper t
uw e
ĠVer volgens
Ġreken en
merk ing
ĠC omp
el and
voor zien
Ġcent rale
Ġpart ners
A r
Ġz achte
Ġgevol gd
Ġb all
co hol
Ġslecht e
Ġv i
Ġzom aar
Ġh open
Ġarch itect
Ġl oon
ro w
ĠJoh n
Ġcom merc
Ġpr int
ip p
c or
ĠI S
ge stelde
Ġbe stel
ĠR ob
Ġopen ing
l aag
hou ds
p ten
Ġw agen
Ġvoor stel
Ġsch rijf
Ġvoorzien ingen
ĠP ost
ĠL imburg
b ack
ĠUit er
f it
sp ar
Ġf oc
Ġverder e
Ġbe wijs
Ġkan sen
over eenkomst
Ġh um
ĠD ag
Ġm icro
recht en
ĠB V
Ġsy n
Ġbet aalt
Ġben ieuwd
Ġv onden
ieu ze
Ġt ru
Ġnet jes
Ġgeb ieden
Ġonder werpen
ĠJ apan
n es
Ġnorm ale
Ġb atter
Ġveroor zaakt
Ġkl asse
Ġgebouw en
ĠAl gemene
Ġverw arm
p at
iÃ« ren
Ġl aptop
it ten
com bin
Ġinge zet
Ġfot os
Ġom hoog
tu in
Ġbev or
Ġbesch reven
ĠK en
Ġg ame
Ġhtt p
t on
or ing
Ġb urgers
reken ing
Ġe i
Ġverander ing
ĠGe w
res ult
Ġwedst rijden
af fen
Ġlang zaam
ĠB eg
Ġcombin eren
Ġjaarlijk s
g ist
Ġopen en
Ġtoegev oegd
al er
Ġgebruik s
Ġaf w
Ġsch ip
on k
ĠVeren igde
Ġv ent
Ġdat e
Ġh uizen
Ġbev oegd
Ġver vang
Ġdisc ussie
ĠH eel
Ġ7 5
sten s
gend a
Ġtoe zicht
f ot
Ġbre de
Ġzogenaam de
Ġal weer
Ġsmartph one
Ġkn op
v oet
Ġver jaardag
el der
bo om
Ġterug k
Ġopzicht e
sch oenen
Ġkru is
Ġ15 0
u f
d uur
l ief
Ġre f
Ġf re
Ġgen e
Ġeconom ie
ĠÂ »
ĠP as
Ġv Ã³Ã³r
op l
Ġwaar na
on a
d a
Ġtra p
Ġber ichten
Ġac cept
ĠH otel
Ġk west
Ġuit een
ĠUn ie
Ġzon n
os c
ĠM ag
Ġsch itt
ĠM a
Ġsy mb
st aand
Ġwoon t
Ġwe zen
Ġv ru
ge k
Ġsch uld
Ġprincip e
ĠL et
h y
Ġing red
i at
Ġr ichten
Ġdub bel
b ru
Ġth er
Ġgele id
Ġinter esse
Ġl amp
Ġafbeeld ingen
Ġvac at
H olland
Ġelekt ron
ĠM assage
Ġd ru
Vol gens
Ġex amen
Ġbehand eld
ic al
Ġveil ige
Ġbele ven
ale s
Ġra ken
ab ele
zig ingen
in ing
o ve
olog isch
Ġm elden
rit er
Ġgebeur ten
Ġs ens
Ġmilj ard
Ġst onden
Ġtek sten
el ings
ĠHel aas
Ġstad s
ĠArt ikel
Ġopv allen
Ġafge sloten
be urt
Ġn oord
ĠA t
0 1
gif te
ris is
b ord
ĠM idd
in i
ter ne
Ġ3 00
Ġdan s
Ġindu strie
Ġadvis eren
br oek
Ġprett ig
ĠK ies
Ġu l
Ġt as
Ġge ur
Ġber oeps
Ġacc ommod
spl an
ĠOn s
ĠInter nation
ijd s
Ġprakt ische
Ã¶r din
Ġma chine
Ġwerk elijk
ell a
ĠV en
ĠK erk
ra an
Ġgel oven
pl ay
Ġduid elijke
Ġsl aan
Ġg aten
ur b
Ġwett elijke
Ġre view
Ġdec or
Ġtent oon
ien de
Ġte veel
ĠH en
ĠgeÃ¯n ter
Ġl ach
Ġer uit
ĠEind hoven
mak er
Ġbele g
du ctie
Ġinter view
z ins
Ġvolwassen en
Ġgeh aald
w ar
Ġh ers
ĠSp ec
e cht
Ġbel angen
Ġbel ast
Ġblauw e
umin ium
t he
Ġtw intig
Ġdienst verlening
ĠM icro
f ab
D E
Ġpers on
0 5
id ings
ĠJ ul
Ġabsol uut
Ġher stel
Ġt aken
if e
Ġon middel
Ġgen ees
ess ie
Ġpl us
Ġakk oord
ab le
Ġl ook
wee k
we et
Ġten zij
pos itie
Ġvol doet
Ġst ructuur
Ġabon nement
uw en
Ġmedewerk er
Ġr aam
ig ings
Ġhuw elijk
c urs
ult uur
w and
Ġh arte
Ġpopul aire
Ð¾ Ð
ĠUiter aard
ĠâĢ ¢
Ġree ks
I s
ur n
Ġ19 6
k erk
Ġpass ie
Ġ3 2
4 8
or a
val u
Ġtijd je
vl oer
entie el
ie m
) ;
ie Ã«n
Ġsele ct
Ġom zet
Ġbe wegen
Ġm aten
Ġdoor gaan
Ġd ist
wij z
Ġbesliss ing
Ġland bouw
Ġverh uur
Ġaan deel
k ap
B S
ĠO osten
Ġverdiep ing
Ġgroe ps
Ġsp oed
Ġgele zen
a van
Ġkl acht
Ġtoev oegen
Ġe ditie
Ġspel er
ĠB us
Ġvreem d
3 8
Ġ19 5
3 1
Ġzou t
ĠCh ina
er ingen
I L
Ġluist eren
b i
bl i
Ġop gel
Ġbedoel ing
Ġbev atten
Ġmakkelijk er
Ġal vast
Ġint ro
Ġg olf
Ġf raa
Ġre ageren
Ġbest eld
Ġpaar den
part ij
Ġslaap kamers
Ġt ij
R A
ĠV S
Ġspecial ist
Ġl ul
Ġw inn
Ġ200 5
Ġele menten
Ġinteress ante
Ġvrijblijven d
Ġgespecialis eerd
Ġom t
est er
o int
Ġm ix
oeg de
Ġsp ullen
Ġhoe ven
Ġman agement
Ġverkl aring
er land
Ġkl inkt
Ġt rend
Ġd ert
Ġart s
Ġ, ,
ĠWil t
or is
Ġit em
p as
ark ten
Ġa ir
aa ds
ĠA v
Ġstev ig
Ġged acht
ra ss
Ġgoedkop e
ĠM ocht
r ig
Ġverdien en
Ġha ven
in et
Ġin gang
Ġrestaurant s
be scherm
gev oel
Ġlog o
Ġjur id
o ers
ĠF or
Ġst oel
ĠK w
Ġre m
cont act
ĠG ent
ĠY ou
regel ing
ro k
Ġmed ic
Ġop bouw
Ġprob eert
Ġcont ent
ĠMar ia
w aardig
ĠEurop ees
Ġgez ocht
Ġverzek erd
Ġrad io
lei der
ret aris
em pl
Ġdaadwerk elijk
n odig
Ġa mateur
ĠIsra Ã«l
sch il
Ġex pl
erk ant
Ġsitu aties
Ġcons ument
ĠH oofd
ĠUn iversiteit
maat schapp
Ġb y
aa ien
Ġd un
ĠDank zij
Ġk ol
Ġaan k
ĠT im
ĠV al
Ġhal ve
Ġne us
Ġbal ans
Ġgeb rek
ie zen
n am
Ã ¤
ce pten
f oto
Ġd or
Ġb ureau
Ġmom enten
Ġg ram
Ġz aal
Ġer in
Ġ ill
Ġgeh oord
ĠP at
Ġvolgen d
ĠH ou
ĠVl aanderen
Ġst ichting
ĠZe ker
Ġtoege staan
Ġrecht streeks
Ġon vol
Ġcontrol eren
3 2
Ġw ol
Ġbereik baar
ĠB os
3 4
Ġhand ige
ĠD i
y le
ĠR ec
Ġj ammer
arie ven
Ġre age
Ġdub bele
20 18
P l
W el
Ġtoon t
Â ®
Ġuit druk
O M
ĠE d
Ġgehe im
l oge
heb ben
ĠE rot
Ġp resident
iÃ« r
Ġ3 6
voor waarden
c ommissie
om geving
ink s
Ġverl ichting
Ġverl aten
pl ant
ĠSp anje
Ġhe il
st oel
Ġregel ing
g erecht
Ġte mp
Ġm een
3 6
ft en
ier ing
Ġloc aties
Ġd el
a ve
Ġmaatschapp elijke
ĠN aar
lopen de
ĠIeder een
Ġw onder
Ġtoege past
v ragen
oo ds
rie ven
Ġsch aal
Ġal cohol
oe i
z inn
ĠV aak
Ġn utt
z aal
ran che
Ġm ann
Ġmaatschapp ij
Ġform ulier
D ie
ĠGe z
Ġt rekt
ĠZ od
land se
Ġd oelen
e ctief
Ġvlie gen
V O
Ġwe gens
Ġin tens
Ġaf komstig
ĠCh in
gen oot
pakk et
ĠPro f
acht er
s oft
v ingen
Ġin eens
Ġuit gang
Ġverm inder
heb bers
Ġb uik
Ġj urk
Ġles b
Ġwerk nemer
Ġc ol
Ġtechn ieken
cont role
Ġo ven
s ver
ste un
Ġk eek
Ġaan pass
Ġsy stemen
Ġb racht
Ġbinnen kort
anc iers
ad a
Ġgezond heids
Ġhier over
Ġg ras
Ġcon clus
Ġmax imale
ĠLe iden
Ġk oud
ens ie
Ġgebeur d
ur a
Ġn er
pro f
ĠWel ke
Ġver sl
ro ffen
Ġpresent atie
Ġvert rek
Ġenthousi ast
1 00
ĠTe gen
Ġeigen schappen
Ġact ies
ol pen
Ġs ur
Ġwerk te
Ġspeel de
Ġvergelijk ing
gel aten
or de
ĠMen sen
Ġaccess oires
ui ver
den k
ro p
I I
am ing
ĠTe chn
n acht
p ap
ĠWe b
Ġverander ingen
ro od
Ġge Ã¯
Ġd ame
K l
ol oog
itu ut
rie ken
ĠH em
ĠH of
zak e
Ġch em
A P
Ġbr oek
Ġact iviteit
Ġeven ementen
f st
Ġverwij derd
Ġont st
Ġschrift elijk
ĠPh il
Ġpat iÃ«nt
bes l
Ġwand el
ĠGro en
Ġtegen st
ur ger
Ġvlie g
re erde
ĠG ra
Ġtele fon
ĠN ee
Ġro ze
ĠJ on
p ress
in f
Ġf it
b a
B l
ĠG al
In dien
it air
Ġmoder n
Ġv aardigheden
Ġgew onnen
Ġdefin itie
et h
Ġbij dragen
Ġwand elen
Ġro b
Ġf an
Ġop slag
Ġf ase
ĠI T
Ġreg elen
Ġap art
Ġoor zaak
ĠHier onder
ĠM ac
roe pen
ĠDat ing
A C
Ġbeh alve
ent iÃ«le
Ġeff ecten
Ġdicht er
Ġ( âĤ¬
Ġj ourn
Ġvol op
Ġg rij
Ġrel ig
0 4
produ c
Ġzelf standig
Ġhand el
cent age
Ġaf d
or y
Ġtel kens
mogelijk heden
Ġtegelijk ertijd
le y
Ġg ay
f ront
sch ot
Ġverlie zen
Ġben en
I C
il de
Ġpr im
bli otheek
Ġriv ier
ĠH oge
per iode
Ġex terne
N ederland
âĢ¦ .
Ġcons umenten
produ cten
Ġkop er
Ġoffic iÃ«le
ĠC as
ĠV raag
Ġ201 9
Ġz us
Ġc it
Ġern st
I P
Ġe m
Ġprof it
au ff
Ġkunst stof
ĠN L
Ġd oll
Ġn ummers
ou l
ĠJ ong
Ġverzam elen
Ġsleut el
kun dig
Ġverander d
W ilt
r aat
Ġbood schap
ut s
Ġstra ks
ple in
Ġ ann
le cht
beh oren
Ġl uid
Ġreg ion
Ġrecl ame
V andaag
schap s
inn ing
Ġh ield
ak er
V V
b oeken
Ġprest aties
ge et
m ar
aag de
z on
Ġvoort d
c y
Ġst am
Ġzak elijke
Ġb o
red it
Ġtoeg ankelijk
ĠH ans
Ġland elijke
gen en
geb ieden
Ġvoorl op
ĠJ er
Ġbur gemeester
ocht end
Ġbez waar
Ġre p
v a
et el
b ruik
ĠS ol
and a
Ġhot els
s ing
Ġro m
O L
Ġaf sche
Ġgele gd
i ze
Ġactie ve
ind ingen
Ġals nog
Ġstev ige
Ġk er
rij ding
ĠS T
stem d
Ġthe ater
! )
v o
d aar
Ġjaarlijk se
3 7
Ġbe se
Ġcade au
Ġbeh oort
Ġhet geen
ou ders
Ġbru g
Ġgesl acht
ĠR ad
red iet
z ee
N L
Ġger eed
8 5
Ġa genda
Ġopt im
eu kt
Ġm ode
me gen
Ġbe ant
Ġver werking
âĢ ĵ
in formatie
oss ier
ak ers
0 9
ĠC ons
s om
geven de
ã ĥ
Ġp ub
ĠZ onder
uk ken
Ġn ee
d ur
ĠItal iÃ«
ĠA chter
Ġ6 5
Ġk abel
Ġhand elen
n iveau
Ġbe urt
ijn s
u den
ite indelijk
v ig
ire ct
ĠAmerik a
Ġm or
Ġin richting
ĠHier mee
Ġte sten
Ġhonder d
Ġle est
Ġafbeeld ing
fer entie
Ġfeit en
g y
as me
Ġmin uut
uren d
Ġwereld wijd
Ġsucces vol
Ġl ij
T W
Ġou deren
all er
Ġact uele
Ġopt imale
m aakt
Ġme iden
ĠO ude
Ġwand eling
Ġscher p
Ġprob eer
Ġhoe wel
Ġhyp otheek
Ġdat ings
ist isch
Ġopge slagen
ĠL eeuw
oc atie
wiss eling
Ġl er
Ġwerk elijkheid
ĀĀ ĀĀ
ĠH D
roe g
werk ers
Ġpro gram
sch ade
ĠR en
z iet
ĠD av
ĠO ff
Ġch ocol
T oen
ĠB erg
i ber
m acht
dan ig
Ġverkrij gen
Ġaanp assen
ĠNederl anders
Ġcon cent
Ġgere chten
erm an
ĠH end
Ġident iteit
0 6
h ent
Ġtab let
t el
Ġkwest ie
O P
Ġaan merking
ri ve
Ġ aardig
Ġmin stens
p oort
ri Ã¨re
Ġge il
Ġbe urs
ut ten
Ġben odig
aste el
Ġbed raagt
gen oten
u ken
Ġl in
Ġlang ere
we kken
Ġbor sten
ic us
ĠM useum
ann es
com p
d i
l am
it h
Ġwil den
ran ge
Ġweer gegeven
Ġal uminium
en i
Ġasp ecten
U S
se c
ĠZelf s
Ġge keken
Ġingred iÃ«nten
Ġrust ige
st room
ric iteit
Ġbe weg
l age
Ġzorg vuldig
ol len
Ġk ool
nem ing
Ġcir ca
ok k
Ġonder weg
Ġdoc umenten
Ġgere gist
Ġeff ectief
Ġondersche iden
Ġgen oten
r or
Ġtek ort
Ġbal k
ĠV andaag
ĠT ha
ĠL ED
Ġfinanc ieel
ĠS E
ĠH un
ĠT ijd
verm ogen
am ine
ĠS an
Ġex empl
Ġleer ling
Ġj as
Ġuit sp
ĠSex y
Ġontde kt
Ġcommun ic
ga ven
st ro
Ġz agen
Ġg it
Ġmen u
Ġinst antie
Ġant i
ief de
e p
Ġwijz igen
Ġappar atuur
4 9
Ġtot dat
Ġgest art
d oc
ro ss
Ġzij de
Ġonder ling
H eeft
ĠC or
Ġavont uur
Ġcomm issie
Ġe mail
Ġto ol
ĠSt ad
Ġx xx
Ġwij zen
S inds
sp unt
l a
e et
Ġc al
Ġgem ak
b b
Ġl ukt
Ġ5 5
Ġon langs
Ġvide os
Ġtran spar
ĠS P
Ġvert elde
Ġ200 4
atie k
Ġteam s
n el
Ġbesp reken
" :
Ġsp anning
Ġhtt ps
is ie
Ġgesp rekken
Ġthe orie
mod el
m o
ĠBrit se
ec k
Ġcomp on
Ġin zetten
ak antie
Ġap arte
r id
Ġro ok
sl im
Ġwe st
ific aties
Ġb anden
Ġ ir
ant ische
ĠS ommige
ĠZ ee
Ġinter ne
Ġverpakk ing
iliteit en
Ġonmiddel lijk
Ġ ..
ĠS al
oe pel
ĠItal iaanse
W ie
Ġge Ã«
be wijs
I G
Ġop gev
Ġpod ium
ver goed
Ġbe Ã¯n
Ġb uur
Ġc ertific
ken ning
N iet
Ġj ar
ĠV erg
ĠBij voorbeeld
ell etjes
ĠA ss
Ġv ul
Ġzo dra
Ġomt rent
Ġd ynam
u les
Ġfantast isch
ĠgeÃ¯nter ess
l ucht
ach el
Ġspecif iek
Ġm ast
L E
Ġorganis eert
de ur
ĠL eu
Ġf estival
vrij e
Ã© t
Ġgren zen
ĠG u
all o
fun ctie
ust itie
Ġw akker
Ġt on
Ġon e
Ġbro er
Ġbro w
op dracht
ĠS ams
ĠR uss
Ġste ken
um e
mal ig
Ġzeker heid
Ġun iversiteit
ra c
ruct ies
I eder
Ġb oeren
Ġspannen d
ĠB al
p ad
u al
Ġsuik er
ĠV erd
Ġk anten
Ġb anken
0 8
Ġverg adering
Ġplaats vinden
t w
Ġlag ere
Ġvervol g
ĠPar ijs
Ġver richt
ĠF ilm
A D
dien d
Zo als
Ġb ox
Ġbeteken en
at al
Ġver sn
vorm ing
Ġsp ons
at oren
ĠI de
Ġadvert enties
ĠT oe
Ġpro mot
Ġh ant
ĠD oe
vak antie
Ġeigen dom
Ġs an
aal f
Ġop st
Ġkeuze s
rot ing
Ġaanra der
ru is
4 7
Ġappar aten
ĠI CT
Ġtijd elijk
Ġinternation aal
best uur
zi atische
4 6
wedst rijd
aard oor
Ġonaf hank
min ste
k a
V eel
Ġlaat st
Ġfab rik
ĠD r
p ost
schapp elijke
Ġneg atieve
ĠE N
Ġre in
Ġf ree
Ġbez ocht
w ay
Ġin stelling
met ingen
ĠB i
Ġaf loop
0 7
Ġpassen de
s je
orden ing
ik elen
Ġlie ve
se m
Ġbed ragen
igen d
Ġaltern atief
ag s
ip t
il j
Ġant woorden
ple ment
el at
ĠC re
Ġb oet
Ġserie us
Ġgev el
raa m
Ġonvol doende
ĠHaar lem
f onds
Ġver se
Ġber gen
eel t
Ġver deeld
ĠVan uit
Ġvoor komt
ne y
Ġklein ere
Ġbep aalt
z il
Ġvog els
Ġgep ublic
ro ute
ĠGe sch
Ġbus iness
it a
Ġhe u
f ig
Ġbeoord eling
Ġcre atieve
Ġkru iden
vl oeden
Ġavond s
neem t
Ġadvoc aat
Ġp il
âĢ ¢
ge h
ver kl
ul ieren
Ġvoor malige
ĠT om
O T
Ġver pleeg
se ctor
an y
Ġwaar b
Om dat
ol a
ã Ĥ
5 5
z in
og a
oll icit
oef en
a ill
Ġwaar den
ad ing
Ġkwal it
8 8
Ġbegele iden
Ġpl astic
it aal
sten en
Ġt af
gem aakte
Ġde den
werk ings
Ġbesl oot
Ġhier in
Ġgener atie
ĠR us
inst all
Ġst ren
Ã Ń
Ġaan doen
pan elen
erk l
Ġver stand
ownlo ad
Ġfor um
Ġh of
Ġonder tussen
Ġcontin u
Ġb ack
a una
ett ers
ĠM aat
w icht
or der
a im
Van af
ĠVol ks
Ġfact uur
Ġvoor sp
es sen
Ġrec ente
Ġdem oc
werk er
ontwikk eling
Ġwij zigingen
Ġin komsten
groe id
0 2
Ġen g
Ġontde k
d orp
ĠGemeen te
af ond
Ġadmin istratie
af f
i ver
ustr al
Ġbev inden
at te
h an
Ġverst rekt
Ġh aalt
ĠE cht
Ġ ram
ĠM ark
e y
Ġdonker e
Ġcl iÃ«nt
ĠCh ar
Ġuitger ust
ec a
Ġ <
ĠZ owel
Ġin zake
Ġk g
Ġkijk je
ĠSurin ame
M S
p a
Ġvl ag
Ġt ient
Ġv oegen
Ġop zet
ĠOp dracht
Ġform aat
ĠP C
Ġv eert
oelen s
Ġfantast ische
Ġhem el
Ġrel aties
Ġbesl uiten
Ġbehand elen
Ġle ider
ĠInter net
we k
e kend
p erk
Ġwaar schuw
Ġvere ist
ĠCl ub
Ġsubsid ie
Ġaan delen
l aat
Ġpol y
Ġg ids
ĠChrist us
Ġprofession eel
h t
Ġb oord
Ġveiligheid s
Ġner gens
ĠAn d
Ġwijz iging
Ġop gesteld
maal s
ze g
Ġu r
ĠDaar mee
ĠG ar
Ġm ent
merk t
Ġvoer t
ĠH ol
Ġf ol
Ġd Ã©
ir tu
ĠY ork
Ġ3 8
Ġl ot
c ar
Ġch rist
Ġaf ger
Ġacc u
oo ster
Ġverzorg d
ĠL ang
Ġdicht bij
ĠR ed
Ġged ragen
Ġh igh
be ste
re gels
Ġweten schap
zicht ig
ĠR o
ĠE le
Ġmil f
van te
Ġgeh olpen
Ġfys ieke
g ren
0 3
Ġopdracht en
ier e
Ġd oos
ant s
Ġ2 50
onder wijs
lig gende
Ġv eg
ĠB as
ien st
ist iek
Ġdi pl
ĠB rabant
act iviteiten
schak eld
c olle
erv aring
Ġverander t
vriend elijk
Ġlos sen
Ġst aal
Ġh oof
kant oor
gew icht
Ġhoog waardige
Ġpro cedure
br and
sl otte
Ġduizen den
Ġom vang
Ġdoel groep
Ġd omein
ag ers
oet s
pro ject
b eek
gelegen heid
gele id
ar ische
Ġtal ent
Ġf isc
Ġko ken
Ġa g
n ie
Ġbed re
Ġst a
ov atie
b eer
Ġe c
m eld
Ġuitzonder ing
b asis
am in
% .
op leiding
Ġfl inke
Ġgel eerd
Ġpr aat
Ġter m
Ġd ra
werk ingen
Ġp ik
Ġboven staande
Ġbod y
Ġmob iel
os of
Ġwaar heid
a ders
Ġdi vers
Ġv ieren
ick ets
Ġtrain ingen
ĠC al
Ġom gaan
z iek
h aal
ĠC he
ĠV eil
ĠM idden
Ã ª
Ġanal yse
Ġr ing
r Ã¨
ĠB oek
Ġinform eren
Ġdoll ar
ĠNij megen
ĠN oor
Ġb v
Ġletter lijk
Ġver niet
ant al
ĠM aas
Ġgar age
Ġpl ots
Ġz aten
Ġh ap
te xt
Ġaanvullen de
ann er
Ġworkshop s
Ġtoet sen
ga and
ĠI P
Ġoffic ieel
Ġaf st
Ġaanwez igheid
ĠArn hem
Ġn och
og raaf
Ġd ur
Ġaan sluit
ree dt
ĠSt and
te am
Ġbetrouw bare
Ġapparte menten
Ġsp orten
Ġz uiden
ple k
Ġken merken
Ġg un
lie ke
ĠNieuw s
Ġverbeter ing
dro id
Ġin z
u a
op elijk
on ne
Ġ3 3
pl ichting
i ro
ĠKort om
h ulp
Ġimp act
b rug
og el
Ġsucces volle
Ġkr ant
ĠG ed
Ġfin ale
le erd
ĠDuit s
Ġgl ad
Ġhou ding
Ġgl azen
ij ft
ĠM y
Ġin b
ten de
ide os
it en
7 8
Ġr aakt
Ġmeer der
p ak
eel and
Ġt arief
Ġwen st
in stellingen
vergoed ing
d ijk
Ġher fst
Ġinstall eren
Ġges elect
I M
ĠBl ack
l ook
Ġcl iÃ«nten
af stand
Ġ200 3
I V
Ġg ouden
Ġko ers
Ġdigit aal
* *
ĠR ijn
Ġaanbie ding
Ġop gebouwd
ron en
film s
wij zing
st aten
Ġv elen
ĠMicro soft
Ġgemeen schap
ul de
Ġbe Ã«
Ġk aas
rakt ijk
Ġprofession als
V l
Ġslachtoff er
Ġhoofd stuk
h oofd
ĠE chter
ĠJ aar
ĠLe kker
aut om
M en
ĠH R
Ġaan sluiting
Ġvoorbere iding
Ġver ster
Ġverplicht ingen
Ġbij een
Ġmaal tijd
ĠEer ste
D an
oo ft
Ġpl oeg
zo als
Ġaut hent
Ġtwijf el
Ġanal ys
Ġfunction eren
Ġz iel
ĠEngel se
won gen
Ġnauw keur
Ġl ijf
Ġop vol
ĠZ aken
Ġb ijk
Ġc risis
d raa
N ieuw
Ġd rug
Ġ4 8
re chter
im mer
ĠA D
Ġaantrek kelijk
spec ial
aast richt
Ġge combin
Ġk oude
v re
Ġtegen stelling
Ġblij f
ne den
Ġ1 000
T er
av ing
O f
ĠT il
Ġ0 6
ire cte
i ff
Ġals mede
ĠP et
Ġz uur
Ġlever ancier
Ġvol daan
Ġher stellen
Ġconc ert
Ġmis sen
Ġmeld ing
ee sten
Ġ4 00
Ġra men
Ġhor loge
Ġle ger
Ġlos se
ui ken
Ġinter actie
ag ram
per t
Ġtelefoon nummer
Ġverde dig
Ġon mogelijk
Ġverk eerde
Ġcap aciteit
pt ie
Ġfot ograf
Ġle erk
Ġbeve stigd
ĠK inder
ad vis
Ġgezamen lijk
n ooi
ot he
Ġbesl ist
Ġg ames
oor nis
Ġarbe id
âĢ ĭ
sen s
ĠF oto
ĠTer wijl
Ġbeperk ing
f iets
Ġoorspron kelijke
Ġhand els
Ġtoekomst ige
Ġvrouw elijke
Ġwe ig
Ġversch ijnen
Ġgehe ugen
Ġbe keken
ad o
st at
Ġbe en
Ġb roe
Ġmin i
Ġaangeb racht
4 2
il er
m ing
Ġv uil
ar ande
ĠS a
ie ven
Ġc ru
Ġverb ouw
on om
ĠFin anc
Ġrol len
rouw d
Ġl ijnen
Ġl agen
red a
ee ds
Ġaan sluiten
ĠTw itter
an o
Ġs j
Ġver houding
Ġfoc us
ou ter
Ġeven als
ĠL eg
Ġrij dt
T ot
ĠRe cht
Ġnieuws brief
ĠMed ia
ele inden
R E
Ġcontact en
ar io
it te
Ġkl us
ĠSch ool
Ġklein er
ĠDe el
Ġkamp ioen
Ġmidd els
Ġspannen de
o bs
Ġcult urele
Ġfab riek
Ġaccommod atie
Ġnoem t
ĠD rie
Ġzil ver
ĠCont act
r isten
Daar naast
ĠD is
Ġm el
Ġlang dur
Ġnamen s
ret e
Ġkw aad
Ġ @
V S
Ġcomfort abele
Ġna der
rast ructuur
Ġom a
Ġbest anden
bed rag
Ġbeschik bare
ui zing
Ġfact oren
Ġbestuur s
ĠK oop
Ġvan daan
ĠAn droid
Ġstim uleren
Ġr ende
Ġverk eerd
p ijn
Ġoverl ijden
Ġsec onden
Ġtw aalf
ar y
ĠD u
Ġzol ang
Ġbegrij p
ac ul
ur ing
Ġrepar atie
bo ard
Ġâ Ĩ
Ġhonder den
Ġgem aakte
l in
Ġver rass
Ġzwanger schap
ĠA s
Ġmin imum
Ġver zend
Ġc ur
Ġcon fl
Ġsp re
Ġkw ets
Ġk ok
Ġnad ruk
Ġbuitenland se
vers ie
Ġoud ste
Ġmee ster
Ġv el
ĠO u
oren s
ĠV i
Ġzelf stand
Ġt arieven
bescherm ing
organis aties
Ġd et
ig ent
Ġs o
ĠM ad
il anden
ren ds
Ġgemeent er
Ġgl im
ĠCent rum
Ġverster ken
Ġsp rak
alen der
f ect
mail adres
ĠC orn
Ġelekt riciteit
ĠPro du
ĠSams ung
E uro
Ġaansprak elijk
Ġpr ive
ĠS w
Ġkl ikken
g ier
ĠZ oek
an al
Ġar g
Ġgroot te
Ġt elt
G B
Ġzw ak
Ġbeant woorden
won ingen
Ġversch ijnt
Ġgede elt
Ġvol t
les sen
p els
Ġweb cam
l amp
vent ie
ĠW i
Ġmaak ten
Ġrele vante
ĠP S
ief d
oe id
Ġkn ap
us h
5 00
Ġonder houds
be w
ind ust
Ġmag az
Ġschrij ver
Ġbez orgen
Ġadmin istr
w ard
4 3
Ġdruk ken
ĠB ank
Ġin gesteld
Ġst age
Ġim m
i ra
Ġuit erst
ĠM ob
ok jes
az z
ar de
Ġin ten
Ġv illa
Ġbest eed
Ġv racht
Ġver re
ĠBo sch
ĠDes ign
at form
all ig
Ġt ip
Ġbeschouw d
vol utie
Ġbij ge
Ġf outen
spre kend
ĠPar lement
h aar
ĠMidd el
Ġs ug
Ġst reven
Ġvoor stelling
Ġver tal
op vang
ĠPl ay
Ġstrateg ie
u gel
ervic es
Ġbe slag
ic ap
ĠV is
Ġbesp aren
Ġrec re
ĠA ustral
Ġproces sen
me is
Ġpij p
Ġbep alingen
ff ing
aam d
Ġbew aren
Ġkoel kast
Ġh iel
e ven
Ġvari ant
Ġprem ie
Ġwerk dagen
Ġernst ige
gew en
o ere
N A
Ġst ruct
bs ite
ĠGel der
Ġeeuw en
sch al
ra ven
ert je
Ġ3 7
wekken de
Ġis olatie
Ġsp ir
as ie
Ġvliegt uig
r ond
Ġtemp o
B C
av a
Ġgesch ikte
ĠÃ ł
om er
Ġverwacht ing
Ġk atten
k aarten
Ġgoedkop er
Ġver huis
ath ol
Ġverh ogen
ĠM ot
verb and
Ġinnov atie
ĠS ervice
Ġl ab
Ġbez ien
voer der
E C
ch es
Ġv en
Ġvol ks
a el
ure el
Ġr oe
ier d
Ġstaat s
Ġte xt
ĠâĢ Ķ
Ġontmoet en
Ġsche pen
orp or
ĠErot ische
Ġstuden t
ist ieke
Ġgek opp
ĠChin ese
Ġgepublic eerd
ent je
Ġge produc
ann y
Ġvent il
Ġk ussen
ĠL onden
p ret
ĠN adat
Ġeen tje
Ġmocht en
Ġst enen
Ġd ia
et ische
Ġinstru ment
Ġbe sproken
ĠEngel and
Ġbatter ij
Ġsp e
Ġbehoe ve
Ġver n
Ġhier boven
uil en
pl icatie
Ġt ap
verk eer
oo id
m orgen
ĠPr iv
Ã ¢
Ġto cht
Ġf ull
id de
be c
Ġbe wezen
ĠU iteindelijk
Ġkat oen
Ġverb oden
Ġeffic iÃ«nt
Ġkracht ige
oeien de
ĠL eer
ĠSt aat
ĠA N
ver st
b oot
Ġtijd st
Ġ3 4
Ġn on
Ġhoor de
Ġverg unning
ĠSp aanse
ke y
ĠL uc
Ġher kennen
Ġre cent
Ġstat us
e urs
ĠB TW
ĠK unst
ĠSch ip
pe ctief
ĠK oning
Ġbele ids
s on
Ġsp ier
Ġtelefon isch
Ġne gen
ander en
ĠA ct
ĠPl us
Ġeff ectie
ĠH a
Ġp ed
Ġtrain er
Ġop vang
Ġger aakt
Ġscher pe
ing er
Ġoef enen
Ġde st
ĠD aardoor
Ġther ap
ĠAr ch
Ġaansprak elijkheid
ot a
Ġvis sen
Ġsamen gesteld
r ant
ĠbeÃ« ind
indust rie
ĠW as
art ikelen
Ġw iel
Ġblijk en
le idingen
ĠE Ã©n
Ġaan leg
ag o
prob eerd
Ġde p
Ġlever anciers
b or
ĠGod s
ĠâĨ Ĵ
Ġbet on
spro ces
] .
Ġbeste den
Ġst eek
ok t
b all
Ġb aas
Ġten minste
Ġapp s
ĠO ud
w en
on gen
Ġoppervlak te
ĠW ill
bl og
Ġdi agn
Ġaf zonder
Ġer mee
ar iteit
Ġer aan
Ġsp iegel
Ġamb itie
Ġuit kering
ra d
Ġbeh alen
Ġex p
Ġonderzoek s
j uist
Ġa de
Ġtij de
Ġg rijs
Ġart ie
Ġblijk baar
Ġonze ker
Ġspeel goed
ĠR uim
Ġbed ankt
men de
Ġmeld t
Ġaan komst
sch illen
kund igen
kl asse
Ġpub lieke
G ro
Ġop breng
ĠColle ge
Ġgeg eten
met hode
ĠM aastricht
Ġe valu
Ġvert rekken
ib r
t ot
ĠH art
ĠV O
zaam heid
orm d
aa gt
Ġz ingen
ad vies
Ġgev oelens
Ġm us
Ġregel geving
i as
Ġverg ader
gen oemde
Ġd uren
Ġwet geving
Ð »
ell ingen
Ġon recht
Ġafsche id
Ġgroe it
u es
oor deeld
s al
ter rein
f oort
Ġprakt isch
Ġverzorg ing
Ġd iner
ĠOn danks
Ġern stig
co ach
ĠBel ang
Ġ1 20
ĠK at
iv eerd
Ġverkl aard
Ġpro v
Ġt om
u ps
ri x
Ġc y
or f
Ġcompet itie
ange zien
Ġn oorden
Ġdro ge
ĠF re
ac c
clus ieve
Ġvast gelegd
l l
Ġ200 2
Ġvoordel ig
el ier
Ġd om
Ġde els
ĠH ome
ĠRus land
Ġdi am
ak el
Ġsal aris
Ġbron nen
vriend elijke
Ġbe denken
Ġsp aar
Ġh obby
Ġd os
Ġzwem men
S M
ra p
Ġteken en
ĠN ou
Ġsp ect
Ġper c
Ġtro k
Ġuit zending
igen de
d y
Ġhuis arts
Ġmens elijke
Ġproduc eren
Ġkunsten aars
Ġpat roon
iz er
im eter
gest uurd
Ġvoor jaar
ĠC ap
Ġvergro ten
Ġgro enten
he im
Ġonder zocht
Ġover st
Ġtoepass ingen
Ġveel al
ĠP rijs
z one
il is
Ġvro lijk
bl auw
ĠS am
Ġbed acht
teken ing
Ġmin isterie
Ġpl anning
Ġgra pp
Ġs ollicit
Ġkut je
Ġbeoord elen
Ġbe per
ĠOr g
Ġaan geven
t rek
if i
ĠTil burg
Ġ200 1
z els
ĠPers oon
Ġvoortd urend
4 1
b ond
op ers
ĠR on
Ġkwaliteit s
Ġged achte
Ġde gelijk
de x
Ġlig ging
ĠL og
Ġh ip
ĠW oon
ste in
duid elijk
Ġb und
ĠS er
u um
ass a
Ġgen ot
hand elingen
Ġadvert entie
gel ing
int je
Ġgeg arande
ok je
b os
Ġr aads
ĠHier voor
Ġbescherm d
Ġtrain en
Ġgeb leven
Ġboer derij
atuur lijk
ĠM ont
Ġmax imum
Ġconclus ie
g ids
mak ing
v oudig
Ġtechn isch
gem oet
e ut
ĠV ers
Ġkl opt
r isch
ĠC amp
Ġsh op
vd A
ĠA lex
ĠAn dere
Ġvriend elijke
Ġontb reken
Ġverm inderen
Ġl ood
Ġmet alen
Ġtentoon stelling
man agement
Ġbij eenkomst
Ġbl oot
ĠH il
h angen
ĠB ro
iss aris
ĠUS B
w in
Ġzo danig
Ġhoofd stad
Ġvru cht
ĠG eef
Ġsuper markt
Ġversch enen
r at
Ġc an
gew oon
Ġgewen st
Ġfris se
Ġfilm pje
ĠHend rik
ĠÃ© cht
ma chines
V A
ul en
B ent
art sen
Ġc afÃ©
gro te
ĠN o
Ġkrit iek
Ġconcurr entie
Ġovertu igd
Ġtra ject
mak ers
Ġver richten
Ġdert ig
Ġdeel name
Ġonder grond
Ġmet en
t ime
Ġm oed
ĠK erst
e igen
Ġgev uld
hand s
Ġuitbre iding
odig d
ĠM us
Ġdro men
sp er
Ġverb inden
j aars
Ġduurzaam heid
. [
u ch
l ange
Ġkan ker
Ġst elde
Ġgez el
Ġspecial isten
ĠK un
Ġsamen werken
ruk ken
ee p
le er
ir k
ple x
riter ia
Ġn aakte
Ġverwacht ingen
m pt
verkl aring
B el
ĠRijk s
Ġaute ur
ge gaan
A d
Ġuit st
Ġbenodig de
sy stemen
be i
ĠA M
wee g
Ġverdw ijnen
Ġamb ten
d ieren
ĠE erst
c c
l ij
w eten
Ġgeld ig
ged rag
ron g
M ar
l id
gev onden
ĠEl k
p akken
Ġb ag
Ġjurid ische
Ġvoertu ig
Ġbew onder
Ġget oond
ĠM al
Ġup date
Ġinnov atieve
Ġcamp agne
Ġgek leur
ĠB ent
Ġei wit
a ver
Ġver standig
L aat
ers port
Ġpresent eren
Ġstud io
Ġconst ructie
Ġoefen ingen
ian o
Ġwil d
Ã §
Ġople idingen
Ġsing le
Ġkandid aat
Ġverzam eld
Ġoper atie
ut ch
pro blemen
c us
Ġbe m
Ġreg istratie
Ġdie pe
Ġkab inet
Ġaanbe v
ly mp
Ġeven wicht
Ġzul ke
Ġre iz
Ġstuk s
Ġbij behoren
ĠM od
ĠV el
ip atie
N et
zen den
gev allen
ĠL es
Ġaange k
bl ik
Ġregion ale
Ġge ste
Ġte gemoet
be stand
Ġrijk e
P N
im m
ĠVeren iging
Ġnieuw bouw
Ġgecombin eerd
Ġleuk ste
Ġbood schappen
ber icht
Ġs at
Ġgest uurd
persoon s
g elijke
Ġdat ab
ĠDoor dat
Ġg eren
ĠM eest
enn oot
ĠS ec
ĠB art
ĠA L
oot h
zoek ers
ĠKle ur
Ġz anger
Ġgew end
ĠR em
Ġtoen emen
ou te
ule erd
Ġcons ult
ĠZw its
rij pen
ĠE scort
opl oss
ph en
-- --
A B
m d
Ġm ake
ĠB on
Ġin ch
Ġbe iden
te ur
Ġ il
Ġmee genomen
Ġs oep
Ġjaren lang
Ġis lam
Ġex clusief
Ġfig uur
Ġcar riÃ¨re
if est
ann ingen
men s
ing e
ĠBr and
Ġme id
Ġsch en
l aan
Ġmet h
ke st
Ġsl oten
Ġexper iment
Ġof wel
Ġverdw enen
eer der
h aling
ĠT r
ĠZw olle
sp ire
ĠO P
Ġgebeur de
wijf eld
ĠBij bel
Ġn l
Ġk rediet
u pp
Ġindu str
ade s
warm ing
Ġonder nemen
Ġf und
Ġgeregist reerd
ed ia
te it
Ġkl in
Ġar men
ĠB reda
ĠOnder wijs
get rokken
Ġvert eld
voor t
f il
ĠS ing
f or
ĠD rent
ust er
h uur
ĠL at
Ġn ak
w aren
om b
Ġmin ste
w aart
Ġfilm pjes
Ġhe ft
Ġst reek
Ġv aat
E x
Ġv on
met ing
ĠV een
Ġtijd elijke
S L
Ġde gene
ĠG oede
Ã¯ ne
Ġk oopt
wijz igd
ĠZ eer
me ub
Ġra ce
ant el
Ġwinn aar
9 6
au ze
Ġover heids
Ġo ranje
ies o
Ġ $
Ġinvest eren
Ver der
Ġinv ullen
y pen
keur d
Ġbehoe ften
ok er
ann a
vorm en
Ġaanzien lijk
de sk
Ġaanb ren
Ġwij s
Ġachter af
9 8
Ġgebeurten issen
Ġverd ient
Ġverv aard
Ġkil o
it or
n aar
Ġme ch
Ġsch ouder
Ġp c
Ġge controle
ĠV AN
Â »
m ere
7 6
Ġbeg repen
wagen s
ĠP ale
Ġv aren
at erdag
Ġreg uliere
n av
wek kend
Ġgeb le
Ġeer dere
Ġlucht haven
Ġfeest je
Ġtele ur
Ġbeve stig
j ax
Ġdeb at
Ġont h
t op
erm ate
mm el
ĠPiet er
Ġro man
Ġgere den
al ings
ĠgeÃ¯nteress eerd
Ġsterk er
Ġcorre ct
Ġaange wezen
Ġbeperk te
ot er
vent aris
Ġtijd ig
gen er
Ġel ast
Ġlin ker
Ġt reden
Ġm its
gesp rek
ch er
G eb
Ġovereen gekomen
l aten
Ġweder om
or es
Ġim plement
Ġsp ellen
Ġonderste unt
v i
c ore
Ġc ou
Ġber oemde
ow ieso
Ġaute urs
Ġc d
n amen
om men
ĠBru g
Ġsch ijf
ĠGr iek
Ġslachtoff ers
Ġdaar toe
ĠV erm
du izen
ĠSt art
ĠW ord
Ġextre em
Ġvol gde
Ġgekopp eld
ct oren
ĠR u
Ġc rimin
de kt
od y
ĠC ity
ail le
k ru
Ġverkie zingen
Ġinge diend
Ġb anen
ĠK N
p ubl
be gele
voor zitter
hem ale
Ġk asteel
Ġzo et
Ġkwart aal
m us
Ġv iss
k ele
Ġver staan
ill er
Ġer ger
at iviteit
ĠH am
Ġmeerder heid
Ġgar anderen
Ġwel zijn
iv a
Ġbedien ing
Ġcom ment
Ġpassen d
Ġ0 9
Ġsp reek
Hier onder
Ġwaar aan
Ġom vat
Ġkaart je
ĠO ranje
CH T
iv ing
Ġverl open
Ġgere aliseerd
v lees
Ġbetrouw baar
Ġwe d
ĠWor ld
eeuw se
st eld
Ġversch uldig
al f
ĠR ij
ijf er
g as
Ġme vrouw
Ġbeveil iging
Ġ4 2
Ġtev oren
ul atie
A AR
alis ering
ĠDav id
Ġmot iv
F i
Ġflexib el
Ġbot er
und ige
Ġs oepel
Ġlen ing
s zins
Ġzet te
Ġan im
ĠL ou
Ġverw ar
Ġtient allen
Ġverm oed
Ġprest atie
Ġopmerk ingen
Ġma chines
aliteit en
7 7
Ġrij st
Ġbeper ken
Ġtoer isten
h ier
Ġun ivers
Ġele g
Ġch auff
Ġco Ã¶rdin
ĠF C
Ġpar lement
Ġvre de
ĠðŁ ĺ
ĠgeÃ¯n teg
a o
Ġonderzoek ers
ĠW al
omm igen
Ġnorm en
Ġge stelde
ĠIn middels
eer st
Ġbrow ser
ĠR ond
y e
Ġw al
ĠiP ad
Ġre cepten
Ġverg oed
M aak
ĠT huis
Ġben ad
Ġgesl aagd
d oek
Ġexpert ise
ommun icatie
Ġ ip
Ġge probeerd
an ische
ets el
ĠOosten rijk
Ġp o
p aste
Ġopgel ost
Ġgeproduc eerd
Ġveroor zaken
Ġw ees
app y
ĠDel ft
beg repen
itu atie
I A
Ġob ject
un de
sch er
ĠJe ugd
, "
Ġverlen en
Ġschitt erende
Ġb ond
ick et
Ġzonne panelen
Ġbed den
Ġb rieven
Ġafge sproken
Ġvreem de
ĠAn ders
Ġp uur
Ġschoon heid
Ġrel ax
Ġinter n
ĠA g
Ġgegarande erd
ĠBe ide
Ġaf sluiten
Ġbalk on
ĠFrie sland
Ġm ist
s ervice
Ġgez innen
gez ond
ĠS il
ĠBe ste
Ġacht erkant
ĠM aro
af e
ĠCent raal
ĠL en
ĠV ind
Ġf ir
k ijken
Ġopl ossen
Ġvoor op
ĠAl bert
Ġhier op
Ġbijbehoren de
Ġbi ologische
Ġd ossier
Ġmis d
m oeder
Ġvog el
Ġb ra
Ġwij st
ik ke
ien ce
Ġvoor zichtig
f act
s hop
T en
ĠS ant
Ġaanm eld
H el
Ġ3 9
Ġbij v
Ð º
ĠH y
b an
e ff
Ġbelang stelling
Ġcommerc iÃ«le
Ġm r
ijn se
Ġper man
ĠJ o
ĠM ooie
pl aten
Ġde mon
Ġret our
Ġpl afond
ari um
ra y
Ġdoorgaan s
onder d
sch olen
i am
sch ouw
Ġvoorlop ig
gebouw de
ĠH eil
cent ra
Ġveel zijd
er den
Ġm alen
Ġdie et
ĠT ien
Ġchocol ade
Ġdownlo ad
ĠMart in
Ġgeh and
Ġb ol
c amp
Ġd uik
Ġm uren
Ġliter atuur
Ġo ost
Ġbew aard
Ġbestuur der
n ee
bl ijf
en se
a j
ĠIeder e
Ġdeel nemen
Ġk ip
w iel
Ġmo slim
Ġw in
O O
Ġsp ieren
Ġn ek
act er
Ġt anden
er ings
Ġlever baar
ĠLe uk
Ġbek ijk
E K
Ġhuis houden
Ġhum or
Ġont slag
Ġafge werkt
Ġdr ingen
ĠTurk ije
verl ies
L ees
ar n
Ġeffic iÃ«n
n ames
ĠNation ale
Ġuit b
Ġh on
AN D
Ġverb orgen
m uziek
ĠZw arte
le v
Ġkunsten aar
Ġge el
Ġg al
Ġb uren
Ġfil osof
Ġzit ting
Ġtoet s
ĠA rab
Ġth erm
Ġs eni
uk te
Ġb an
oriteit en
ĠN at
ĠR ome
ĠO ne
kl im
Ġr its
is waar
az ing
Ġover gang
Ġonaf hankelijk
stel sel
Â ´
Ġl ift
Ġm and
spro gramma
C l
erv eerd
voorzien ing
Ġga uw
ens ervice
Ġre ist
ver f
Ġbehand elingen
Ġtijdst ip
z u
ĠJ ans
Ġonafhank elijke
kun st
Ġplaat se
il oft
Ġverkeer s
Ġuit nodig
c ard
an ke
uw d
ĠT uin
le in
Ġwaar uit
ĠM at
um a
plic aties
tende els
Ġp omp
Ġm ig
Ġving ers
Ġverspre id
D us
Ġplaat je
adem ie
Ġemot ies
Ġb akken
Ġversch een
Ġsu pport
Ġpark eren
ra ft
Ġg o
verb ruik
ĠIn formatie
ks el
el is
orm en
Ø §
erkl aas
Ġgedeelt elijk
k ings
ĠB or
ia ste
ĠB ad
ĠM arkt
sl id
ut ion
Ġd omin
Ġboek je
Ġsch oen
as y
Ġch ron
p ele
ĠG roep
Ġgep resent
Ġnieuws gier
or ven
Ġtoe passen
Ġzoekt ocht
ĠG o
Ġvijf de
Ġst re
ond sen
w ol
Ġrende ment
Ġbest ond
Ġlok aal
Ġkn uff
h r
uist er
Ġf el
keur ing
Ġh aast
Ġmis bruik
Ġvest iging
Ġe p
Ġd oek
z onden
Ġb ranche
b oer
ĠRuss ische
Ġongel uk
Ġinzicht en
Ġconc rete
Ġdag je
Ġbeschrij ving
M W
Ġtra ditie
m l
ĠG reen
ĠM c
v atten
Ġwetenschapp elijke
alis me
ĠT ussen
w onen
a res
v ideo
Ġlesb ische
Ġverk regen
M e
eed back
ie erd
alis eerde
bes p
Ġdr ink
N og
Ġfraa ie
ĠKonink rijk
Ġan ale
m es
ĠBus iness
icht e
Ġvoorkomen de
el y
Ġz uiver
Ġz ijk
k y
ĠC V
6 8
ĠWereld oorlog
verg unning
Ġverd riet
Ġh als
ĠA B
ĠZod ra
! âĢĿ
Ġz akken
ĠBest uur
R C
ĠJ os
Ġdo eleinden
ub ile
be sten
k ante
ĠE conom
Ġh ome
Ġpl aten
Ġfac iliteiten
ĠK inderen
Ġsp oren
ste d
Ġzo iets
Ġv ennoot
Ġaan gifte
Ġstuk jes
G oed
On t
Ġspoed ig
ĠP vdA
Ġopge zet
Ġop stellen
heb ber
Ġbi bliotheek
u per
at uren
result aten
Ġverl oop
om as
ĠAut o
ĠF ree
Ġschrift elijke
ess ies
Ġuitgeb racht
ien s
over en
Ġlid staten
stel l
Ġaf werking
ink els
Ġv irtu
ĠW K
Ġinvester ing
f ase
Ġaanv ulling
Ġfre qu
ĠD am
Ġdipl oma
un e
ĠH enk
Ġverz onden
f ra
ĠMe de
id a
ar ia
Ġkind je
Ġhel dere
Ġslim me
Ġex clusieve
Ġland elijk
Ġel ders
ass er
ver halen
? âĢĿ
en ario
Ġver plichting
Ġw isten
ĠH or
ĠM ooi
Ġh aak
Ġwerk gevers
Ġop ent
t ro
Ġer kend
à ¸
or ig
D ank
gr onden
v oeding
Ġc redit
Ġm issie
ad el
ĠR oy
Ġgen aamd
ĠK amp
Ġre al
Ġstrak ke
ĠSt el
os k
Ġverbl ijven
ĠV ideo
Ġpe per
sp eel
Ġbru in
ap pel
Ġgro ente
ĠJac ob
z akken
n u
ĠN S
Ġr oepen
Ġgezamen lijke
... ]
u ige
wij zingen
ĠTele foon
sw aardigheden
ĠH ot
vol gende
ged ragen
b ook
i veren
am elijke
rÃ¨ me
Ġcon form
U w
Ġfra me
Ġverz orgt
Ġl ijden
Ġhor eca
bet aling
g in
druk ken
Ġp oging
Ġbrand weer
kn op
ron ken
z uur
Ġl o
Ġch ar
Ã© r
Ġz ang
Ġp roeven
Ġver zet
M A
ĠT our
Ġt aart
kom ing
Ġontmoet ing
Ġbevest iging
ĠN ov
Ġovereen stemming
Ġte m
Ġkom st
Ġser ver
Ġpr ins
ĠInternation al
N ee
Ġgro tendeels
V ia
Ġsp ring
ist ers
Ġsch at
Ġindivid u
Ġdaar over
Ġdrank je
ĠVlaam s
Ġonder bouw
schapp elijk
Ġlog isch
Ġst oere
Ġdoel stellingen
i i
ĠA antal
ĠJoh an
Ġorigin eel
A merik
Ġdruk ke
Ġdefin itief
ĠC am
vl ucht
se ks
Ġinge schreven
s els
Ġhand leiding
Ġaanbie ders
T C
Ġess entieel
Ġg ig
ĠO ut
ĠJ ij
he el
b allen
ĠT o
ĠMin ister
Ġmedic ijnen
ĠR el
Ġafle vering
v lie
Ġp h
get wijfeld
.. ...
ch em
ĠA z
ĠBra zil
Ġin sch
Ġgel ukt
Ġin stellen
Ġa ud
Ġverst rekken
p rijzen
Ġmoeilijk e
c ellen
Ġsp l
Ġm ama
Ġb b
S c
Ġaanm elden
Ġ 00
Ġenthous iaste
Ġmet aal
Ġmin er
ct ionele
Ġving er
verh aal
Hoe wel
ver zorg
ĠMaro kk
Ġin begrepen
Ġs il
Ġdest ijds
Ġonder aan
sp art
Ġat tra
Ġmee doen
Ġuit gen
ĠBed rijf
ĠW ar
u ip
z eer
ter t
Ġvakantie huis
ĠAmsterdam se
Ġbez orgd
Ġaanbren gen
Ġschad uw
veil igheid
akk elijke
Ġom gev
Ġbreed te
Ġbez org
ĠGe ile
vin dt
Ġop halen
d heid
l ach
S P
ess ion
Ġvoor gaande
Ġkl ok
G en
gl as
Ġmen g
Ġdrug s
herap eut
B rabant
ash ion
ĠD ijk
gesch ikt
sp unten
G el
Ġarchitect uur
Ġgesch il
Ġw apen
Ġkop je
sec retaris
. :
t elijke
Ġresp ectie
Ġreg istr
Ġl im
ĠV ert
Ġvijft ig
Ġbevest igen
Ġverst erk
Ġj acht
iet er
werk te
j aren
Ġbevor deren
Ġp orte
Ġuit komst
ĠA P
N atuurlijk
Ġover d
Ġl ente
Ġver zending
Ġbet aalde
I K
komen de
Ġvan avond
Ġtoev oeg
9 7
ĠF il
ĠPl aats
20 17
ol utie
ĠB ron
Ġper centage
ĠB ol
Ġm es
Ġgew aar
al isten
dat es
Ġha ha
Ġo ren
ok ter
ĠZ eeland
v ant
ing t
op pervlak
Ġafger ond
inder s
es p
maatschapp ij
Ġra c
ĠP ap
Ġsim pele
rek te
Ġoorspron g
ood se
Ġgec ertific
Ġv oeg
Ġmaat werk
un dig
Ġze vent
sp ers
ken nis
Ġop name
Ġget uigen
Ġvacat ures
Ġaan genaam
k m
Ġitem s
Ġaanwez ige
Ġgit aar
Ġn aa
c ond
Ġgevangen is
Ġstand punt
Ġ4 4
A pp
ate ur
it atie
omen de
wee gt
Ġdoor b
je ctie
Ġstr aten
Ġondernem ingen
ĠH ong
Ġ9 5
verl ichting
V B
zaam heden
Ġh erv
Ġz aad
S C
ĠAm ers
S amen
stal ige
dat en
Ġbelangrijk er
Ġkap ot
ĠJoh annes
Ġuit dagen
Ġw ijnen
ĠV VD
Ġl anc
io ol
r ice
Ġnat te
ĠAf rika
h ar
ap ens
Ġmeub els
Ġmont age
Ġpro m
Ġd oden
Ġge wijzigd
ic ker
Ġint ell
Ġsl aat
st reek
ie pen
ĠUn ivers
Ġelektron ische
Ġuitgen odigd
v elden
Ġvlucht en
ĠT ex
Ġpr i
Ġman ager
g ings
um n
appar atuur
ina ire
B ed
Ġ0 8
Ġgem ot
Ġarbeids markt
Ġru b
Ġdoc ent
ĠAmers foort
Ġt ram
b anden
verlen ers
t ocol
cedu res
on n
Ġaanv aard
alt h
ĠN ot
Ġb oos
l as
ĠB B
schak elen
d oel
Ġg ij
Ġf aill
bel ang
s et
ĠEuro pe
Ġs w
Ġst opt
Ġuiteen lopende
Ġa udio
spron g
rum p
ĠJapan se
Ġvlucht elingen
Ġvast goed
sen d
Ġgoed ge
Ġzelf de
Ġgecontrole erd
ation s
Ġhuis je
Ġil leg
Ġhom o
Ġsn e
Ġzijn de
ĠR os
th ans
Ġdist rib
Ġlevens duur
bij voorbeeld
Ġcon text
Ġge we
Ġ6 00
Ġle zer
Ġgeh oor
Ġaf wijk
Ġdie pte
Ġlach en
rek ers
ĠV ul
Ġo bs
Ġs em
ĠR T
Ġaan vang
voor stel
w as
ĠR ober
Ġgeluid s
U N
nieuw e
ĠA V
deel de
Ġin schrijving
Ġruimte s
Ġul tie
iÃ«r s
Ġpers pectief
ad y
Ġst oelen
ist ent
Ġs owieso
kw am
Ġgepresent eerd
Ġwat erd
rik aanse
Ġsch ulden
ĠT ro
Ġcont ra
ä ¸
Ġinge wikk
con st
Ġsch iet
ĠB ur
ĠOp t
Ġop roep
ĠG rieken
h ard
Ġgeble ken
Ġaantrek kelijke
Ġduizen d
des ign
Ġgevaar lijk
Ġsn ap
] ,
6 9
ap el
R T
Ġs om
i aan
uur de
Ġvoor waarde
Ġkandid aten
ele foon
Ġpromot ie
b ra
Ġpubl icatie
ver slag
Ġmaatschapp elijk
Ġ elf
Ġt um
Ġap plicatie
Ġplaats elijke
ĠA C
Ġsp ont
Ġkn ie
Ġbesl issen
it Ã©
E ER
Ġontwikk elde
Ġvervang ing
Ġkracht en
le ut
Ġbon us
Ġt ube
Ġverm oeden
Ġget rouwd
ĠN V
Ġvier kante
re c
ĠZ ou
Ġgev oerd
Ġgemeenter aad
Ġl ic
. -
Ġmilj oenen
Ġmon ument
gericht e
ĠK euken
z ijnen
Ġplaat st
Ġdatings ite
et isch
T wee
ĠKle ine
kk ers
ent jes
Waar om
Ġkwalit atief
ax y
Ġw ou
Ġg ift
ĠN orm
ay s
ĠW im
Ġwetenschapp elijk
Ġs erv
Ġschoon maak
Ġren ovatie
ĠInd ia
ĠD or
Ġh o
Ġiniti atieven
ĠA jax
Ġvoor be
se izoen
Ġcommunic eren
ĠP op
Ġoverw inning
6 7
Ġbe wijzen
ul s
Ġl ampen
ĠSt ar
ĠPr ins
ĠT ran
ator ium
W V
Ġ ic
Ġweer stand
Ġmuzik ale
se qu
r int
maat schap
Ġcre atief
pl o
Ġstr ip
o be
Ġaan genomen
Ġsp ringen
Ġh aalde
Ġgel open
ĠIJ ssel
us ie
ĠD uur
Ġdoc enten
eld oorn
Ġwiss elen
ĠR oo
ĠB oer
Ġgev arie
Ġvanzelf sprekend
Ġcurs ussen
O nl
ĠVoor zitter
Ġabsol ute
Ġbezoek er
Ġm aster
Ġdek king
all oze
eu ze
ist orie
Ġonderste und
gele gde
ĠOost er
ĠT ur
Ġsub t
z am
A K
ĠP an
Ġgezel schap
Ġcomplex e
Ġsp ot
Ġnet werken
Ġget est
g res
Ġhor iz
Ġd och
ĠMan agement
ken t
Ġg at
Ġstijl volle
omm el
k et
ĠZw art
Ġindustr iÃ«le
Ġschak elen
im enten
spire erd
Ġalle bei
m ann
pap ier
all y
Ġc el
Ġhe cht
Ġmeen emen
fot os
h art
Ġh arm
te k
Ġz elden
Ġk am
den t
On s
Ġt oren
El ke
Ġdoor heen
Ġroe pt
oe ist
ĠO lymp
ij p
Ġsc ore
Ġeffectie ve
Ġbe oordeeld
gesch reven
he ffing
gang ers
Ġmoo ier
Ġm em
Ġsch ijnt
Ġdi al
Ġmast urb
Ġv ee
Ġbeh eren
ab l
Ġbedoel de
Ġbij lage
Ġverwarm ing
Ġteken ingen
ĠâĢ ĭ
uin en
ain er
gesch iedenis
Ġont w
Ġa re
Ġ {
vrij heid
ĠN aam
b uiten
aanb od
h or
ell ant
Ġtrain ings
Ġzorg de
Ġzorg verzeker
Ġwas sen
Ġbru iloft
beeld ing
Ġtra c
Ġaanv al
Ġne gent
Ġpij pen
ĠU l
Ġf en
ater ialen
Ġlaag ste
Ġkop ie
kl achten
EN T
ĠMeest al
Ġselect eren
ell etje
Ġjourn alist
Ġspect acul
con s
Ġver kennen
ĠH u
Ġfe ite
Ġgev ormd
Ġbrand stof
ĠF ort
ir ts
Ġmil itaire
U T
Ġkort ings
Ġt ellen
ĠN euken
Ġver geet
Ġver wezen
Ġtweede hands
ble em
ze ggen
Ġneg atief
Ġver stel
st oelen
Ġ8 5
f a
Ġne ut
f ol
Ġd iv
Ġople veren
zet ting
Ġz u
Ġwett elijk
Ġt it
Ġget rokken
Ġsch ieten
Ġhel p
sp elen
Ġc oc
Ġsch ijn
ive aus
Ġgepl and
Ġvl ot
ĠMe is
Ġgeb oden
C D
U L
Ġrespectie v
hal te
install atie
co urs
Ġmed isch
Ġga ven
appar aat
Ġd ol
k ingen
Ġfil ter
Ġdaar aan
ĠĠ ĠĠ
ĠG eert
Ġd a
Ġaf metingen
Ġnacht s
Ġplek je
Ġbeperk ingen
r iv
Ġnog maals
Ġbere iden
Ġop eens
ĠTe am
st op
Ġaansch af
onie m
eef d
Ġklass iek
er o
Ġg ord
l anden
ĠR omein
oe dt
Ġcre ativiteit
Ġk oek
ĠVeil igheid
Ġverk oper
ker ij
r ikk
ĠC a
Ġondersche id
Ã© Ã©n
Ġhand elingen
Ġal arm
kan ker
Ġvoertu igen
i od
Ġbetrokken heid
C O
Z elf
vang st
Ġop ger
Ġsh irt
Ġinspir eren
Ġten slotte
ĠInd ones
om pen
be p
ut te
Ġuitgang spunt
it al
Ġpro test
Ġpr ikk
hebben de
Ġvl oeren
B innen
V C
Ġten nis
ĠF un
re f
el a
ĠW ell
der ingen
oeien d
Ġs auna
ĠB esl
Ġb uff
we ken
Ġge deeld
Ġseks uele
Ġontsp anning
Ġbos sen
ĠL ive
ĠAl gemeen
sie ve
land s
Ġsp elletjes
Ġm as
c uit
ĠV re
Ñ ĥ
z itt
Ġinstru menten
iet sen
ak te
wij de
Ġfabrik ant
Ġherinn eringen
be handeling
arte ment
au d
Ġuit ermate
ĠGez ond
Ġon getwijfeld
ĠSchip hol
Ġged etail
Ġadv iezen
w al
ĠG oud
sh irt
B A
Ġsch att
g ingen
Ġenig szins
ra den
Ġred den
Ġref le
Ġbeg roting
i aans
ian en
ĠP al
Ġk erken
Ġg ooien
Ġaanpass ingen
Ġan aal
ĠO or
Ġsamen stelling
produ ctie
Ġto ur
ik i
M C
ĠAn ne
Ġkap itaal
Ġcond itie
Ġleu ker
Ġdes kundige
Ġe ieren
Ġdemon str
ĠH oo
Ġro ken
Ġvroe ge
r ick
man ager
Ġachter zijde
Ġform ule
f estival
ĠB ert
Ġer over
Ġm oord
geb onden
Ġversch eiden
ud ie
Ġk etting
ĠR ab
Ġp al
n o
ĠP ower
besl uit
Ġverzend kosten
9 2
ĠðŁ Ļ
Ġwerk wijze
ĠRad io
dek king
Ġverst erkt
, ...
% )
id der
Ġverl angen
Ġt oneel
Ġget roffen
Ġst elling
S S
Ġ199 9
g ie
inde x
Ġ4 6
Ġt rends
Ġmat ch
Ġverst uren
Ġover t
Ġm aag
Ġsing les
Ġopge geven
Ġvlak bij
Ġover genomen
Ġv aart
Ġa ziatische
ĠEn ergie
Ġ0 5
bo sch
Ġna vig
Ġf i
Ġver he
Ġvak man
ĠEU R
I F
Ġ: )
sch ip
Ġbl aderen
ĠPl an
oer de
Ġim port
ol ven
, âĢĿ
Ġst ort
Ġbeschrij ft
Ġdeel nemer
Ġpartic ulieren
Ġt alloze
Ġverz oeken
ĠG eest
tu be
Ġinv ulling
Ġw Ã©l
ĠIde aal
erm ijn
ĠA mer
Ġverle end
Ġle zers
ele ken
rij p
Ġprob eerde
Ġdruk te
? âĢĻ
ĠAn na
ch at
ĠM ee
rem pel
he d
Ġadvis eur
G een
Ġluist er
Ġvit amine
Ġdien s
Ġbere kend
Ġverm ijden
ĠGro up
Ġkracht ig
Ġlich amelijke
Ġbegele id
Ġverzeker ings
Ġ4 3
Ġarch ief
ron gen
Ġontwikk elt
Ġbezien swaardigheden
Ġf eedback
spel er
osc oop
Ġinc ass
Ġtherap ie
id atie
Ġsport ieve
Ġuitdag ingen
Ġmotiv atie
Ġna jaar
Ġuitge ver
ĠH igh
ĠE t
Ġuitge geven
og els
Ġuit gaan
c ap
Ġm ouwen
Af gelopen
Ġsier aden
re izen
sp ir
ĠDaar voor
Ġbedien en
Ġtax i
iz za
Ġeen heid
ĠBel asting
ĠAl mere
ent er
Ġb tw
v oc
ĠHeer lijk
ĠM aster
Ġkn oop
Ġvro lijke
Ġpijp beurt
Ġkan aal
Ġp itt
âĢ¦ âĢ¦
on ken
Ġk alender
ĠOpdracht gever
Ġgez ag
le e
oes je
Ġbesliss ingen
at o
J an
Ġexpl oit
ER S
inst ru
Ġonver m
Ġk eten
g n
ĠM ex
sch en
bre uk
Ġr aakte
ĠTurk se
C ont
7 2
Ġvan gen
ĠF ot
Ġonbe p
ĠD OC
u deren
20 16
net werk
ĠII I
Ġben adering
Ġm uis
gen ame
Ġjur y
ra pport
Ġuit gere
Ġsch one
ro s
Ġverhoog d
O D
ĠgeÃ¯n stal
l ast
ĠOnder zoek
Ġfinanc iering
ab on
ve zel
ĠAn al
Ġscher men
ĠPro ject
st ijden
produ ct
ur ity
ĠV oeg
Ġverk oopt
ĠV ier
Ġaf k
Ġweb winkel
Ġaut over
Ġwel iswaar
Ġhant eren
Ġin bouw
ĠB ig
j an
ĠM or
bl ok
ĠGr and
U W
werk zaamheden
Ġvacat ure
hal f
ell o
Ġdec enn
Ġsch uif
Ġst oom
br iek
Ġm l
Ġcomp uters
Ġinter pret
vol en
Ġverzam eling
aard ige
Ġgeest elijke
men sen
Ġdraa i
Ġaltern atieve
or ter
Ġhers enen
Ġgoedkoop ste
ĠGal axy
od igen
Ġd im
Ġjaren lange
ĠM el
Ġaan slag
Ġ0 1
Ġonbe kende
zet t
ann ings
Ġuitge sproken
Ġr aak
Ġrein igen
Ġde genen
Ġb uis
Ġtoel ichting
Ġn est
Ġfin ish
v ee
Ġsy mpt
Ġpap ieren
Ġultie me
Ġuit gest
te wel
Ġprogram m
6 4
Ġconst ant
Ġdan sen
oon t
Ġch ec
b oog
be urs
ale is
Ġen zo
Ġon mis
verg adering
Ġd urf
Ġbereken en
Ġst randen
Ġconfl ict
Ġkl ap
Ġsimpel weg
ĠL ater
Ġbewust zijn
we den
Ġschilder ij
Ġdes kundig
Ġf asc
Ġcent imeter
Ġklant enservice
Ġtal enten
O W
ĠSte en
Ġst alen
Ġt abel
Ġafw ijken
Ġstr alen
d rukt
Ġvoorbere id
Ġreage ert
il s
ĠW eer
Ġonge acht
oe it
B R
5 8
Ġbe houd
l agen
Ġe v
Ġwas machine
ĠR om
Ġmass a
Ġenthousi asme
re ffende
ĠM ult
Ġp oort
Ġgemeen schappelijke
ĠFran c
avan c
Ġm ust
Ġa qu
Ġm iss
Ġverl oopt
min istratie
Ġwacht woord
j as
jar ig
Ġver plaatsen
ĠV ader
y stemen
os itie
Ġtegenst ander
ĠTh omas
ij ssel
Ġh aren
Ġinvester ingen
Ġraad ple
at es
Ġkor ter
Ġver ont
ĠC omm
ak ing
Ġc um
Ġdire ctie
Ġspir itu
ĠB ern
Ġuit gave
Ġbeste md
ĠL icht
i os
m om
ren g
Ġp ure
vel op
Ġvor dering
re am
aut y
ĠA angezien
O V
stel oos
oef enen
Ġherinn ering
Ġontst ond
ag ue
Ġsp uiten
Ġwaar over
Ġbij stand
Ġin ner
j urk
ĠL in
ite d
Ġovereen komsten
c ert
Ġna deel
Ġcontact formulier
Ġout fit
d ij
Ġverl iefd
amil ie
Ġartie sten
wij zer
ĠF orm
Ġautom atische
h tt
ĠEr g
Ġa tt
Ġt alen
Ġsc oren
pro jecten
mm ers
v els
Ġgemakkelijk er
b it
Ġkop pel
y a
Ġlied jes
or ige
te urs
Ġcategorie Ã«n
w ood
Ġopbreng st
Ġsamen werkings
Ġmag net
elat eerde
Ġken de
ĠD igit
Ġl ippen
Ġele ment
v ideos
ĠL ux
Ġor der
G a
alist isch
Ġcon sequ
Ġboven op
Ġaf l
Ġf ront
ĠH ard
Ġsp ijt
m arkten
Ġafge stemd
Ġopdracht gevers
et itie
Ġf ans
ĠKw aliteit
Ġl etters
Ġm al
r anten
Ġhuis houd
Ġf ran
e kende
st oornis
Ġschilder ijen
âĢ ĳ
ĠG re
Ġverwij zen
Ġsign aal
ater ing
Ġd ure
l ocatie
Ġze il
Ġsug gest
be v
Ġhe k
Ġn achten
verlen er
techn iek
Ġ `
ĠM att
Ġvol ume
elect eer
Ġp uz
Ġt ank
Ġke us
Ġheden daagse
Ġfot ografie
Ġveg et
ĠD oel
Ġuit gaven
ure aus
ĠV N
Ġe ilanden
R M
Ġcontact gegevens
Ġvert rokken
d ier
Ġkon ink
9 4
Ġverzeker de
Ġm er
r iÃ«
Ġk ou
b ie
ĠD ub
Ġopvallen d
Ġinge schakeld
w inkels
v atting
Ġbestuur ders
Ġb ruik
Ġ199 8
Ġde al
sche de
ĠB E
ĠZ et
Ġaangek ond
Ġverbet erd
ĠLeeuw arden
racht ige
ĠâĢ Ŀ
Ġh Ã©
Ġaf b
Ġingev uld
av el
Ġrecept ie
Ġv akk
ĠT rump
ĠSt erk
Ġnood zaak
Ġeind igt
Ġricht lijnen
og h
Ġk ids
ĠT el
l ogen
ĠD J
Ġb randen
Ġdivers iteit
Ġred elijke
Ġf ilt
ĠBe stel
Ġboet e
Ġt ouch
Ġconcent ratie
ĠMich ael
Ġz eld
Ġkr anten
wor k
Ġindien en
Ġinf rastructuur
ak s
Z ijn
pr int
rijk en
ĠðŁĻ Ĥ
ant ra
Ġd alen
verb inding
ĠIn f
tre ding
te m
Ġw ijken
ord recht
le erde
ĠW aal
Ġrespectiev elijk
Ġwil le
Ġtoev allig
Ġn eu
Ġmann elijke
Ġg elijke
ĠCh at
Ġol ijf
Ġplaat jes
Ġsch ol
Ġaan wijzingen
Ġblok k
Ġ4 7
Ġex act
ubile um
Ġaangev uld
ĠSt uur
Ġas iel
h onderd
ĠLeu ven
ï¿½ ï¿½
T och
Ã ĥ
Ġger es
Ġst uurt
l ok
ĠW eten
Ġte gels
Ġverrass ing
Ġt reedt
Ġtijd schrift
Ġveren igingen
Ġontb reekt
igh ts
aren d
men d
ĠH oud
ĠE st
f ace
Ġken n
ĠInst agram
ik ing
ĠM oet
Ġricht lijn
ĠAp eldoorn
ente gen
Ġs maken
ĠDrent he
Ġaccept eren
g iÃ«
Ġl abel
Ġprofit eren
Ġbar bec
Ġ5 2
ac ks
Ġin cl
ĠBer lijn
Ġsfeer volle
Ġcl oud
ĠMin isterie
ĠMar c
Ġgem eld
k eten
ĠG G
5 6
Ġbedrijfs leven
q ui
el ie
P O
V rij
Ġt u
Ġzelfstand ige
Ġreser veren
Ġbele ving
ru iken
l ag
Ġexempl aar
dat ing
form eerd
Ġged wongen
Ġw ast
ĠR ich
aam se
Ġplots eling
Ġsch uur
ch o
and aar
Ġadministr atieve
Ġongel oof
dacht e
Ġreiz igers
Ġ4 1
Ġc ab
sn el
aanb ie
result aat
Ġst al
cont ract
ĠPro beer
n orm
Ġstu de
ĠSm art
Ġintens ief
Ġde elt
Ġ6 4
at a
h i
5 9
Ġgeselect eerd
Ġna denken
ĠU r
Ġgesch eiden
Ġdorp je
ĠV ast
ĠC ast
Ġm antel
ĠP orn
8 6
ert jes
n y
Ġover b
mper atuur
Ġon sch
Ġ[ ...]
kamp ioen
Ġflexib ele
Ġs hemale
oo ch
eer ders
it ische
ĠT rans
ĠF er
ĠR est
ĠGelder land
sch aft
og n
Ġgeb onden
ĠBe ach
Ġs co
Ġverv elend
Ġl enen
K B
Ġtoe stand
Ġsl agen
Ġgem eten
Ġob jecten
Ġongev al
ĠH al
ain ment
Ġkwart ier
Ġl u
p omp
Ġindruk wekkende
Ġont sn
Ġsp uit
iv el
ĠV erv
h en
Ġstil te
le ef
? )
ler aar
z it
f e
Ġovereen komstig
ĠE gy
al ent
Ġwe sten
re Ã«
Ġvoor heen
W B
B oven
Ġdor ps
ers p
Ġzeker e
Ġc riteria
Ġl etten
em and
Ġmis l
Ġvermeld ing
Ġo osten
Ġsn ij
ĠB ele
ule ert
Ġgen eukt
Ġverkl aren
ĠSp eel
Ġbeg ins
ĠGro ene
Ġschil deren
Ġgez ins
com plex
Ġintegr atie
k maar
_ _
we b
Ġl aden
Ġmoe ders
ĠJ ammer
Ġzak elijk
oet sen
Ġuit slag
Ġpartic uliere
h oorn
Ġindivid ueel
Ġom schreven
Ġdoor lopen
Ġir rit
ĠWit te
Ġvervaard igd
kaart je
I ET
ad ijs
ĠIn houd
Ġvergelijk baar
Ġcru c
s erie
t ype
ĠGew oon
!! !!
Ġoffer tes
Ġpre c
Ġin s
Ġp eil
Ġplat te
Ġa k
ĠC ultuur
ude erd
Ġw ifi
Ġ id
Ġrol l
20 15
Ġres erv
Ġrecht e
zinn ige
Ġsymb ool
Ġgrij ze
ĠPale st
Ġm ore
Ġ4 9
irecte ur
ĠNation aal
spro du
Ġbinnen kant
ĠK ru
pe ct
er zijds
Ġgele verde
hoog te
Ġstud ies
ĠEn kele
Ġter ror
s ite
r ang
ĠH eren
weg ingen
A m
Ġuur tje
ĠWor dt
Ġdes bet
Ġjong ere
Geb ruik
ĠP re
ĠP agina
Ġk eert
ol ogen
Ġl ong
pl anten
Ġgest opt
Ġgevaar lijke
Ġs ong
Ġop per
ĠEigen lijk
den kt
Ġt ime
Ġpl ak
Ġapp el
ings systeem
Ġdoel stelling
In ter
ver koop
u aliteit
Ġtr io
Ġcons um
ĠM uziek
ĠGriek se
Ġbe antwoord
h orst
Ġbeveil igd
ĠRober t
Ġc art
Ġth at
Ġtemper aturen
Ġbet alings
eg a
ĠCl ass
Ġcertific aat
bre ed
ĠAnt on
oe gt
Ġm unt
ath on
le d
kt op
Ġle zing
Ġt ong
Ġent ree
isse ment
Ġin log
Ġle d
i ven
O r
T M
Ġbese f
Ġweg ge
ĠEx tra
Ġle idde
Ġaan gelegd
st ij
Ġvoor kant
Ġover wegen
ĠB ox
Ġcl ass
o ir
d is
Ġon gewen
Ar t
ont eerd
eg elijk
c in
Ġnauwkeur ig
of ilm
Ġlie pen
Ġin h
Ġuit zend
Ġ18 0
Ġgemeent elijke
Ġgew aarde
E E
uss ent
Ġmoeilijk er
Ġvoor naam
Ġkost uum
Ġexper ts
ĠI ets
ass ade
g raaf
ĀĀĀĀ ĀĀĀĀ
t age
Ġg irl
Ġherinn eren
7 3
ĠD utch
ij er
Ġrele vant
Ġsteun en
Ġp annen
Ġpas vorm
Ġvoort vl
er ten
Ġon gem
M isschien
Ġglim lach
L et
Ġonbe kend
Ġk art
st raf
ĠOrg anis
kop p
Ġin schrijven
Ġg ok
Ġlichaam s
IJ K
Ġbeschikbaar heid
Ġpersoneel s
Ġdesbet reffende
Ġfit ness
Ġcam per
Ġinstall aties
Ġnag el
wer ing
Ġt ol
Ġy our
Ġfra ctie
Ġh ol
Ġvertal ing
rag ing
m as
Ġm arkten
Ġverdw ijnt
roe ger
Ġkwaliteit en
l u
Ġ å
ĠPro vinc
bl aden
Ġopvallen de
Ġp auze
Ġun i
ator s
Ġmeub el
uden ten
ol ge
Ġfact or
ĠF e
ke uren
Ġpass ag
Ġrelig ie
A V
Ġw ets
Ġpolit ici
use a
Ġjong ste
be zoek
f goed
Ġsl ip
Ġhon ger
Ġm olen
Ġvergro ot
Ġintro ductie
ĠL u
Ġru briek
Ġr un
ĠD a
ĠR ode
ĠBl auw
Ġnutt ig
Ġs ig
ĠN ic
ite cten
Ġsc enario
ij pen
ĠgeÃ¯nstal leerd
ver e
Ġtra ppen
Ġs essie
ĠKle in
eer s
7 9
Ġbasis school
Ġbro ch
Ġing rijpen
Ġin se
ĠV oet
pl annen
vert rouwen
Ġre aliteit
Ġverg eleken
Ġe st
our ce
athol ieke
ĠJ ava
Ġauthent ieke
k ussen
Hel aas
Ġarm oede
at iet
Ġons zelf
ĠU WV
Ġmod ule
T h
geven d
ĠS j
elle ct
Ġreview s
Ġtoe stellen
aat sen
Ġzon de
Ġl ieten
Ġde f
Ġm ap
Ġhe ct
ĠGen iet
Ġgezondheids zorg
Ġsy mp
Ġfisc ale
Ġf ru
Ġt rip
ar ds
Ġin zien
Ġb ig
E O
aaf d
Ġwaarde volle
ont werp
ub sid
Ġeven t
Ġer kende
af els
Ġmee gemaakt
Ġonver get
Ġred actie
ĠD ames
ra ge
ke uze
ander ing
gebruik ers
om t
Ġtre ffen
Ġdisc ipl
nieuw s
Ġw is
ĠF estival
ĠE C
Ġben ader
ĠL ange
rien den
Ġspec ialis
7 1
Ġonder b
Ġoorspron kelijk
Ġonder staand
Ġgeb l
T E
Ġver zenden
Ġn oten
Ġoor zaken
Ġst orm
v rouwen
ag ra
cel ona
ĠSint erklaas
Ġuit gelegd
Ġh inder
m useum
Ġfant asie
ĠV riend
pp el
sch op
Ñ ı
Ġfiet st
Ġclub s
Ġverw en
ĠJ ack
Ġben oemd
Ġstij ging
5 2
Ġbren g
Ġverh uizen
Ġloop afstand
Ġtoer nooi
ĠS and
c ol
ot ische
Ġ8 00
ic ale
Ġmerk t
bron nen
op h
ĠH out
Ġbe stellingen
ĠA F
special ist
Ġbegrij pt
Ġst or
Ġparkeer plaats
ost ing
Ġbe werken
C om
Ġv at
Ġle ge
Ġtre ft
Ġpot entiÃ«le
Ġge avanc
Ġbeh aald
Ġgoedge keurd
Ġlucht vaart
Ġvoort aan
waart s
Ġin dex
men u
Ġfys iek
D EN
Ġr oest
hou se
Ġover heden
Ġwaar dering
mot or
Ġgevoel ig
gen oeg
Ġw etten
Ġuiter ste
p rest
Ġvoort gezet
p op
ver warming
Ġduur der
ĠPhil ips
ĠGesch ikt
Ġlat ere
Ġb ou
Ġverzeker aar
Ġinst ructies
Ġopmerk ing
Ġdiagn ose
Ġwille keur
pleeg d
unn el
Ġvorm geving
k rant
5 4
atal og
h otel
bl oem
Ġwor t
h av
Ġe iken
racht ig
raa id
Ġjar ige
Ġvoorbere iden
Ġro ck
Ġeconom isch
Ġy oga
Ġvijft ien
or ge
Ġtrouw de
Ġk oor
L A
t ocht
Ġstij gen
Ġstaan de
fab riek
oefen ing
Ġverrassen d
Ġmy ster
Ġrij bewijs
8 9
isse ur
ĠAm stel
v oeren
Ġc over
Ġart sen
Ġfys iot
Ð° Ð
Ġon ged
Ġschool jaar
L O
voor deel
af deling
y r
Ġin kt
Ġgez orgd
st ructuur
ĠO N
Ġfot ograaf
Ġhier na
Ġbeweg ingen
bon y
Ġover dracht
ie ker
Ġadvoc aten
Ġvoor werpen
Ġin ventaris
ation ele
ĠD ou
Ġperc eel
Ġm aalt
Ġgroeien de
Ġmaat regel
Ġdie per
oc i
Ġzen uw
ur y
bet es
r eren
og ingen
Ġont wer
ĠP rem
Ġ Ü
' '
im p
v reden
Ġbescherm t
Ġplaats gevonden
Ġk ring
Ġrob u
ik ker
Ġtrend y
Ġwen nen
ĠF le
publ iek
Ġbehand el
ĠM S
ag ing
geb roken
le ver
.... ....
ĠB a
Ġbe houdt
Ġverb ruik
gr ip
Ġcom pens
Ġaf we
besten dig
st ar
Ġcl aim
N eem
Ġres olutie
8 4
Ġaange komen
Ġk ocht
P C
Ġh am
Ġeigen aren
Ġvij and
ĠL ie
Ġvoor ziet
hy dr
ĠKl ant
Ġtoege kend
Ġbru ine
ĠÂ «
Ġra pp
ĠJe an
d on
Ġdie f
Ġaan hang
Ñ ĭ
b anen
p and
k ar
8 2
Ġble ven
ro og
Ġgun stig
Ġgar ant
Ġvoor zijde
j on
b omen
j o
Ġuitnodig ing
r atische
at ed
ĠD irk
Ġc v
Ġw an
Ġover dag
7 4
Ġdor pen
ĠH ele
Ġb is
et sen
T ube
Ġt ak
Ġgeb oekt
o gens
Ġlid maatschap
ul ering
D ER
a ctief
S l
iek em
ĠD ordrecht
Ġkl oppen
n ij
Ġuitdruk kelijk
Ġk ippen
Ġm ark
Ġbl ack
Ġop zetten
Ġap plicaties
ĠG R
Ġkle ed
Ġkrit isch
Ġloop baan
sp ot
S h
Ġged icht
Ġsche iding
H e
Ġdis play
Ġerf goed
ug de
Ġspec ificaties
app ort
Ġont ste
Ġvak ken
ung al
Ġmed ium
Ġdemoc ratie
Ġle gde
z amer
ay a
g h
Ġgereed schap
Ġgoed keuring
str ateg
ĠâĢĭ âĢĭ
Ġpen is
sch ema
, ,
ad den
hoe wel
ff er
ĠD ownload
ook t
Ġv eer
ag og
ĠB asis
der de
Ġl ak
ĠH um
Ġgevoel ige
ĠZ weden
Ġmob iliteit
ant isch
Ieder een
zw em
Ġch risten
u gels
Ġj ustitie
Ġdun ne
ĠD ienst
bren gt
Ġvlieg veld
ĠGrieken land
ĠB ob
Ġm eren
Ġfund ament
ĠO V
Ġfeest dagen
ruim en
Ġ ï
Ġople idings
inder d
Ġover leven
qu es
ĠL ib
Ġze stig
Ġrij pe
aar zen
Ġkilom eters
ĠgeÃ¯n spireerd
Ġcont rast
Ġh erk
ĠOnt dek
i q
bl r
Ġd arm
ĠSn el
Ġhoog st
Ġdw ars
ĠT on
Ġont houden
Ġprett ige
20 14
Ġsp ro
anal yse
Ġgebeurten is
Ġdur ven
Ġk oos
Ġsl ap
Ġb acter
ar ken
f sel
sch aal
z ine
Ġintro duc
Ġuitsp raken
tert ainment
Ġwiss el
ĠAr be
ro f
Ġversch ijn
ick ers
A F
Ġd okter
ĠGer rit
Ġamb acht
v es
teken ingen
Ġl etsel
Ġuitv aart
Ġsch rik
Ġbesch eiden
Ġro k
Ġe duc
5 3
ree ft
ĠBrug ge
Ġmens elijk
Ġpat ronen
ĠJer oen
Ġmin imale
ĠF ab
Ġb inden
att eland
b ro
Ġchrist elijke
c le
Ġstab iel
Ġ5 6
Ġged reven
ĠWe et
Ġhoeveel heden
Ġsch aam
Ġrij tje
Ġschade vergoeding
Ġver rast
gev eer
ĠWe bsite
Ġaanpass ing
anc y
ĠProdu ct
Ġuitge k
Ġverzeker ingen
schal ige
Ġbr il
ĠV ER
Ġbinnen stad
ĠV in
c amera
c u
Ġduur de
ug al
ĠG et
Ġg reep
mm ingen
E P
Ġj ob
Ġtoevoeg ing
Ġvertrouw de
ĠP en
8 7
ron de
Ġstem ming
ograf ische
ĠCent er
B ek
Ġchauff eur
Ġo e
ijn e
ĠM ol
lij sten
ĠJ ustitie
Ġr aar
ĠbeÃ¯n vloeden
Ġind icatie
Ġbeschad igd
f um
Ġplaats ing
Ġgod s
Ġachter uit
Ġkleur rijke
Ġasp ect
ĠCD A
Ġler aar
b at
N adat
Ġaf wiss
lecht s
m oed
Ġnation aal
Ġaanv allen
part ijen
Ġcon gres
k elijks
ĠZ and
ĠB ay
Ġtien ers
Ġin koop
Ġgr ip
Ġbez oekt
M ocht
f an
Ġplaats vindt
fig ur
v et
Ġtuin en
Ġvooraf gaand
ple zier
ac cept
unt ain
Ġhuur der
k o
Ġverlie st
iss er
Ġb reken
Ġdatab ase
ven ter
Ġpl ay
bed den
Ġsch oot
mat ische
ĠB aby
form ance
ree uw
um m
rol l
Ġgel iefde
Ġtab l
rek ing
Ġvoor sprong
Ġcon ne
Ġop gave
Daar om
houden de
ĠBar celona
Ġzo o
Ġged ichten
ren te
f eu
un es
Ġver pakt
M O
bere ik
Ġs aus
em d
uit je
com fort
Ġgekleur de
il it
le en
ar isch
ĠD ruk
ĠJ as
ĠT ru
oll y
v le
Ġa ro
ĠðŁĺ ī
Ġpl ug
ĠAl kmaar
Ġaanbe volen
Ġ9 9
il ity
be veil
Ġon aan
Ġlief hebbers
tu ig
ĠM ari
Ġstu deren
Ġkopp elen
Ġsympt omen
Ġvolg orde
6 3
aad jes
ind elijke
Ġvoor malig
Ġtyp isch
Ġhers en
Ġfavor iet
Ġwet houder
Ġg ulden
Ġw aan
Ġster ven
? !
h o
m assage
ĠV eg
ĠHier in
5 1
b ang
Ġfunction aliteit
ĠInst ituut
ĠSch oon
Ġoptim aliseren
Ġbetaal bare
ĠCan ada
Ġb ied
ĠEn schede
Ġgek l
Ġchem ische
T V
ĠGen er
Ġver wel
ĠG E
be staan
w aliteit
of te
Ġill ustr
ressie ve
Af rika
front eerd
over zicht
ĠB urger
ĠU p
Ġboven ste
pl atform
Ġevalu atie
ĠE g
Ġop slaan
Ġw apens
zeker ing
Ġpo Ã«
ĠH erman
ok e
Ġvari anten
Ġvast stellen
Ġtext iel
Ġbe s
Ġter men
H eel
Ġnoodzak elijke
Ġzo ete
Ġshow room
6 2
Ġom st
ĠSoc iale
Ġar rest
8 3
Ġpre d
ĠTot aal
Ġkn ip
Ġele ct
Ġkan alen
cl ass
p al
Ġt ussent
ĠT em
ĠA al
Ġsch ouders
b aden
Ġra s
Ġdaar entegen
Ġbe ker
Ġwoon de
ĠBl ue
ĠS ony
Ġgrapp ig
m eter
Ġinteractie ve
zen de
ĠT or
Ġin k
m aterialen
Ġmaalt ijden
Ġherken baar
ĠAl tijd
schillen de
ie ze
Ġuitge werkt
cond ition
Ġpro te
Ġpro cedures
ĠTw ente
ĠS hop
Ġb allen
Ġa mper
duizen d
Ġdial oog
Ġaf sch
Ġaf sluit
c ir
Ġal thans
M I
ĠStand aard
Ġc ellen
9 3
ĠIn leiding
Ġna ge
ĠSt udio
st anden
Ġverb azing
Ġl et
Ġk al
b elen
ĠW all
uit ing
Ġd uiven
be en
Ġ199 7
aro ch
f ul
ir urg
Ġinspir erende
Ġexempl aren
ran ken
pro cedure
ĠAd vies
ific eerd
len de
v aar
is olatie
Ġt ouw
Ġar range
u ge
Ġsl aa
qu Ãª
gew one
Ġleerk rachten
Ġber oemd
5 7
Ġwerk dag
z y
Ġtoenemen de
Ġaft rek
Ġcombin eert
Ġverv allen
ĠP R
Ġveert ig
Ġsl oot
Ġtro p
el oze
Ġbb w
ĠSt aats
Ġextre me
Ġna dere
Ġverm elden
Ġhoogte punt
Ġlopen de
ich e
Ġex port
ĠI V
am men
ĠAn n
Ġtoen ame
Ġbijeen komsten
Ġj ubileum
zinn ig
Ġderg elijk
spro blemen
Ġple in
eer ste
Ġb oel
ĠM ateriaal
Ġge acht
Ġe iser
ce aan
Ġer kenning
Ġs ommigen
b ellen
Ġbeveil igings
Ġnot aris
Ġler aren
âĢ Ķ
ĠH an
ĠG raag
ĠSt at
ol i
ver voer
ĠAd ri
Ġop komst
Ġemot ionele
Ġd akk
Ġn ut
Ġcar nav
Ġheil ige
v orens
m ag
len gte
Ġdeb uut
Ġtool s
le ding
Ġgem en
Ġaan gename
Ġwoon plaats
ĠAf hankelijk
ĠR ock
Ġrecre atie
Ġgecon fronteerd
ri ct
ĠHolland se
Ġdecor atie
Ġdefinitie ve
ific eren
? "
ĠR ol
Ġtyp ische
Ġd ome
Ġbuiten kant
Ġvoor gesteld
Ġar mb
Ġne w
gren s
Ġbed anken
Ġcoach ing
ĠH P
ĠBl u
Ġp iano
Ġflexib iliteit
Ġdank baar
Ġl aad
h u
Ġer achter
Ġver du
vol ution
Ġmon it
b oel
Ġaanbie der
ĠV eld
Ġhard ware
Ġ5 4
be weging
curs us
in stelling
ĠD irect
Ġverschillen d
ver wege
al ling
Ġveroor deeld
Z ij
ist an
at ers
Ġzil veren
Ġris ic
ĠW ol
oord eling
mat e
wacht ing
ĠM annen
Ġsp er
ã Ģ
ĠBer gen
Ġt assen
Ġh oed
Ġrub ber
Ġk it
sp ect
wedst rijden
Ġis ol
oof de
vers um
ou se
Ġgrond slag
Ġcar avan
Ġnaar toe
Ġdan ken
p aal
Ġover nacht
st uren
Ġj azz
is a
ĠBij zonder
iss ies
op e
oeist of
Ġge staan
Ġanalys eren
s amen
p ing
ĠM eld
ĠA S
b as
kt ail
Ġgec reÃ«
Ġind ic
Ġuite indelijke
Ġoefen ing
ĠM erk
Men sen
ĠB ureau
ut ter
Ġmat ras
iele den
ek ra
c omm
anc eerd
Ġzol der
le menten
ĠKonink lijke
Ġe is
Ġzieken huizen
chten ds
ĠSt ap
Ġd rum
H O
gr atis
N aar
ĠVer b
ĠMaar ten
! "
Ġbarbec ue
Ġmassage s
Ġind eling
Ġschitt erend
Ġverschuldig d
Ġte gel
Ġvru chten
m mer
Ġprof ielen
Ġgem ist
Ġopl open
Ġbedrijf sp
Ġmin st
Ġpublic eren
Ġpoly ester
Ġbe oog
Ġkol on
Ġop richting
ro les
ĠGer ard
Ġvoor schriften
Ġople vert
Ġaangekond igd
B eg
k ool
Ġseni oren
Ġuit zien
Ġt ypen
i or
ĠV andaar
Ġ199 5
ber ichten
Ġboven aan
Ġr i
Ġbep aling
Ġwereld wijde
l on
H E
Ġro y
st ijd
t r
Ġl ip
Ġcade aut
Z org
ind a
Ġb om
Ġnieuwsgier ig
Ġzonn ige
Ġh it
Ġl ens
ĠC le
Ġn as
Ġgezell igheid
ian a
ĠK ing
Ġhistor isch
Ġsm alle
Ġc ard
ak es
Ġbel and
Ġk elder
i els
Ġp izza
w asser
Ġwat erv
ro de
ĠYou Tube
aa id
T A
rol len
Ġvert rekt
Ġsl ijt
or b
ge deelte
Ġaard app
Ġraadple gen
allen ge
anis me
Ġint ellect
elt a
Ġaandoen ing
ĠAm b
Ġde aler
ĠP ool
Ġbeg raven
ui der
n ummers
ing erie
ĠKen nis
ĠTer ug
Ġbez uin
Ġvere iste
Ġfraa i
Ġf rom
8 1
t im
tu igen
sl ot
Ġbeg ane
Ġteken ing
Ġm usea
Ġst reep
Ġvergelijk bare
verk ie
schrij vingen
ĠS o
Ġeer lijke
Ġvriend innen
p ool
ron k
Ġsn ijden
Ġop richt
ele ens
Ġinten sieve
Ġo k
Ġh opelijk
U M
ĠF it
- /
ĠTegen woordig
ĠG olf
Ġse ctoren
ĠEr ik
Ġbest rijden
Ġcit ro
Ġserie uze
Ġin gevoerd
ĠO b
ĠMich el
ĠZ oet
vest ing
Ġbeg inn
Ġverb rand
Ġverzek eren
Ġpl atteland
Ġgel aten
Ġh oopt
Ġverb aas
groe i
ĠH om
ar et
Ġsch ema
Ġverl ang
Ġwaarb orgen
ro g
p o
Ġgaan de
d igen
ĠAustral iÃ«
Ġn al
Ġverkl aart
ĠLe ague
Ġmed i
Ġregistr eren
Ġhaar d
Ġlever de
re ur
Ġvooraf gaande
ĠD ieren
Ġwerk elijke
ĠVi ctor
H allo
ĠK ap
Ġbesch rijven
ink y
ĠZ wee
Ġbelast ingen
ĠAn dr
Ġkl ikt
ĠEle kt
R I
Ġs oft
Ġkenn elijk
Ġop a
Ġgrond stoffen
Ġmont eren
ĠK ruis
ĠOff ice
Ġbl onde
Ġget ra
Ġ5 1
G em
Ġkinder opvang
Ġverspre iden
Ġrec ord
Ġoptreden s
Ġb ab
ĠA ch
Ġvers ies
ĠW agen
9 1
ont je
ĠS un
K ort
Ġbl ond
T S
Ġder halve
ĠH all
Ġarbeids on
ĠC ru
Ġgeb akken
Ġw ielen
H D
Ġrest aur
ĠD om
ĠOnt wikk
Ġpl akken
Ġvast stelling
Ġcomment aar
Ġv elden
as es
ij m
meis je
Ġvar iÃ«ren
Ġgez eten
Ġf eesten
Ġover heer
gro ot
Ġ199 6
ap os
stel t
ĠL am
ĠH oek
Ġh d
Ġpro cess
Ġv res
ĠDe c
B I
Ġhar der
Ġram p
ĠL aur
h uid
ir d
Ġbag age
Ġvert aald
v ia
Ġko zijnen
Ġd uiken
Ġopge haald
Ġh orm
Ġvert alen
Ġnederland se
i cten
Ðµ Ð
gere kend
Ġw eleens
Ġzelf gemaakte
Ġadres sen
Ġoverzicht elijk
i ase
Ġkl eren
Ġgeren ov
H ome
Ġontwikk elings
m ob
Ġaanget oond
K ijk
aand ag
C omp
Ġ0 3
Ġander zijds
og ram
Ġwerk plek
houd ingen
Ġt ickets
Ġals ook
Ġk eel
ĠCh amp
Ġrelig ieuze
ĠK L
le iden
Ġgelden de
Ġtaf els
Ġmij zelf
Ġe sc
ac count
Ġlast en
Ġko steloos
Ġper iod
Ġpersoonlijk heid
Ġlangdur ige
ĠP olen
Ġzijk ant
Ġ20 20
ĠL os
Ġcomm issaris
ft al
ĠSt r
N V
ĠWest er
ort h
Ġkant oren
g angen
Ġern aar
is eerd
ĠP o
Ġb it
Ġversch rikk
oort s
of look
Ġint ussen
Ġsch ot
Ġuitge zonden
Wel kom
Ġop geleverd
ĠK ees
be sch
Ġescort s
ĠB ijna
Ġcook ie
ĠW ijn
Ġaansch affen
ĠC at
Ġlijst je
D S
el pen
sch oten
Ġduid elijkheid
il do
Ġwetenschapp ers
ĠWi Fi
leg ging
met h
p on
Ġbij bel
steun ing
au x
à ¤
Ġop w
Ġmen ig
Ġa gr
Ġre fer
Ġschil ders
ĠI l
Ġcomp acte
6 1
al bum
ist ieken
w achte
Ġwel l
Ġin gebouwde
E igen
Ġtoegev oegde
uld ige
as en
ijd se
utt ing
str and
Ġpak te
aan de
S oms
rag ers
ster ren
Bek ijk
Ġop zoek
Ġtoeg ank
Ġgem onteerd
! âĢĻ
aan den
20 13
Ġrepar eren
Ġher zien
ĠVO OR
Ġonder kant
een komsten
Ġop sp
agn es
v ader
Ġk raan
Ġhy per
Ġachter naam
Ġd ress
ex t
Ġz one
Ġtom aten
ĠS ter
ĠVoor waarden
P er
Ġdes ktop
E ven
sh ow
ĠV ries
Ġverplicht e
l os
Ġvon nis
b u
v as
t as
Ġverv uil
ect or
Ġp et
Ġzuur stof
nem ende
best anden
ĠB W
ĠBelasting dienst
Ġinsp ectie
j et
Ġdisc uss
Ġin voering
ĠBe zoek
Ġbereken ing
ĠLe ven
Ge plaatst
acte ur
av o
ĠSch rijf
Ã¼ r
Ġwe kelijks
Ġer toe
Ġverwij st
Ġverk le
Ġhoe s
Ġp akt
ĠA ud
e ind
ĠA ma
ab eth
Ġup dates
Ġbeweg ings
ĠJ uist
Ġgeb roken
oc key
ĠZwits erland
Ġn eukt
ĠK im
j ob
stand aard
ic an
veren igingen
amin aat
Ġgep aard
sje ch
Ġgl ij
Ġvin tage
Ġch amp
Ġonderling e
ĠO per
Ġgr onden
maatschapp ijen
Ġex curs
best rijding
eer lijk
ĠD o
k asten
Ġopbouw en
Ġo ord
Ġhier aan
Ġkl ank
Ġbeh aalde
Ġaan nemer
Ġuit stap
t a
Ġker am
act iviteit
ĠMe ch
Ġvennoot schap
Ġmede deling
Ġsec retaris
ĠSa int
Ġdu o
ĠBed ankt
Ġrad i
Ġl ukken
Ġtru c
unst ige
ĠPort ugal
Ġroute s
ste ken
Ġged oopt
il i
Ġuit komt
Z w
Ġ5 3
Ġaank ond
Ġom gek
ĠIS O
ge est
sp raken
Ġb uit
Ġonder te
s d
oed el
l oc
ĠNation al
n d
ey en
ens ies
m olen
Ġom schrijving
u gt
C on
Ġkoff er
Ġa st
Ġperson ages
ĠN iets
Ġwast afel
Ã© e
Ġmed icatie
it iek
Ġheu vel
n r
ic ks
az ine
dien ing
Ġuit k
ĠA ssen
akk oord
v or
Ġuit leggen
Ġmot oren
de uren
Ġex plic
Ġaange houden
Ġprem ier
ĠT egelijk
b els
Te gen
Ġaange paste
ĠAn der
A O
gele verde
Ġm ov
am ma
z oekt
Ġna genoeg
n ot
lei ders
Ġstij gt
Ġd uw
ĠB ou
le zen
Ġge wezen
ĠS electeer
N S
el er
Ġl ine
Ġget uige
erm eer
Ġn ale
b org
ĠP ay
im mel
Ġpast a
ieken huis
Ġinsp anning
Ġch eck
ĠR am
Ġtussen door
ĠJon ge
ar men
Ġsamen hang
Ġp roe
ziek te
kan aal
Ħ ¢
Ġdaar uit
out h
kort ing
ĠBesl uit
Ġvest igingen
Ġwaar deren
Ġde eg
ar be
a e
ma x
Ġver onder
Ġverwij zing
Ġc ijfer
i als
T ER
Ġp ijl
Ġl oun
Ġfasc in
ĠBeg in
Ġaard be
or ry
Ġbetrokken en
Ġsterk te
ĠD NA
Ġlic entie
ĠHou se
Ã© Ã©r
Ġconc reet
ĠIn t
ĠDat um
Ġe dit
eeuw en
Ġbund el
ĠE P
ä º
ĠB ody
ĠV akantie
Ġgeavanc eerde
kle ed
Ġonbe w
b akken
ĠCorn elis
Ġver ant
F C
Ġm g
Ġc ul
c ur
Ġop gelegd
ĠK em
ĠgecreÃ« erd
duc eerd
Ġont ving
ĠVerd rag
sen de
Ġoverl ast
ver blijf
bet aald
el ux
ĠG eld
Ġcon cl
olog y
Ġble ss
cent rale
N ou
den de
mat isch
ce des
dr ingen
Ġof tewel
Ġaanp akken
Ġde ss
Ġvooruit gang
Ġsch ok
Ġverl oor
Ġovertu igen
iteit en
Ġleven de
ru ikt
ĠG ele
eil and
c ultuur
st ru
ĠD VD
ĠBe halve
Ġover leed
Ġro er
S te
Ġk oeien
Ġ0 2
Ġw anden
Ġzo cht
h anger
i Ã¨re
ost a
Ġkool hydr
gezond heid
vaard igheid
Ġaan komen
Ġgebruik elijke
Be ste
Ġbekend ste
Ġ; -)
F l
sch at
Ġdief stal
ĠT ype
ont vangst
l len
T O
Ġkl ooster
ĠOver ijssel
Ġb orden
Ġaange eft
v ings
Ġopvol ger
we ven
Ġaut oriteiten
ĠD oc
Ġorganis ator
Ġd in
gro en
h ow
Ġverst uurd
om standigheden
": "
Ġ1 10
in richting
az a
ĠK or
Ġb ook
Ġont pl
Ġgl ob
ĠL ight
ge houden
Ġ199 4
Ġdecenn ia
bo y
ĠK PN
vorm ige
Ġkeur ig
Ġonder gaan
Ġvij ver
Ġzee p
m os
Ġge slagen
er wijs
Ġop recht
Ġlangdur ig
ĠB at
ĠC ir
Ġ: -)
Ġcol umn
p rem
ĠS ar
Ġafzonder lijke
Ġimplement atie
rom ing
Ġpakk etten
z amen
ĠW ees
M ooie
Ġn oemde
Ġpassag iers
ĠM oeder
Ġjon ger
Ġven ster
wer f
d ak
ĠIn du
Ġgrond ig
Ġverz uim
it o
ate urs
Ġst aart
ĠM r
Ġopv oeding
at ive
Ġhoriz ont
Ġc oll
Ġkaart jes
isc ipl
Ġtijd s
Ġrom antische
ĠI K
d ad
ĠW inter
, âĢĻ
Ġpsych ische
ul a
ĠO S
ill s
p orno
Ġleven sl
Ġa gent
ra ger
Ġnad elen
Ġhuw elijks
Ġambten aren
co des
Ġru sten
op te
Ġfilosof ie
w ijn
b anken
Ġdome inn
oun dat
Ġdoor geven
P R
ĠBr un
Ġt weet
Ġstab iliteit
on te
ele menten
Ġtoer istische
ĠH ad
X X
Ġgespecialis eerde
ĠHar ry
s ole
Ġch a
B E
stro men
tegr atie
ĠW O
Ġgewaarde erd
ĠW eek
gev el
le vering
Ġzes de
is ende
br il
gemeen schap
l oopt
uit kering
ĠP ak
cap aciteit
v oudige
Ġon juist
aalt jes
Ġme st
d icht
Ã ´
Ġp ant
m atiek
ĠDe venter
oord elen
oor dt
Ġvroeg ere
Ġpublic aties
Ġgoe ie
ĠR VS
Ġb io
Ġn iveaus
Ġleerk racht
art ikel
Ġhou der
sprodu cten
be ur
Ġg ym
ĠPriv acy
Ġst iekem
ĠOnder tussen
Ġst ed
Ġvol komen
Ġver ste
ĠOver eenkomst
Ġz uin
ĠR oer
On danks
ĠcreÃ« ert
t elijk
G r
u zen
ĠJ oden
Ġtelefoon s
Ġu zelf
Ġbet rekken
ĠDe m
ĠJ ouw
g ras
Ġbij passen
oon de
Ġkn oflook
H and
Ġverm oeid
on line
Onl ine
Ġvert el
Ġk roon
ĠSch ot
Ġgroe ide
Ġom slag
ze gd
re ert
Ġp ower
Ġchron ische
Ġop zeg
kracht en
Ġl ust
Ġreg lement
Ġh istorie
Ġbad kamers
oed d
ĠHeer en
Ġgeb eld
ĠS erv
ĠOver igens
Ġb ocht
Ġmail en
Ġact iv
ĠMan ager
om een
Ġtoon aan
U n
ad ministratie
Ġamb assade
ĠA mateur
Vl aanderen
Ġn ar
Ġgecertific eerd
ai ren
op gave
Ġ14 0
ĠR and
Ġinsp anningen
sch oen
feu ille
vin cies
Ġ0 7
ĠI emand
techn ologie
Ġsch affen
Ġmil ie
con de
N e
je ctief
oot jes
Ġh oning
Ġmil it
Ġinse cten
p roef
gra ven
Ġbetaal baar
Ġpriv ate
ad vert
Ġl ux
Ġen d
Ġom gezet
Ġsex date
am m
Ġuit komen
ĠCas ino
ĠL y
Ġwink elen
Ġro ts
de elt
ĠM olen
Ġpart y
ĠX L
Ġvari atie
ĠS ite
Ġvriend schap
al itie
Ġverm ogens
Ġverd eling
Ġover name
Ġger oepen
meis jes
b odem
Ġfamil ies
gang er
o ire
Ġaanra king
Ġf acebook
Ġaf gest
Ġal daar
c ertific
Ġk alk
Ġaanget roffen
Ġma c
Ġuitge sloten
Ġaf f
un k
Ġpre ventie
ijk er
ĠB ook
Ġess entiÃ«le
Ġv o
Ġdiam eter
z z
Ġuitbre iden
Ġvertegenwoord igd
ĠO ekra
Ġget ekend
Ġbru id
Ġvert raging
l oon
Ġa gen
Ġwor k
iz oenen
Ġpr inter
ic um
Ġg iet
ple kken
Ġbetrouw baarheid
Ġreser ve
ĠL as
Ġblog s
be stemming
Ġaank open
ï ¾
Ġverrassen de
Ġon ro
Ġdes kundigen
Ġvertrouw d
Ġstap el
reg ister
g ment
Ġingericht e
Ġp all
Ġw oest
t rip
Ġg aaf
ĠMot or
Uit slag
Ġdatings ites
Ġreg ie
st erk
ĠN IET
ĠL aten
et ooth
Ġmoslim s
Ġtoe gelaten
m ark
ĠB u
Ġver ordening
sp ectie
w ind
Ġsch uim
Ġver men
Ġ199 0
age erd
Ġr iep
licht ingen
W h
ma and
Ġmiddel bare
idd ag
ĠO h
ee g
Ġher steld
Ġt icket
Ġventil atie
Ġonder hand
Ġlo sl
g ord
reken en
ari aat
c ijfers
ĠT ouch
Ġhulp middelen
Ġinner lijke
Ġzak e
ruct ure
Ġwat erk
B B
Ġin gel
Ġschrij vers
att ingen
Ġged uld
um b
ĠNederl ander
Ġz Ã³
Ġsign alen
Ġd ijk
Ġcompon enten
ne p
Ġst ok
Ġinz age
ĠM ij
beheer der
Ġser ies
Ġon duidelijk
ĠA qu
I R
Ġb u
Ġgenees middelen
eyen oord
Ġmantel zorg
Ġop get
Ġstad je
g raad
Ġschak el
we i
Ġ' '
Ġbehulp zaam
gele zen
ĠS ie
Ġfun ctionele
Ġj al
Ġsper ma
Ġ1 30
S E
raag de
Ġklein ste
Ġaf genomen
Ġbe est
Ġsluit ing
Ġaan gaan
ran en
Ġminer alen
Ġvar kens
ĠRe al
W or
ĠS on
S D
Ġomgev ings
Ġp oeder
om an
condition ing
oss ing
le veren
ke uken
Ġcir kel
Ġgel ooft
ĠL im
Ġv r
Ġeind igde
Ġk raam
oundat ion
Ġmen eer
Ġwerk loos
ĠS C
ĠW in
Ġp aal
ĠL i
ĠVerg elijk
Ġschil d
Ġprofession al
route s
Ġ5 7
is on
Ġch atten
Ġgener aties
ĠV olle
Ġn ul
Ġfotograf eren
Al les
Ġ5 8
l ampen
Ġhoe ver
Ġpr ie
Ġvre es
ruk te
T ra
Ġdocument aire
Ġinc ident
ol ang
ĠV ak
E er
Ġf eder
Ġfl at
ĠK ro
Ġverdedig ing
Ġaltern atieven
Ġ ).
Ġpap a
nem ingen
Van uit
ou ver
Ġc ase
id ge
man nen
ĠJ ames
ĠChe ck
k abel
Ġvoor aan
ape ut
Ġf onds
ĠH ass
le k
Ġkrit ische
ĠM aur
Ġsc ala
Ġsollicit atie
Ġh itte
Ġst els
Ġre alisatie
Ġverb indingen
ĠRich ard
Ġben aderen
ĠH o
Ġarg ument
Ġfra ude
c er
ĠB all
ĠJ ur
Ã¶ per
verk ocht
ĠA k
Ġkl assen
ĠS yn
Ġn aad
Ġstrateg ische
Ġt int
un ing
ĠZ al
it is
Ġg u
Z ie
Ġther apeut
Ġbev alling
Ġander half
ĠSoc ial
Ġstee kt
K om
Ġgel et
in ie
ĠThe ater
Ġsm s
Ġmeer waarde
D A
Ġgerecht igd
w end
Ġsl otte
Ġtoe genomen
st appen
ĠM ir
ĠMil ieu
ĠHeil ige
ĠL ok
wij st
Ġaan leggen
ond anks
y ch
ĠW ijk
vallen d
Ġom gang
ĠT est
ĠAnd re
Ġd rijven
ĠL ab
Ġru it
eu ten
Ġinv oeren
Ġeen e
Ġzelf vertrouwen
Ġthe or
Ġsch uil
Ġhou ts
Ġse conde
20 12
w inst
ob ank
atalog us
mel o
oe ders
Ġcond oom
Ġsch apen
te vreden
Ġweer gave
Ġf ood
ĠLou is
b orst
Ġaanv ankelijk
â Ħ¢
Ġk ond
Ġamb ul
Ġstren ge
O h
Ñ Į
itie ve
ut je
t ien
at ier
Ġnag els
Ġstijl vol
Ġgel uiden
art ier
Ġze st
Ġh oer
Ġdynam ische
ĠH BO
begele iding
Ġgebruik elijk
Ġg raad
oploss ingen
Ġk ers
Ġsh oppen
colle ctie
Ġbeleg gings
Ġmet ro
W est
k ok
ĠW arm
Ġcons erv
Ġn odigen
Ġh u
E U
p x
Ġ0 4
Ġom streeks
Ġkort ingen
ĠC B
Ġruim telijke
Ġp oten
ĠMin i
Ġcontra cten
ath ie
Ġbet oog
stem men
Ġwerken de
Ġle iders
ĠB MW
ĠR et
ag el
ĠH opelijk
A ut
in us
Ġget al
ap ter
ale m
ien sten
Ġ3 60
ris ico
Ġexpl os
ste chn
Ġbewonder en
Ġr at
Ġade qu
Ġwoord voerder
og er
ge werkt
Ġtranspar ant
Ġver wer
! .
ĠRomein se
A A
Ġpro p
Ġwerk plaats
Ġt rouwen
Ġelekt risch
le ss
Ġsch uldig
Ġontvang er
ken den
z igheid
Ġaanra den
ak elijk
uik er
Ġsol o
bouw en
Ġjurid isch
Ġc rÃ¨me
ĠSy stem
Ġb rouw
ĠU N
Ġdia betes
Ġdat en
ĠI t
w ille
Ġeenvoudig er
Ġre inig
as k
kle uren
Ġal vorens
Ġaut or
yt ics
ap s
d se
âĢ¦ )
me ch
oef end
ĠIn form
ĠLe id
oot s
Ġvoorzien ing
ĠM ogelijk
Ġor iÃ«nt
Ġmaand elijks
Ġball on
Ġverzorg de
Ġverb od
te mperatuur
Ġh aken
Ġversch ilt
v ocht
Amerik a
Ġgl an
m elden
Ġrond je
Ġt ri
Ġverh oging
Ġsp its
Ġfig uren
ĠI m
ge halte
atis ering
Ã© s
ust ers
ĠW eg
Ġ7 2
r r
Ġgl ans
Ġen erzijds
st udie
Ġk asten
ich aam
Ġl ading
ĠDuits ers
ĠDat e
Ġgev ierd
Ġbacter iÃ«n
ĠKl im
prof iel
Ġverhoog de
Ġgemot iveerd
v it
w ant
ĠDaar in
ra pt
ol den
Ġke ih
Ġweig eren
ĠbeÃ¯n vloed
ĠBl ok
ĠHil versum
sp anning
Ġth ans
Ġgek n
ĠH oorn
ĠJ ose
Ġl ate
sche iding
Ġo chtends
ic aanse
schrij ft
over d
Ġact ueel
Ġstem pel
Ġhele boel
Ġje gens
ĠL ucht
e sten
sc ont
vang er
Ġz uigen
ift en
Euro pa
z oon
ST ER
Ġ7 00
Ġde ksel
Ġuit maken
Ġgew assen
G A
Ġe bony
Ġbi ologisch
ĠS om
Ġber oepen
ver antwoord
ĠN iemand
Â ©
b ol
U iter
Ġro om
Ġhoog leraar
er ry
Ġged rukt
Ġp el
bew ust
Ġplan eet
Ġrond leiding
Ġfir ma
ry pt
Ġfeit elijk
ĠHeb ben
Ġj apan
ment s
sk i
ĠL ife
spel ers
part ner
dat a
sp iegel
sc reen
Ġ199 2
put atie
Ġnet te
Ġpar ag
Ġaf voer
3 00
ne st
Ġverv ullen
ian ce
is eren
Ġt im
ĠR a
Ġpan elen
Ġe del
Ġstee g
p per
Ġpresent eert
advis eur
Ġin richten
Ġsu pp
Ġsec ret
Ġam sterdam
ut a
Ġfiet sp
Ġinst anties
fin ancier
ert s
voorzien ingen
I O
ĠBen elux
Ġop geven
ĠHoe veel
verzorg ing
ĠC ur
ĠAl ler
Ġontdek king
ĠI C
Ġvor deringen
oer nooi
gem erkt
Ġj an
at ure
Ġ Ø
ĠFl or
Ġsl oeg
tijd ig
Z uid
ĠWaar schijnlijk
Ġbet alingen
z eren
ĠSt ate
Dank zij
ĠgeÃ¯n formeerd
ĠZ on
P ers
r al
Ġstij len
gar antie
Ġverder op
il air
Ġbe werkt
Ġhart st
ik a
Ġvan daar
ĠP ier
ĠP ink
Ġh aat
ide s
Ġsal ade
le pen
Ġverl agen
Ġs ervices
gev al
Ġdraad loze
ds m
Ġpr et
Ġkunst werk
spers oon
ĠK rij
Ġsch atten
Ġor gel
Ġp in
Ġ12 5
Ġgev aren
ĠD ay
ĠZe ven
Ġadvis eert
y er
uist eren
Ġsol daten
Ġuit oefenen
Ġ Î
Ġvar ia
ag in
Ġport ret
B est
Ġstim uleert
war ds
Ġ6 6
Ġbro ers
sch oon
E V
Ġpl ank
Ġover hand
off e
Ġgest olen
Ġken baar
Ġaan staande
n s
Ġdw ang
ĠW onen
Ġmagaz ine
Ġleer de
Ġup gra
el icit
Ġopen ings
gele ide
Ġkopp eling
Ġpas poort
Ġeiwit ten
Ġbest ur
eel ing
Ġve chten
w a
it utie
ge eft
Ġst aten
ĠVan wege
ĠMar cel
Ġschoon maken
Ġgeve cht
ĠMer cedes
Ġb utt
Ġij zer
ver dachte
Ġdro gen
Ġfol der
ĠWell icht
Ġcorre cte
Ġ- -
S uper
Ġken teken
mod ellen
ziek ten
zak elijk
ĠC ook
ĠL ief
ĠI B
Ġge accept
ĠA ziatische
Ġst oot
Ġelkaar s
ĠLe on
Ġgeh ant
Ġplaats je
Ġbetrokken e
Ġp up
ĠR oel
Ġgeb re
st aal
ĠWil hel
reg io
ĠVeren igd
od a
Ġfen omeen
ĠC ong
ĠJ ord
Ġgel ov
Ġe igent
ĠGr ond
ĠBelg isch
il inder
ge er
Ġfles sen
en is
ist a
id o
Ġsamen stellen
Ġbeh ang
ig den
ĠAn gel
Ġbl ind
he s
Ġc up
un ct
lief hebbers
ĠM ul
d oeken
c re
Ġvernieuw de
L inks
Ġverz ocht
ĠM ach
it ch
Ġbroch ure
onder delen
ĠRe gel
e iser
Ġaan maken
ĠSch il
Ġbatter ijen
Ġcir cuit
Ġgew eten
Ġk ro
ĠG PS
Ġopen de
j ack
Ġvre ugde
uil ding
Ġr etail
be grip
maat regelen
Ġcollectie ve
sl achtoff
ĠLe ver
ĠSk y
Ġb oog
geb re
Ġde ment
Ġzonn etje
mede werker
Ġt achtig
ĠP a
Ġporn ofilm
oel t
iv isie
Ġfabrik anten
h istor
Ã¼ n
Ġhuishouden s
Ġtrain ers
ĠM arketing
ĠO C
Ġonver wacht
f re
Ġeind eloos
ĠI sl
Ġverb indt
co ver
ĠSim on
estiv als
t v
Ġonbep erkt
beveil iging
.... ..
ĠH erm
Ġbesp aart
iss ing
Ġ3 50
ĠB ang
vol ging
ĠAf rikaanse
Ġ6 9
Ġhoog waardig
Ġr ang
cess oires
Ġboven kant
inst ituut
at ures
Ġex positie
Ġuitgere ikt
orm de
Ġl aminaat
Ġverdien d
Ġg an
Ġges neden
Ġre alis
Ġgeste gen
Ġbre iden
ings vermogen
p re
ĠB akker
Ġcredit card
w oorde
Ġpro vincies
Ġbeoord elingen
Ġverw eerder
Ġvorm ing
ker ingen
Ġser vers
Ġen quÃª
ĠV it
ĠW erken
ĠAut om
i oenen
Ã¨ ne
Ġcon front
ge ef
D R
Ġindruk wekkend
ens ioen
der ne
Ġre ferentie
Ġ aar
ER K
Ġmerk te
Ġvuur werk
ĠLux em
Ġstren g
z ool
Ġverbeter ingen
Ġcomp act
Ġrol stoel
Ġair co
g at
Ġwest erse
Ġgedetail leerde
Ġt ar
ĠO M
Ġkle m
recht elijke
Ġuitge schakeld
be woners
ia ir
op slag
Ġverwen nen
ĠM orgen
Ġst oer
Ġl ukte
Ġi OS
se isen
I B
Ġu s
Ġaangev raagd
app ing
c i
Ġpol is
âĢ ŀ
Ġsn oep
Ġstart te
ĠG roe
Ġt oed
f ietsen
N O
em arken
ĠR h
Ġmede werking
Ġerv aart
Ġg ru
st art
ategorie Ã«n
Ġje ans
Ġkl agen
Ġv aar
b rood
Ġdisc rimin
Ġonverget elijke
teken en
boek je
u el
Ġproduc eert
Ù Ħ
h oop
il atie
ĠR ijs
re iking
Ġpot je
ĠB and
ou ts
Ġporte mon
ĠF onds
ĠefficiÃ«n te
Ġover stap
oo sten
Ġop sch
½ ©
Ġkab els
ĠEr ic
ĠC up
Ġolijf olie
ĠDat a
", "
Ġverh uizing
Ġreg isseur
Ġcom mand
ĠT rip
ou che
Ġgesl aagde
Ġat elier
Ġch ef
v ullen
ĠL ove
Ġvit am
an im
ro und
snel heid
ĠB ond
strateg ie
ĠT rouw
Ġgeselect eerde
Ġher haling
ĠD er
Ġsch uiven
Ġex acte
Ġp oesje
Ġaf komst
ĠVol g
af val
ot os
Ġeleg ante
ĠM ay
Ġverbouw ing
Ġge pro
tra ining
ĠgeÃ¯ sole
g elen
ĠAir port
Ġafwijk ing
schapp ij
Ġd aling
den king
Ġb ungal
st ok
M ooi
ĠGl as
Ġd ram
Ġen de
ĠS en
Ġaantal len
Ġinb raak
ru cht
Ġw aa
ĠG i
Ġze ilen
ĠJ uni
Ġuit werking
K an
Ġconc erten
l ip
Ġsc reen
Ġfrequ entie
Ġa kte
Ġdos is
Ñģ ÑĤ
Ġvermoed elijk
Ġin werking
Ġspec i
Ġpsych iat
Ġonder handelingen
Ġnot a
P ress
Ġcontin ue
iv es
stig de
Ġsymb ol
Ġtem pel
Ġ5 9
st rijd
Ġu plo
Ġpre vent
Ġvernieuw ing
Ġsl a
Ã ł
Ġb illen
Ġst rijk
og ie
ĠG irl
ing ton
Ġlab or
ĠgeÃ¯nteg reerd
Ġon g
ĠÐ ¿
Ġgeleid elijk
ĠBe heer
ĠVoor dat
Ġaan spraak
o ung
Ġsche ids
ĠSE O
Ġges erveerd
Ġtradit ioneel
Ġtra ck
Ġpro g
Ġ6 2
Ġuitge groeid
Ġmak elaar
hier na
on ische
Ġopening stijden
const ructie
aan vraag
Ġv ielen
Ġattra cties
ĠT sjech
ĠDe f
ul aire
pers onen
Ġhand matig
int jes
ie st
Sp ec
ĠG aat
Ġgl oed
co Ã¶rdin
ĠMeis jes
ar ist
Ġw iens
Ġterugk eer
ib el
ett o
ĠUnivers ity
ĠgeÃ¯nteg reerde
ee ps
rij ders
ĠSp elen
ĠK ant
Ġp ick
Ġdie zelfde
Ġtum blr
ge zel
ĠIn nov
ĠGem e
Ġb rein
Ġbev indingen
oploss ing
Ġbeg ro
Ġbez icht
Ġaf geleid
gebouw en
Ġarbeidson geschikt
Ġglas vezel
it st
Ġvak anties
H oi
ĠV R
Ġben oem
il a
Ġarch itecten
Ġrep resent
Ġbevoegd heid
Ġ16 0
ĠBelang rijk
ĠSt eeds
ĠDis ney
Ġuit gev
ĠM ak
iq uid
Ġprim aire
Ġac cent
c ast
Ġ rouw
Ġverl icht
v eer
ĠRoy al
ri el
ĠArab ische
Ġge act
P r
Ġet h
Uiter aard
h h
Ġt of
Ġaandoen ingen
ĠJ oodse
Ġcoc ktail
v aardig
Ġbijk omende
ĠTha iland
Ġgevarie erd
ĠH arm
Ġhect are
i pen
iz ar
Ġak oest
ang s
S V
cte ur
l ist
oc us
Ġcont ainer
Ġbi oscoop
Ġdep ressie
ĠR ef
ĠF ig
Ġadv ise
ĠA ward
Ġvac cin
Ġmuzik anten
Ġs urf
ĠCh ris
Ġbe waar
Ġstels el
groe ien
ĠWh ite
Ġkn oppen
Ġul tra
Ġtoege wezen
aar se
ĠG ast
E A
ĠH outen
ecte ur
Ġlekker ste
Ġg olven
Ġbest uren
ucht en
ĠB eek
Ġver sp
Ġspectacul aire
de cor
v aren
Ġfru str
Ġvakk undig
ĠG or
ĠEgy pte
Ġconst at
ĠO K
Ġverm elde
Ġar che
l i
ĠP sych
Ġelekt ro
Ġlicht en
wer kende
ĠAr gent
kl aar
Ġhard core
f ac
Ġko ste
orm ing
Ġbesch uldig
Ġafzonder lijk
o is
Ġvi rus
D uit
ĠEn erg
Ġontde kte
Ġben zine
Ġmaand elijkse
Ġviss ers
eu ter
Ġk as
Ġdw ingen
ina ir
Ġspont aan
unn ingen
Ge w
kleur ige
is p
ĠK am
ĠF red
b v
d elijke
verkie zingen
ĠH istor
Ġvlag gen
v ogels
Ġdik te
Ġk rist
Ġsp aren
ann ers
Ġorg asme
ĠN U
ĠV W
Ġaan ger
Ġh oeren
Ġstaats secretaris
Ġ6 7
Ġverv elende
ĠF lex
ĠAf deling
Ġgar ande
Z eer
Ġmet ers
Ġbeh uizing
ĠH allo
Ġmin im
Ġnutt ige
Ġc at
Ġbericht je
Ġz innen
Ġ199 3
ĠW olf
dek te
ĠD ak
geh eten
Ġg aar
ĠB R
Ġperman ente
Ġse izoenen
os met
Ġp ion
be dekking
Ġde ken
Ġsnel weg
h ond
Ġharm onie
Ġvirtu ele
dig heid
giÃ« ne
Ġgericht e
Ġgehe ime
Ġmensen rechten
ill on
ĠP ass
Ġadvise urs
Ġsp rong
Ġhoe ken
Ġer e
ĠAr m
p oint
Ġvaat wasser
ang o
Ġp u
Ġsl oop
Ġzo geheten
opdracht en
nem enten
Ġhoofd rol
Ġkwets baar
ett i
elicit eerd
v ille
ĠM ore
b ureaus
Ġbelang hebbende
Ġseks ueel
ste den
Ġuitste k
lijk s
vol g
par ken
Ġle k
Ġdicht st
fol io
ose ks
ĠC it
Ġlast ige
B et
aa dt
Ġstude erde
Ġsch eelt
Ġaan d
Ġverk leed
ĠG ouden
Ġkracht ens
ĠJ ud
ĠG B
Ġmens heid
ĠL ot
t aal
Ġverde digen
ĠJ ust
Ġtoe val
Ġgroep je
ĠZ il
ĠEer der
ation eel
in chem
Ġ6 8
m uur
ĠÂ °
b innen
Ġverd iepen
ĠL em
ĠF act
ĠLeu ke
ag on
bin den
E F
Ġben utten
Ġzevent ig
D ag
ĠS M
Ġhand icap
Ġafd elingen
ĠOnt moet
ĠK op
ĠMus ic
Le uk
Ġver een
d recht
Ġbij werkingen
oe deren
Ġmoo is
Ġuitdagen de
et ch
al te
ijk e
Ġsil ic
ĠVer l
ĠRT L
ter mijn
ĠM ail
Ġd ode
Ġg unstige
Ġgraf ische
vest iging
.' '
Ġverhuur der
Ġz ijden
G isteren
Ġpar cours
ff ic
ĠGe orge
z orgen
âĢ¦ ..
ĠC ult
ĠR ay
Ġcal orie
ĠCont in
Ġreage erde
Ġer om
geb oren
ĠHoge school
Ġs in
ĠGew eld
Ġpar fum
Ġont l
Ġfiets ers
gen ees
Alle en
bal k
Ġkru id
Ġged oe
AN T
E X
Ġk ra
Ġrob ot
verh uur
Ġarg umenten
Ġmeng sel
onom ie
Ġs and
Ġble ken
Ġwor st
ĠP RO
ĠF ood
ver andering
D en
als nog
ĠHier na
Ġ; )
ect ies
sch ad
Ġongewen ste
S n
e inde
Ġsoort gelijke
O K
Ġc ross
ĠAz iÃ«
d ings
ĠS at
Ġle euw
ĠI D
Ġbloed druk
Ġrit me
ĠAt l
op le
Ġen gel
Ġl am
Ġover k
Ġbij en
ĠS D
er ver
Ġloop tijd
ĠF eyenoord
ĠAc adem
Ġav onden
Ġgro t
ĠB ak
Ġne uk
Ġbe ur
ĠAf gelopen
ĠN A
Ġl ikken
Ġdrank jes
Ġin gen
Ġhoof dt
Ġvoorbij e
akk ers
ĠU V
Ġovertu iging
Ġgene zen
ĠS pe
verd eling
z itten
pat roon
it z
Ġb ussen
Ġbouw t
ĠG old
ĠT ri
Ġd achten
Ġbev oegde
voet bal
boer derij
T P
ocht ers
Ġoorlog s
Ġschad elijke
pl oeg
h au
ĠV o
um p
Ġh Ã©t
Z aterdag
Ġhap je
Ã º
Gel ukkig
ot ten
Ġher haald
Ġuitdruk king
Ġv ibr
Ġl ui
Ġterug vinden
N B
Ġaan nemen
Ġfact uren
ĠSt ore
ĠF eder
Ġpro tocol
Ġac adem
Ġb ik
Ġvraag stukken
un der
Ġz wij
Ġfilt ers
Ġh appy
Ġbed rukken
Ġtevreden heid
m ix
ol ens
Ġop berg
ĠP ur
D es
ĠK osten
ĠJul lie
ĠIn c
iden ten
ĠItal iaans
Ġnet to
Ġhip pe
Ġd own
Ġ9 00
Ġrele ase
Ġl ad
Ġd uim
Ġv oegt
Ġprov ider
v ankelijk
ĠM iss
Ġstad ion
aan sluiting
h ot
ĠW and
J oh
j en
Ġbegins el
P M
Ġru il
it as
V raag
Ġspeel den
waar schijnlijk
al istische
Ġdie sel
ĠT aal
kru id
Ġap otheek
zijd ig
klim aat
% ,
ru b
Ġb rachten
ĠG ran
aap kamer
op bouw
eem t
Ġd ildo
hou ten
w oud
ĠB ul
Ġbl z
Ġdraa ide
Ð ²
B ook
ĠRab obank
ĠL id
itt le
Ġzacht jes
rust ing
v ige
ĠM omenteel
Ġbuiten gewoon
ĠP rive
ĠSy riÃ«
Ġ \
Ġv ult
ĠB reng
rij ving
ĠB out
Ġcon figur
Ġ6 3
Ġha ve
Ġrug zak
Ġsan itair
Ġm oorden
Ġvoor geschreven
Ġhard lopen
ers on
j ourn
ĠB ere
Ġaan g
Ġl ingerie
Ġarmb and
n t
pro bleem
sl uis
ĠZ ondag
Ġcor rig
ĠHaag se
Ġon zin
Ġpar as
Ġbenad rukt
oe ven
Ġaccommod aties
m ode
ele g
Ġbijge werkt
. ).
Ġbrood jes
Ġstad ium
Ġarbe iders
Ġbe bouw
Ġwerk groep
Ġverantwoord ing
v ier
Ġecht genoot
zen der
ĠWeb cam
Ġperman ent
,- .
ĠH eu
Ġst ier
Ġver plaatst
ĠSp aans
Ġachter tuin
Ġmass aal
ged aan
ĠM ast
Ġmail tje
Ġsp raak
ĠM A
Ġvoornaam ste
Ġop geleid
Ġro mmel
Ġd am
Ġom laag
blauw e
Ġmeth oden
Ġvert onen
Ġcor ru
ell ig
Ġl aw
Ġd vd
Ġaf gev
Ġaange duid
ĠThe o
ĠS ab
ow een
re ed
Ġin voer
Ġwe in
der ijen
Ġbeste mmingen
b orden
Ġeven wel
ĠBe at
Ġbe stelde
Ġzon s
Ġj uw
Ġe volutie
Ġinstru ctie
Ġc op
Ġverander de
Ġmon ster
Ġe g
Ġsuggest ies
Ġsat ell
z uin
zicht en
ĠTha ise
ap pe
ax i
ĠSt reet
Ġver slagen
ĠMee ster
iet ers
ff ect
co in
ĠV ijf
Ġkeur merk
Ġtranspar ante
Ġc orpor
Ġor kest
Ġre putatie
Ġonmis baar
ĠB y
ĠBrazil iÃ«
n oten
Ġhal verwege
ĠKl aas
S O
b ranche
ings middelen
Ġklim men
ĠCont role
ĠLuxem burg
Ġprincip es
Ġaan kl
ĠVoor zien
ĠH uur
Ġren nen
Ġhoever re
ĠSt ation
or i
Ġonver wachte
ĠL inke
m eel
ing ers
Ġge pass
Ġbel t
ĠRest aurant
ik ant
rest aurant
geb leven
P A
ĠV illa
Ġl iber
ĠVer geet
Ġoog st
Ġwol ken
ed ie
onder houd
ĠRe ken
Ġco alitie
Ġkoning in
c ade
Ġjar ig
Ġs qu
Ġproble matiek
Ġknuff el
ute ur
20 11
Ġv rie
Ġdra ma
Ġstr aal
ĠVer h
ĠD ol
Ġafle ver
Ġu i
zijn de
off er
ĠM i
Ġair conditioning
Ġuitvoer ingen
Ġom liggende
ĠPol itie
W ant
an i
Ġp aroch
Ġe vang
ĠS oort
Ġdru iven
Ġtand arts
Ġd ir
b uis
l ust
Ġsch ud
ĠS ervices
ĠefficiÃ«n ter
Ġcommerc ieel
Ġon zicht
Ġs okken
Ġaccount ant
Ġverkie zing
Ġsmartph ones
ely stad
Ġambten aar
Ġeind igen
k inderen
Ġtechnologie Ã«n
ĠA ar
Ġtoe slag
v oud
Ġro zen
ĠEle ct
Ġkwets bare
ie me
Ġt akken
Ġfaill issement
ĠG ay
ĠAc count
Ġverd elen
draa ien
or gel
if un
S e
fun ction
ĠT re
Ġogen blik
Ġzo ol
fil ter
Ġbl okken
ĠAlle maal
W erk
h anden
Ġgods dienst
I ER
ĠZ aterdag
w o
ĠPart ij
ĠEm men
sper iode
c ia
å ¤
l or
Ġtit els
Ġreg ister
ĠF ire
Ġhet en
ij ten
Ġcombin aties
id as
Ġpan iek
Ġme ga
Z oek
Ġres ort
en ergie
Ġe d
ĠFrie se
Ġop gemaakt
Ġaf meting
ic es
ĠEven tu
bl okken
Ġsche iden
Ġgr an
Ġn ederl
Ġvracht wagen
Ġwaarde vol
it ut
Ġbel oning
Ġdru pp
Ġbre der
t rekken
X L
Ġve cht
ĠN ap
Ġm ill
Ġziek ten
f ondsen
Ġt ur
ĠN ike
S ommige
oppervlak te
Ġuit ziet
plaat ste
ĠM B
Ġsch roef
Ġw all
ĠW ik
Ġbijpassen de
Ġv zw
Kl ik
Ġverminder d
z ag
Ġtegenst anders
ĠKoop handel
p raktijk
Ġgen omin
tu Ã¯
Ġaard appel
Ġga ve
ore a
ĠDen emarken
Ġge kend
Ġtrein en
Ġro os
gez ellen
Ġj ack
Ġpro st
Ġwinkel centrum
Ġverzeker aars
te min
ĠKar el
C A
ï ¼
Ġamb ities
ĠT oon
U D
sp rijs
Ġprodu cent
Ġv oeden
amp ie
doc ument
Ter wijl
Ġopge daan
Ġk etel
Ġmagaz ijn
Ġkwalit atieve
ĠV orig
Ġmedic ijn
amen s
Ġhap jes
n g
Ġhart elijk
Ġs essies
ha ha
a is
sp ellen
Ġwinn aars
Ġkok os
Ġhe chten
Ġregel t
Ġfamil ieleden
ij dt
ver werking
Ġin vloeden
ĠC ool
ĠIN G
Ġvoordel ige
ĠM KB
Ġpersoon s
Ġvoort gang
Ġvertegenwoord igers
ĠAd voc
kop e
Ġnak om
Ġinterview s
Ġone ind
Ġbele ggen
Ġmot to
Ġs aai
ĠC y
Ġt ape
cl aim
Ġdur ft
Ġsche ppen
Ġuni form
se mb
Ġet ik
akk et
Ġvast leggen
Ġf rag
Ġbel ooft
ie urs
htt p
Ġgest oken
Ġas best
Ġweder partij
Ġbesch ouwen
ĠMod el
Ġopge pakt
Ġk alm
orte ur
Ġverlen gd
Ġwijs heid
Boven dien
S A
Ġaanbev elingen
ĠIsra el
Ġbew uste
ĠC ard
ĠJ u
Ġbeheer der
ig ratie
l ink
bru in
ĠC ub
Ġavont uren
Ġaan nem
ĠEn kel
Ġbest reden
ch ec
Ġwint ersport
K en
od ium
u un
ĠC our
Ġf ok
B rit
Ġcult ureel
Ġgeaccept eerd
s ituatie
Ġbe weegt
Ġgarande ert
Ġbese ffen
Ġb itter
ĠVrij e
ĠN acht
Ġwand elingen
Ġkn open
Ġtru i
ĠAd vert
Ġfor s
Ġke y
Ġmagnet ron
N oord
erv akantie
Ġver val
Ġvak ant
Ġonderte kend
Ġged ing
w oordt
ĠÃ ¡
le eft
Sc ript
M in
ar ings
Ġilleg ale
ĠC osta
ĠV oed
Ġaange meld
Ġkl inken
H C
ĠJan sen
lev ard
T B
st oe
we sten
ĠN ik
ĠAmerik anen
station s
H z
som standigheden
autom atis
ain ers
Ġmeth od
Ġf et
ic aal
it jes
achel or
waard igheid
Ġaf vallen
m s
Ġpr inten
ĠSoc iaal
ĠSpec ial
Â «
ĠMex ico
Ġle zingen
Ġdieren arts
k i
Ġlever tijd
Ġverbeter de
Ġcre atie
val idatie
ĠGe zien
Ġpartic ulier
ĠNoor wegen
raa i
ĠTien er
Ġsymb olen
ipl oma
wit ch
Ġveelzijd ige
Ġafge wezen
Ġwil l
In d
mede werkers
ĠL ig
Ġgel ukk
Ġmar athon
O pen
Ġpot entieel
Ġdre igt
Ġh ak
Ġg ister
oss iers
Ġsc ript
Ġp or
ĠR A
Ġfl ip
ĠB ill
Ġcart oon
Ġonzeker heid
l ood
a ult
Ġprim air
Ġc ogn
Ġvak gebied
k ring
ĠN ico
Ġgesch enk
Ġb il
ĠW oord
ac o
aal den
fun cties
ĠC are
Ġtoen malige
ĠI ran
ifest yle
j er
Ġuit zoeken
inter est
Ġan oniem
Ġw c
Ġzwak ke
Ġvast gestelde
ris e
ĠCons ult
Ġvrijwill iger
Ġb oten
Ġex pos
Ġgez onder
Ġhand h
Ġtop ic
j ong
Ġvoorlop ige
Ġwort els
Ġel lende
Ġlied je
Ġsens or
Ġstim ul
Ġop dat
ĠM as
ĠC ommunicatie
Ġs elf
ĠBr oek
Ġhuis dier
gel icht
Ġsinds dien
ĠÃ ¼
h oren
Ġt ante
m il
Ġge groeid
ĠpoÃ« zie
oll ige
Ġ15 00
Ġverbet ert
ie us
ĠV os
Ġdomeinn aam
Ġvis ite
ĠW W
Ġsol id
Ġconclus ies
feest je
is co
Ġvis uele
Ġlas er
Ġverstel bare
ĠRotterdam se
ĠVer ordening
ry l
Ġob st
Ġt raag
ĠW ee
ĠSch e
ĠNic ol
E Ã©n
Ġinge deeld
re de
Ġge ar
o Ã¯
ĠGoud a
Ġpass eren
Ġhuis artsen
Ġop stand
eter ing
Am sterdam
ĠB it
Ġop zoeken
Ġdakk apel
Ġverbl ijft
Ġbe denkt
4 00
ĠBedrijf s
Ġafge geven
Ġc ass
Ġop stelling
Ġmas ker
Ġop names
ĠN ick
Ġverv oeren
f onie
we gende
Ġpuz zel
Ġverst rekte
f eren
ff end
ĠE EN
verzeker ingen
Ġportemon nee
sal on
Ġveert ien
Ġhart je
Ġfeest elijke
Ġen tertainment
Ġbegrip pen
ĠB O
... )
ĠBed rijven
Ġman ifest
Ġgro f
rel atie
Ġchec ken
Ġre Ã«
Ġover vloed
C o
aar n
Ġaange schaft
Ġhet zij
Ġp rij
Ġtrans actie
Ġnatuur gebied
Ġel ftal
Ġwor tel
ĠWord Press
dig ing
etail s
ĠV ele
ĠH ulp
wijl s
Ġverf ijn
Ġluid t
gev oegd
Ġgere kend
Ġon voor
ĠWil ders
inf o
Ġv aand
Ġvoor keuren
Ġj u
z and
Ġin lichtingen
pass ing
Ġs ap
Ġverbaas d
ot herapie
Ġorg an
Ġ( =
Ġlood g
ell y
In middels
ĠD C
ĠK o
Ġr oep
Ġobs erv
Ġop gest
gesp rekken
Ġtal rijke
U P
Ġmij l
Ġvernieuw d
h ip
mer ce
l op
H P
ann ab
ĠWe sten
Ġdek bed
if orn
æ ľ
n ik
AR T
ĠSt ra
Ġinhoud elijke
ĠR icht
ĠRe ad
Ġm id
ĠAlex ander
b und
z uren
Ġom ring
Ġherk omst
Ġmilit airen
Ġ199 1
Ġplan ken
ĠC ommun
at iete
Ġsle e
Ġbeginnen de
Ġvor st
G O
Ġzen der
Ġd aken
Ġke izer
Ġleeftijd s
iz z
Ġbij houden
Ġre alistisch
Ġde v
An t
Ġmond eling
Ġonder t
Ġafst anden
Ġregel maat
ĠZw em
Ġsign ific
Ġaanmeld ing
ste de
Ġdistrib utie
rib utie
å ½©
Ġingewikk eld
t elefoon
Ġk oe
Ġchristen en
Ġgeest elijk
app ellant
Ġ6 1
Ġstro men
n oot
Ġberg ing
Ġwaterd icht
ĠCont rol
Ġcolle cties
Ġgerenov eerd
= =
ĠPat rick
Ġzo doende
ar l
ne de
Ġpl oegen
Ġf ondsen
ĠM em
Ġhiel den
Ġd od
Ġm ind
ik es
p aar
ĠGed urende
untain b
raaf plaats
ĠSt ads
Ġol if
ro me
Ġgrapp ige
Ġzorg verzekering
reek baar
ĠZ oekt
Ġpijn lijk
club s
off ie
Ġgek ke
wol de
Ġbestemming splan
in clusief
Ġn aald
ĠE dit
ĠD ire
le uk
iz a
Ġwoest ijn
Ġst ak
Ġleider schap
or pen
z uig
ĠV oer
hand eld
ĠT ab
Ġvrijblijven de
Ġch irurg
Ġped agog
v ond
kw amen
Ġwerk gelegenheid
' t
Ġd op
Ġaan du
Ġst om
Ġsubsid ies
Ġon rust
Ġre volutie
ctie ve
Ġsec und
Ġar me
ur ken
Ġresp ons
Ġvl oei
tek st
Ġval se
Ġpark et
Ġw ijd
Ġconsequ enties
ĠZ oon
Ġst orten
Ġsl ang
Ġun d
Ġhyp othe
Ġf ort
ic ipatie
gemeen te
» ¿
ĠVer schillende
Ġp ool
at i
Ġbek ijkt
ĠMar co
M an
cht e
AT IS
d room
Ġ( +
Ġvle kken
om et
Ġf olie
Ġgig antische
mee sters
stell ings
Ġmicro foon
k ol
Ġbez etting
Ġgeb reken
ĠPaul us
ijn tje
gel o
Ġmon umenten
Ġ198 0
s a
20 10
ĠR ood
ib le
in ck
ĠT al
Ġcruc iaal
l at
Ġmeld ingen
az er
Ġl aste
Ġvl oeistof
lopen d
b ag
f i
ran sport
Ġpol s
ĠI mp
Ġge ken
Ġnad ien
Ġo v
Ġaange pakt
j i
Ġgar n
ĠPer fect
ĠAl phen
Ġvergader ingen
Ġachter stand
Ġcommun ity
ĠE de
c afÃ©
Ġbeginn ers
ĠL iefde
Ġlog istieke
el ine
ĠE K
ĠI sland
r ia
og an
Ġgev order
Ġvoor st
Ġverd acht
ĠC afÃ©
Ġachter gronden
Ġarbeids overeenkomst
Ġachter halen
in te
b ur
Ġmod ules
Ġcult uren
ĠLin ux
Ġal t
ĠR onde
an aal
Ġcompet enties
Ġbel eef
Ġveil ing
Ġz ond
k ust
er a
Ġeind resultaat
h ouw
ĠI erland
Ġover leggen
ent uin
b roe
Ġvar iÃ«
fot ografie
Ġpri oriteit
Ġd roeg
Ġbegele ider
w onden
Ġsnel ste
ĠH ET
re y
Ġgehand icap
Ġvast houden
Ġtran en
Ġg ood
Ġsne akers
Ġst reeft
Ġfac ilit
Ġbezoek je
Ġret ourn
ĠH eem
ĠB erk
Ġzom ervakantie
m ap
ĠRe is
prob eren
Ġin leiding
Ġgen oegen
won er
vl iet
schuw d
f ord
Ġaf nemen
Ġk ee
ĠD oet
ĠP ast
af ari
iss ingen
Ġverhoog t
ĠRecht s
Ġsfeer vol
ĠKom t
sp annen
g st
M P
Ġparag raaf
id sen
Ġaller eerste
Ġver ou
ĠM ond
Ġg if
ĠB eer
Ġsp elletje
ĠZwee dse
Ġw ier
h oes
v ari
ob al
Ġspiritu ele
Ġd ranken
and in
Ġbek w
bij zijnde
Ġlij m
Ġzanger es
Ġhaal baar
tu re
uim te
Ġstil le
Ġkijk er
v ie
Ġmed itatie
Ġr itu
Ġleiding gevende
oo ide
bij stand
ert ogen
Ġonder wij
ĠSt ud
k etel
ĠK ol
Ġgl uten
ĠHoofd stuk
amp oo
c ell
Ġv agina
Ġopper vl
Ġaf sluiting
ook te
Ġsport ief
Ġvoor hand
Ġverw onder
K ies
aan tal
Ġret ro
ĠAnt werp
ĠPro gramma
Ġ> >
Ġdichter bij
Nieuw e
am i
ĠVen lo
s j
Ġweer somstandigheden
Ġspons or
Ġpopul ariteit
Ġvoorbere idingen
Ġtijd perk
Ġdoor gegeven
ĠPS V
Daar na
ĠWh ats
ĠA h
ĠVrij dag
Ieder e
L I
ĠV roeger
Ġverw achte
Ġbehand elt
wor ding
elat eerd
Ġhoe sje
ĠR utte
Ġin tuÃ¯
ĠS lechts
Ġin schakelen
ĠA R
st ick
ĠK orte
ĠH ug
w inn
Ġz int
Ġr anden
k g
ach e
Ġur ine
Ġbet rek
Ġmor gens
he f
Ġkoolhydr aten
Ġpl as
Ġhuur ders
Ġover schrij
Ġh eld
ur al
Ġverdu bb
ĠP or
gen ote
ra in
Ġf f
ĠCon st
Ġverkl aringen
b rieven
Ġaange merkt
Ġaard ige
ĠK ind
Ġuitzonder lijke
Ġsco oter
Ġb ut
Ġfunction eel
el se
ĠPort uge
Ġs ales
Ã³ n
Ġte en
n achten
Ġin teg
ĠS ub
ĠHele maal
Ġverm oord
ĠRe publiek
Ġhuur auto
Ġaan st
Ġkunst werken
Ġover gedragen
Ġt aille
C C
Ġp ogingen
Ġboek et
Ġgel anceerd
ĠR is
Ġoverw ogen
h ij
breed te
ĠB il
Ġzo genoemde
Ġsch roeven
Ġverl of
Ġ !!
Ġonder hav
Ġc atering
Ġdeel nemende
ĠNederl anden
Ġze iden
Ġtrop ische
Gr atis
Ġst oornis
Ġbl ote
Ġp ru
ĠWel kom
ĠP VC
Ġbuur man
Ġtoe schouw
h ut
ĠH it
ĠGe gevens
OR T
al et
st ichting
Ġgewaar schuwd
Ġl ove
Ġaandeel houders
Ġbe dekt
uz alem
Ġrijk dom
---- ----
Ġtoonaan gevende
sche pen
Ġleven dige
Ġpe ch
Ġd ochters
z al
Ġm ut
D AM
Ġman agers
Ġonrecht e
Ġweer geven
ific eerde
ĠIsl am
Ġlich amelijk
Ġf usie
Ġvoor stellingen
oel ing
+ +
resent atie
Ġvrij staande
Ġcir cul
Ġdoel tre
Ġnadruk kelijk
Ġ !!!
ĠK ok
ĠIndones iÃ«
Ġ8 8
opt im
Ġaf geleverd
ĠWagen ingen
d oos
Ġver rijk
Ġ19 45
Ġin loop
ĠK oen
reven tie
D on
Ġtap ijt
Ġvoor werp
dien de
Ġmee sten
Ġstap t
Ġrestaur atie
wiss eld
Ġgeren omm
ĠEconom ische
ide e
Ġexplic iet
Ġon bet
s u
at iel
Ġgr ill
Ġvakman schap
ĠSurin aamse
beeld ingen
Ġop geb
ĠCon ne
Ġbeheer sen
Ġverscheiden heid
m elk
Ã³ g
Ġanim atie
andin av
Ġz weet
Ġd uit
ĠTegelijk ertijd
ĠL oop
Ġbesluit vorming
it je
wee kend
Ġge pleegd
Ġsyn th
ats oen
f alt
Ġap othe
ogh urt
ĠInternation ale
per to
Ġlog istiek
ĠP VV
ra ph
Ġr iool
g or
ol o
ĠOpen baar
Ġtijd schriften
Ġvakantie woning
b urger
Ġglad de
Ġge automatis
6 00
Ġkamp eer
Ġon nodig
st ermijn
Ġinkomen s
E ind
ang ere
Ġzwaar der
ĠE s
Ġv eter
Ġover komen
eer ing
Ġveel vuldig
ĠDan iel
Ġzoek machine
sch ermen
gem ak
Ġneer slag
r aten
Ġz ieke
ip per
midd eling
ĠSh ow
Ġp est
D oe
Ġbel ofte
lijk heid
EN S
Ġont le
g aarden
ĠD omin
erk e
ĠVer zeker
ĠC op
Ġne iging
bet alen
Ġpar adijs
schrij ver
ĠAc ademie
Ġhant eert
ĠH ond
II I
ĠBelg ie
ĠOrganis atie
on i
t afel
Ġbehoren de
be zorg
Ġbe weeg
meth oden
form aat
Ġgeken merkt
er em
Ġterug komen
J ij
Ġvorm gegeven
ĠI rak
opt ie
Ġgekleur d
Ġstab iele
Ġverlen gen
Ġm n
Ġre port
Ġstr ikt
proces sen
ĠH A
Ġher halen
ĠM P
Ġ198 9
Ġb ok
bestaan den
Ġbedrijfs voering
Ġbez et
co se
ĠB oom
ĠB ir
Ġm eel
Ġsch immel
Ġbestel t
Ġp oppen
Ġbet ekend
ĠVoet bal
we bsite
ĠCh risten
ic on
ĠSterk er
Ġz adel
ĠG raaf
Ġvermoeid heid
zitt ing
ĠW ed
Ġgem akkelijke
ĠPr im
y ling
ession als
ĠJava Script
Ġken mer
Ġdement ie
ĠC oc
Ġkle ink
Ġon de
G E
oet st
t ijden
un en
Ġsleut els
Ġgemeen schappelijk
Ġsupport ers
Ġverb leven
Ġsal on
Ġkeuken s
Ġbekend gemaakt
Ġinterpret atie
agen t
Ġinf ectie
sp an
av onden
ĠZ Z
Ġinlog gen
Ġrapport age
Ġaf nemer
ar ije
Ġbevestig t
if ieke
Ġont bij
g aard
Ġro ul
Ġkennis making
ell ante
Ġverk racht
op name
Ġf ashion
oeg ang
ĠVer wij
ss els
Ġge sm
g ische
ĠD ro
ĠR ub
Ġg aren
Ġgew ond
iden d
ĠC ath
ĠM id
ov a
Ġverzam el
Ġle ed
s ign
Ġp aden
Ġr ingen
Ġverv oers
Ġklaar komen
ab els
Ġb uizen
ĠOlymp ische
Ġver gt
perto ire
zu iger
it sen
ie erde
Ġr iem
Ġwaarschuw ing
Ġru zie
v r
op leidingen
ing o
ist entie
ĠVin cent
ps ych
Ġhand haven
Ġuitst oot
erm is
is atie
Ġvoedings stoffen
Ġpresent aties
ĠOver ige
Ġh op
v uur
Ġconst ante
leut el
slachtoff er
ĠF ra
Ġverkl aarde
Ġon n
B uiten
Ġgevol ge
enn y
ĠM O
ek st
Ġafwe zigheid
Ġst ruik
Ġconfl icten
Ġvaand el
Ġplek ke
Ġl ay
Ġgedrag s
bele ving
ĠMar ie
Ġs ervic
h off
Ġint ake
b uurt
Ġpar all
Ġbeleg gers
Ġgem oed
Ġgrond gebied
ĠRes ult
Ġzorgverzeker aar
Ġ7 8
r ijn
Ġ7 7
ĠP L
Ġhorloge s
Ġtechn ologische
he ven
Ġbl aas
Ġe s
install aties
U nie
ĠG RO
sch uim
Ġjourn alisten
an z
ĠbeÃ«ind igen
Ġf arm
ar ning
ite in
on ingen
Ġtoetsen bord
Ġlief hebber
ĠF ijn
sbe diening
Ġge form
! ).
Ġd uister
ĠFinanc iÃ«n
Ġb izar
ĠKamp ioen
Ġland goed
ĠW acht
p ese
vis sen
Ġaanv aarden
Ġtrans acties
r etten
ĠE va
Ġess entie
Ġb idden
Ġt we
pl us
Ġzo juist
pl y
Ġge bed
Ġsl ikken
Ġra re
Ġfor se
ĠPr ima
v alt
hau pt
Ġsle chter
Ġw ond
Ġk ad
ĠM is
Ġgener eren
Ġverwezen lijk
Ġ( âĢĺ
Ġvoorl ichting
H a
se arch
El k
Ġr iet
Ġp iste
Ġle kkers
ĠAnal ytics
ĠV iet
ĠB org
ĠJ aap
he il
Ġover nemen
æ Ģ
Ġonder zoekt
Ġverantwoord elijke
Ġvrijdag avond
Ġverdiep ingen
Ġz aden
W A
Ġbru to
ent al
ĠHoo ge
w anden
Ġac teur
Ġmel od
Ġoff line
ĠJ ap
Ġor den
Ġst oring
Ġant ib
Ġuit wiss
Ġverl aat
Ġhand eling
Ġvres elijk
Ġten einde
Ġper formance
Ġsl et
Ġwet houders
Ġstation s
Ġill ust
v aardigheden
Ġweer s
Ġagen ten
in eerd
ĠK u
ĠK al
Ġv ies
Cont act
Ġb org
l eren
ĠHot els
ro b
V erg
rein iging
vent ies
d oms
gev aar
Ġjas je
Ġp a
Ġhulp middel
idd eld
Ġsuper markten
ĠPr in
ĠV ideos
ĠC ab
Ġfinanc ier
Ġbuff et
ĠCent rale
art h
Ġuit n
Ġeven min
get s
pp ing
Ġuit proberen
ĠB rouw
ter ing
ij ver
Ġse ctie
ĠT ips
Ġtrans form
art a
w an
ĠenquÃª te
Ġzom erse
Ġop positie
Ġ iv
ge ert
Ġip v
cept ie
kaart jes
Ġbor stel
Ġcomp at
Ġoffic ier
Ġbe auty
ĠF ord
Ġint im
ĠPhil ip
Ġ3 000
ap per
V E
Ġd rukt
Ġp k
Ġaan komt
Ġe go
Ġcont roles
Ġleven d
Ġgr iff
Ġkoek jes
Ġhoofd pijn
Ġuniversiteit en
Ġd oop
Ġob jectief
Ġongeloof lijk
ĠL ee
Ġnat ure
Ġb ub
Ġin begrip
Ġvrijwill ig
d irecteur
an ia
Ġzeld zame
onden s
ch ron
ch in
Ġdik wijls
at her
ĠK er
Ġvert rok
ie v
Ġop gelopen
Ġgepl ande
ĠF iets
Ġk aars
Ġkussen s
Ġtra iler
Ġbevoegd heden
Ġuit komsten
ĠWet boek
Ġle gend
Ġeen malig
vol and
Ġme g
Ġvoet b
ĠRel atie
Ġbl ader
Ġveil iger
Ġcomp os
c ommunicatie
Ġle id
Ġlang zamer
um er
ĠP le
Ġken merk
Ġstop contact
ĠB eter
Ġste unt
ht ml
ĠHass elt
ber haupt
Ġp anden
Ġlen ingen
Ġcitro en
onom ische
ab s
pakk etten
Ġvl ug
m oord
uss ers
Ġpopulair ste
ha us
Ġverant woorde
velop ment
Ġlevens stijl
k eer
Ġautom ob
Ġprom oten
V ind
ec ut
sp oor
ost al
Ġp osten
Ġbl anke
Ġsk i
Ġto il
Ġment ale
ed itie
Ġp ian
ĠL inks
Ġ7 6
Ġgra ven
& #
Ġpartic ipatie
Ġt immer
Ġvertegenwoord iger
ĠBuiten landse
Ġzal m
et st
ĠB uurt
m ont
o urs
ĠSu cces
ĠVen et
ĠSpec iaal
Ġpe uters
AS S
ĠW inkel
Ġg raaf
verb od
Ġont slagen
Ġv ette
2 000
Ġk atholieke
Ġp ict
Ġt offe
Ġpartic ip
Ġrobu uste
Ġrest erende
ut h
Ġgetra ind
ĠA th
ur ige
Ġaange maakt
Ġd rempel
Ġtyp es
Ġac teurs
f olie
Ġt roepen
ĠWil d
de d
Ġbegele idt
ver gelijk
ĠRon ald
Ġd uinen
ĠVoor beelden
ĠIn clusief
k ind
Ġmult i
Ġverminder t
F rank
Ġin gaan
Ġknap pe
Ġn omin
ĠB ud
sp onden
de erd
Ġint entie
spir atie
) ?
Ġinhoud elijk
Ġontsn appen
Ġser veren
L a
Ġge uren
Ġaan tre
Ġrepar aties
Ġb oeiende
Ġp iek
Ġsh ows
b ach
Ġsal do
if y
ir st
Ġvol st
Ġkl ussen
Ġkortings code
Ġaro ma
20 19
ĠZ onne
Ġim ago
Ġ ....
ĠBl oem
Ġple it
ĠM ens
H A
g repen
Ġged roog
z aad
be schrijving
ĠS ens
Ġregel ingen
Ġherken t
ĠZod at
Ðµ Ð½
Ġbev elen
Ġgen re
Ġbet ekende
Ġexploit atie
uist erd
c ed
Ġver plaats
ĠChar les
Ġdiscuss ies
F oto
Ġt unnel
Ġerot isch
en ken
Ġrein iging
ĠAmer ican
Ġc ust
amb ten
ruimte s
Ġheu vels
aar dt
Ġdi ct
Ġtabl ets
Ġa ug
Wel ke
z ucht
Ġzeven de
ĠV e
Â Ĵ
Ġd ron
Ġe ett
Ġc ake
ings recht
I ON
ĠArbe ids
Ġ7 3
Ġband s
Ġgez ichten
belang rijk
l oper
ung le
Ġp ie
Ġmod der
Ġbehoor lijke
av ia
, âĢ¦
gener aal
Ġaanb iedt
ĠV ill
ĠT ieten
a ust
Ġged raaid
gelegen heden
Ġover hem
besp aring
Ġprovinc iale
ING EN
Ġbevol kings
ip edia
Ġme ent
Ġgesch illen
Ġzet el
Ġwil s
Ġonder worpen
d In
Ġbel oofd
Ġonafhank elijkheid
ĠW int
Ġsub st
Ġonderhav ige
Ġb rak
ate au
ĠHel mond
Ġben oemen
au te
reg istratie
Ġcon ferentie
ro o
Ġover heen
Ġvroe gen
f eesten
Ġbe werk
gewen st
ĠI b
h aalde
t arief
Ġhuis dieren
ĠZoet ermeer
f ield
ĠL elystad
t ann
Ġporn oster
s huis
Ġ7 4
ĠMad rid
Ġd ri
uil d
Ġde ugd
Ġdynam isch
Ġf ram
as on
Ġwis kunde
d ay
Ġon op
ĠG T
ĠD ikke
ra de
Ġmat ig
Ġsamen vatting
Ġve zels
Ġk ampen
Ġweb pagina
ĠB oeken
ĠBl oemen
ĠT ip
ĠC P
kelijk se
Ñ ĩ
Ġmak ers
ĠCan on
Ġdie gene
Ġd rijf
Ġ9 8
ph one
ell i
ĠEen maal
Ġaannem elijk
Ġt inten
cl ar
Ġzoek resultaten
he ugen
Ġtre f
Ġanders om
Ġonder liggende
opp ing
Ġh aag
Ġge sc
Ġslaa pt
ĠF air
Ġvliegt uigen
Ġk assa
in houd
ĠVol gende
Ġver beelding
onder steuning
Ġbe sm
Ġmag ische
rij der
Ġc ool
Ġbezit ten
Ġverb ouwen
ĠHe alth
b ied
pl ank
Ġmon itor
Ġd aalt
p age
der ik
ĠS K
Ġ Ù
ge daag
M ob
? '
ĠH uid
actie ve
Ġuit ing
Ġcas ual
Ġne p
Ġtrans itie
Ġmin ute
Ġple eg
gar age
ĠB ack
Ġuit maakt
B L
be ke
Ġdraad loos
Ġnavig atie
sn aam
Ġch ique
Ġch ip
ĠWel zijn
ui ft
Ġop roepen
Ġf estivals
Ġpijn lijke
ĠFilm s
Ġtr anny
ie der
s elen
Ġmen ingen
Ġminder e
Ġkant on
Ġl it
Ġorg anen
Ġe mp
Ġver te
Ġgewoon te
Ġnegent ig
Ġsatell iet
hand ig
ĠH ul
ĠF eest
Ġv arie
Ġh Ã¨
Ġall erg
ĠVolks krant
Q u
Ġgord ijnen
ĠW ash
ĠN RC
ac ker
Ġn Ã³g
Ġbl oei
Ġvragen lijst
w ist
Ġfavor ieten
ĠE R
her stel
Ġsubt iele
Ġbeveil igde
Ġsj aal
l inks
Ġvoor doen
ertogen bosch
oel de
Ġn eder
iÃ« l
ra ck
ĠOff ic
ĠB ull
Ġont ro
Z od
Ġvoldoen ing
Ġp ix
unt ry
Ġinge gaan
k rij
oer den
ĠNorm aal
Ġl outer
ĠHet e
p g
p ublic
Ġ Ã³
Ġpro min
ings kosten
Ġ19 40
pens ion
d raagt
ĠÐ ²
Ġrijk s
an on
stoornis sen
olly wood
zwem bad
. (
ier de
ĠFor um
ĠGR ATIS
Ġk rab
Ġenzo voort
Ġbez waren
Ġst icht
he ad
Ġonverm ijd
Ġver anda
Ġresp onden
ink omen
ĠW adden
Ġwens elijk
is abeth
de kken
Ġm ouw
ĠClass ic
sche iden
ĠgeÃ¯n tro
t ru
Ġa u
Ã¡ t
Ġaant onen
ĠM oe
ur u
ad or
chn iek
Ġvoor ts
ĠF ant
Ġerv aar
op ol
ig go
uim d
Ġuit verkocht
y an
one y
O osten
ĠHel der
Ġpar ken
Ġliefde s
ĠVal ent
Ġeffect iviteit
sp eeld
Ġriv ieren
Ġvocht ige
Ġbond age
Ġb ud
Ġk ale
al on
Ġhiel p
d elingen
Ġaf drukken
Ġheer st
Ġkeih ard
Ġroul ette
v ogel
Ġple gen
Ġged ronken
Ġtoer isme
St el
Ġschad elijk
Ġlat ina
ver houding
ĠCl oud
Ġv acht
he ater
Ġdien de
Ġgede gen
oefen ingen
ĠI mmers
ob el
br ide
ont ste
Ġmo untainb
fl ix
wat ch
Ġkampioen schap
Ġc all
Ġkn ieÃ«n
Ġl aarzen
ion ale
R ec
Ð¾Ð ²
ste ding
Ġplek jes
Ġv ouw
ĠL G
F F
s oort
aris sen
Ġmater ie
ic y
Ġref erend
Ġverh uren
Nederland se
ĠN av
Ġna bestaanden
Ġst uit
Ġtra kt
og raph
inn er
ĠE et
Ġprest eren
Ġw a
ĠV eer
at ic
ĠN eder
Ġgrij pen
Ġverschrikk elijk
rit s
Ð¸ Ð¸
Ġact iveren
w ijken
Ġopger oepen
ach en
Ġaut isme
Ġaf name
ĠN ooit
Ġbev allen
Ġrecht hoek
Ġb ure
ĠJer uzalem
Ġter min
Ġbor rel
ĠG h
Ġste iger
Ġget allen
ĠA G
ĠS L
R L
Ġl ol
z ings
ĠN aakt
el ten
Ġsc oort
Ġwell ness
ĠVolks wagen
Ġaanzien lijke
aties ysteem
Ġnauw e
van gende
H er
ĠDat ings
Ġj uf
ĠBl og
w intig
k es
Ġillustr aties
Ġch ips
Ġo rale
b ische
ĠM aa
ĠN O
ĠM inder
ĠAndr Ã©
Ġaf gebroken
Ġverminder ing
Ġer kennen
Ġin houdt
w il
Ġemot ioneel
d raad
Ġblijven d
Ġpos ities
ĠE ss
Ġz uster
ĠCal iforn
Ġo er
s oc
ĠV isser
Ġvolt ooid
Ġverniet igd
te ams
Ġp ony
Ġverst opt
Ġgere ageerd
Ġpan or
a ub
Ġhuis vesting
vis or
ĠH appy
G oede
Ġp res
yl on
Ġjurk je
ĠÂ ´
Ġzon licht
B N
ĠN ight
Ġvoet ballen
gebruik er
os h
ĠB N
Ġemot ie
ĠE H
g reep
ob bel
ĠLe o
gerecht en
z elen
g iÃ«n
em an
Ġspeel tuin
k aan
Ġaan loop
Ġgeve stigde
Ġlicht gewicht
Ġvi ru
ĠW oning
recht s
v aten
ĠBlu etooth
Ġpost code
vl ies
ĠSm it
Ġcalorie Ã«n
Ġd aag
ĠL ies
land schap
Ġv ice
ok ia
ĠOr igin
T ussen
Ġm oer
Ġzin vol
pol der
Ġhom oseks
Ġlicht er
sk aart
ĠLen gte
Ġp oker
Ġbe kl
Ø ±
ine a
loc aties
gro ene
Ġvoorsp ellen
Ġpl icht
P ar
kl ik
Ġf elle
yc le
Ġlaag je
Ġuitzonder lijk
Ġaan gevoerd
Ġhoef de
Ġstat istieken
Ġh osting
Ġ8 2
ĠT rek
Ġgesch iedt
Ġout door
ĠK ont
Ġsch oor
beh oefte
Ġrapp orten
Ġken merkt
U UR
Ġdag licht
Ġwaarb org
Ġtranspar antie
Ġ Ñģ
Ġk rim
z p
Ġo a
Ġondersche idt
ĠW outer
Ġdik ker
sh irts
and o
ĠM BO
Ġverschuldig de
Ġf em
ĠLe den
Ã¡ n
is eerde
sp licht
dan ige
Ġsch reeuw
Ġm akkelijke
ĠCan ade
Ġgere st
Ġgehant eerd
Ġtwee maal
ig ment
Ġbru ids
Ġbedre iging
d elijk
clus ive
Ġin n
ĠG ame
Ġtwee persoons
bij eenkomst
Ġmult ifun
Ġtwijf elen
Ġl ife
Ġverrass ingen
Ġonder v
Ġaansp reek
al i
Ġversterk ing
Ġvloer verwarming
Ġspro okjes
ĠP ed
Ġvertegenwoord igen
ool s
Ġr ent
ĠS V
Ġc ash
ĠO t
part ners
Ġverander ende
Â ł
Ġz ingt
Ġkle uter
send aal
b ier
form eerde
Ġeeuw ige
Ã¯ s
ĠSc andinav
Ġeigen doms
app ers
ijd rage
qu ot
Ġhoofd zakelijk
ĠV lie
Ġland schappen
Ġc le
Ð ¼
Ġz alen
bb eren
ĠS up
ĠDi am
meld ing
J urk
oot je
Ġverpleeg kundige
Ġhel m
Ġbur n
ra ject
ras mus
Ġfundament ele
ren a
ĠD ar
ied am
Ġopl aden
ĠJ ob
ĠK open
Ġvrij stelling
Ã¯ teit
h onden
be vol
af et
ĠOnder houd
ĠN ad
ent rum
ĠAmerik aans
duizen den
Ġle der
Ġco ating
ĠS oftware
Ġpsych oloog
Ġant is
ĠV rienden
Ġ8 7
ĠAud i
Ġd j
C E
sch uld
s oorten
Ġtrans formatie
W oon
Ġop gemerkt
ĠLinke dIn
Ġmeld de
pan eel
Ġbew ind
Ġtoe pas
se weg
Ġbruik baar
ir ten
Ġzwem baden
ĠZo om
Ġorg aan
Ã ±
Ġf le
Ġnal aten
ir aten
ĠTra vel
ĠB row
mom ent
ĠR oos
ikk el
Ġstap je
ĠC ou
o erk
Ġconsum ptie
ĠJ oost
Ġuit geven
Ġhand je
reg lement
cl er
Ġru w
ĠD O
Ġ2 20
Ġg Ã©Ã©n
Ġinnov aties
St ichting
ĠJose ph
ĠgeÃ« x
sm aat
AT IE
io x
Ġbru ggen
å ı
ĠBB Q
Ġb ars
Ġgro et
ĠO tt
Ġsp amb
Ġfoc ussen
Ġunivers ele
ĠR un
Ġcolle ctief
Ġf atsoen
Ġgroot s
Ġe mb
ĠF ull
ĠDag blad
ag ged
ed el
Ġreist ijd
ij zer
V orige
Ġpar am
c orpor
ĠE th
Ġlosl aten
schal ig
Ġgewoon lijk
Ġover treding
Ã ¸
dra ger
der n
Ġverz ad
ĠPart y
Ġdringen d
Ġom geven
Ġbezorg ing
Ġelektron isch
ĠD ist
tegen deel
Ġge stemd
Ġbest rijding
ĠB lijk
att le
st udio
c ker
Ġgecon stat
Ġaan gaande
Ġm unten
Ġweb design
ĠComp any
Ġbe wijst
Ġd ash
Ġsc oorde
Ġkeur ing
Ġverh elpen
Ġreser vering
we kt
Ġpol der
amb oe
ĠK ids
ort el
Ġtrouw e
ĠReg io
im uleerd
jaar den
Ġregel matige
Ġaardapp elen
Ġspamb ots
Ġzoek opdracht
opt ies
ĠS em
r els
ge slagen
Ġa mende
ĠAb out
Ġdoel groepen
ock et
Ġgro ve
1 50
ar ina
Ġsch atting
Ġv etten
Ġop staan
Ġwillekeur ige
ĠP ic
Ġrij p
Ġbenader d
Ġstuur de
Ġh ert
Ġbank rekening
wee fsel
Ġbeeld scherm
Ġhouden de
ĠS qu
Ġp euter
Ġsy stem
ĠEx pl
Ġstrateg isch
ug gen
ĠOor log
tann iÃ«
Ġaant rekken
ĠV ragen
ĠR iv
or iÃ«nt
Ġdichtst bijzijnde
f amilie
Ġstor ingen
ese arch
Ġdiscrimin atie
Ġweekend je
den d
osk ee
z ijden
Ġst rijden
Ġof zo
Ġgem akken
ĠH aven
Ġst af
ĠMarokk o
ĠK a
h n
Ġst icker
ĠD ick
Ġeet kamer
ip e
Ġwets voorstel
Ġvl inder
?? ?
ĠEx press
Ġh its
op ter
Ġontwerp ers
ĠPark eer
Ġro ut
Ġveelzijd ig
Ġkw ant
ut phen
huis je
Ġzest ien
Ġcorre ctie
d al
Ġb reekt
Ġresult eert
alle en
Ġdet ect
Ġzicht bare
Ġtweet al
Ġbele mmer
Ġomst reken
ut ions
hed raal
pass ingen
ĠM ass
Ġfeit elijke
Z ondag
omen d
ĠJoh anna
dr at
Ġautover zekering
Ġverf ris
Ġd ronken
Ġconcur rent
ĠBe sch
Ġverd rag
rij ft
ĠOnder weg
l ozen
ĠJ ourn
d rempel
Beg in
Ġverg oeden
Ġbedoel t
Ġaan slagen
s oftware
Ġom wille
Ġz end
ĠL aag
Ġmech anische
ĠG il
l ight
Ġvoor gelegd
Ġst off
Ġjapan se
u v
ĠZ olang
ff e
lie ft
ĠZ it
Ġ198 8
Ġaller beste
ĠN H
Ġschen ken
ĠDef ensie
k oek
H otel
Ġveg an
Ġzus je
ver zoek
ĠR ust
Ġintegr eren
ĠT ime
Ġaqu arium
Ġprakt ijken
R ond
ĠI M
Ġom zetten
ot je
Ġsted elijke
Ġvoor alsnog
ru ck
Ġenergie zuin
w oude
wijz iging
S port
Ġexperiment eren
Ġger elateerde
ĠE em
ken ing
ĠEx per
Ġproduc enten
Ġzo wat
Ġluist ert
ĠRen Ã©
Ġsch eer
borst ige
Ġge com
ĠVoor ts
l ines
ĠC ross
Ġher nieuw
Ġgenees kunde
Ġaut ob
Ġin breuk
ĠT U
Ġeigen schap
200 9
Ġverscheiden e
or ds
ĠM ess
Ġprins es
over last
sl aat
Ġol iÃ«n
Ġpunt jes
le gt
Ġwand elt
Ġk raag
Ġhuis stijl
veil ig
Ġjaar rekening
Ġaf handeling
p rise
Ġtoon de
Ġt ril
Ġgelijk nam
ĠC C
Ġwerk vloer
yp es
ĠM oh
ĠR idder
Ġover kant
Ġt antra
Ġdat gene
ĠD I
Ġgraf iek
c s
c an
Ġover nachten
ĠD elta
ett ingen
Ġlog ische
Ġdiscipl ines
ĠUn ited
c ks
Ġh uilen
con cept
< /
ĠA arde
Ġconcurr enten
Ġs ets
ĠG ert
Ġschatt ig
wor kshop
ro oi
Ġvan morgen
ac cessoires
Ġzo zeer
Ġsch eeps
Ġontwer per
ĠProvinc ie
Ġinf ra
Ġzom ers
N C
Ġin val
p oeder
Ġd al
Ġkn ippen
Ġr onden
ĠNederland stalige
at ch
f ood
Ġsur fen
ĠGezond heids
Ġretourn eren
Ġsamenwerkings verband
Ġvle ugels
Ġmig ratie
w art
Ġgang bang
Ġo ceaan
al ie
Ġvan middag
L eu
p alen
Ġgelegen heden
ĠPersoon sgegevens
ft er
Ġingev olge
Ġt rokken
ĠM aandag
bl ig
Ġwoning bouw
Ġzak je
Ġlabor atorium
Ġtrans fer
ĠW eder
ĀĀĀĀĀĀĀĀ ĀĀĀĀĀĀĀĀ
Ġschatt ige
Ġvoorbe houden
p are
se d
ĠE M
h oeken
vl oeren
ĠHeeren veen
ver z
Ġst ickers
l s
Ġrem men
Ġvolg den
ĠS ites
Ġenergie verbruik
b ollen
B ru
Ġst ik
G er
Ġpaar s
ĠHong arije
Ġident ificeren
Ġp ay
We et
Ġafwijk ingen
m aster
Ġdoor ver
mail s
Ġkle i
Ġra ssen
ĠMech elen
ge erd
Ġ4 50
v uil
Ġ iet
h als
in iÃ«
okk asten
ĠHe ijn
special isten
Ġzuid elijke
Ġ7 9
Ġrustig er
Ġtrouw t
Ġg okken
qui z
Ġpan eel
Ð ´
Ġbekend heid
Ġcre ampie
aanbie ders
oor l
G ed
c ijfer
ĠKon ings
bor stel
Ġspeel se
spl aats
Ġlig gende
Ġabon nementen
Bed ankt
Ġ7 1
Ġsex films
ĠE asy
Ġsp oel
W O
aar sen
ĠH yp
igheid s
pp e
Ġstruct ureel
itel oos
ĠC L
w ell
int on
ol der
Ġhuishoud elijke
Ġp aus
ĠS oph
Ġl ike
ĠC ode
Ġopv attingen
Ġfeest elijk
kl as
itt ing
= "
Ġann uleren
sh of
Ġ Ã¨
Ġintellect uele
itu aties
Ġer na
ĠB ab
Ġga zon
ĠL o
ĠR oom
Ġbe kken
Ġduidelijk er
Ġboven genoemde
ven ster
ĠSp ot
Ġuitv als
Ġre pertoire
gev ol
Ġroest vrij
Ġheft ig
ĠgeÃ¯ntro duceerd
Ġontwikk el
ĠMar s
Ġintegr aal
M ag
Ġon weer
Ġneer gezet
as eerde
over leg
Ġuur tjes
ĠC EO
net jes
Ġafstand sbediening
Ġ8 4
Ġn icht
uit er
uim e
ĠO k
Kort om
aan deel
n ic
v y
il ling
Ġkl uis
Ġle kk
F T
Ġze gen
Ġuit wisseling
Ġcon cepten
gram m
ĠR ud
Ġ 000
inten do
plant ing
Ġhoogte punten
Ġcul inaire
ĠBel gen
Ġkop ers
Ġsug ger
Ġdr iet
Ġ198 5
Ġst eel
Ġdisc reet
Ġsn ack
ĠCh i
H V
Ġbew eren
Ġzien s
Ġmasturb atie
Ġsp eur
Ġdag boek
Ġru bberen
Ġnage dacht
Ġverblijf s
b onden
ĠK r
ĠH oll
Ġ9 2
Ġp aleis
Ġgeres erveerd
Ġlen zen
Ġbungal ow
b od
Ġverwar ring
Ġimp uls
Ġsch eur
ĠM ov
ui z
ĠY our
Ġb ran
ĠCom fort
ĠC ura
Ġhand schoenen
Z owel
ĠM ath
G P
ĠA T
Ġs ale
Ġh oven
200 8
ĠHand els
. ]
h oge
Ġv s
v ar
Ġanalys es
Ġvoedings middelen
ĠAcadem y
ĠMe et
Ġadem haling
Ġterugk eren
Ġth r
Ġonderzoek er
Ġkomen d
ares se
Ġsp at
Ġfles je
ĠG O
ĠS ier
Ġverhuis d
ĠDi verse
Ġprofess or
on iÃ«
Ġal lang
Ġgesch oten
H aar
Ġmiddel eeuwse
ĠhÃ© Ã©l
te gels
% ).
n omen
Ġuit m
jar igen
ĠT O
ĠArch ief
Ġdou chen
me st
Ġin nemen
Ġgeorganis eerde
Ġdemoc ratische
Ġopmerk elijk
ĠA u
Ġricht te
ĠU b
ĠAmstel veen
end aal
Ġintell ig
Ġhier toe
Ġmater ieel
ol ten
Ġt or
ab iliteit
Ġsl aven
ĠW ork
Ġbeh eerd
Ġkap el
Ġstruct urele
od ge
Ġgebruik maken
ot es
schil der
Ġkopp els
gel uid
Ġsu p
Ġaf gel
gedaag de
Ġj oden
Ġl ap
Ġ idd
Ġy oghurt
Ġvest igen
Ġle idingen
Ġhulp verlening
al ity
Ġn ier
ĠF ashion
ress ief
Ġwen k
Ġanders zins
Ġsle pen
Ġhard loop
Ġnoord elijke
ĠFle voland
ter echt
Ġterrein en
Ġliter aire
ĠBe eld
Ġverh and
fact or
bal ans
Ġter rassen
Ġdiagn ost
ĠE ver
c ke
ĠMarokk aanse
ond on
Voor dat
ĠG ood
Ġc atalogus
Ġwel vaart
Ġwee gt
Ġd og
ĠP ubl
im s
bl iot
Ġbevor dert
ĠL een
Ġkennis maken
ĠR O
ĠAb ra
d ouche
k oor
Ġso und
Ġ }
Ġde gelijke
Ġsl aagt
ĠUS A
Ġp assage
Ġuitge gaan
Ġn immer
Ġ8 9
richt ingen
ĠE rasmus
verh oging
Ġger inge
Ġomring d
Ġaange d
Ġa mand
er ve
Ġt rib
Ġdist rict
Ġverw orven
c ing
z ang
Ġb aar
Ġfran ch
Ġgen ade
g s
Ġleeft ijden
Ġinsch rijf
Ġse k
bl ijft
ĠGe v
jectie ve
daag s
comp on
Ġf eb
ĠQu ick
Ġeven tjes
iv eerde
Ġ7 50
Ġmater iÃ«le
Ġgelijknam ige
Ġhy giÃ«ne
te ch
Ġhuis werk
Ġgede kt
Ġro of
Ġst ijf
Ġpost er
op ro
w inning
Ġd aden
Ġoverd reven
Ġcap s
ĠZ iekenhuis
ĠG eel
Ġmet ingen
L imburg
Ġbeschad iging
in tegratie
ĠVast goed
Ġaanbev elen
Ġcl ip
i enten
Ġr ib
Ġvert icale
Ġbestuur lijke
Ġwe kelijkse
Ġover macht
Ġport folio
Ġg ooch
/ -
S I
ug h
Ġbeoog de
prest atie
ĠPol y
kk ings
ĠVel uwe
ĠM C
ik lin
Ġsport school
con cert
Ġsy ste
Ġrefle ct
g it
Ġrec ensie
de ze
Ġaf leggen
Ġtra d
Ġcha os
iot ica
bl aas
aan wijzing
Ġopv alt
Ġch e
ĠC ro
ter dam
Ġresponden ten
Ġkant ine
kl ier
Ġb oeiend
Ġoper ationele
bij v
g rijs
Ġwerk ten
eeuw s
Ġverantwoordelijk heden
Ġtop per
j am
Ġte voor
Ġ ï¿½
ĠP rachtige
Ġc amer
b uff
Ġwerkloos heid
ĠBr ink
r Ã©
Ġsch ouw
Ġbel eefd
arch itect
Ġged aald
Ġteleur gesteld
ĠS eni
Ġfisc aal
Ġc osmet
Ġover weegt
Ġdim ensie
Z h
ĠF oundation
y th
Ġgew ijd
Ġblijven de
ĠO s
Ġo h
Ġcompens atie
S ex
Ġs ou
ĠAB N
ĠB oe
Z eeland
Ġvoor rang
Ġver houdingen
Ġaange gaan
Ġgeb ogen
ĠK it
Ġcompl iment
Ġer af
gever ij
p df
Ġverste v
Ġmed aille
Ġkost bare
Ġparkeer plaatsen
Ġvoor b
Ġfl auw
ĠY oung
Ver volgens
Ġm bo
Ġislam itische
Ġdorp jes
Ġverstel baar
m bo
un ter
Ġgroot handel
ver schillen
Ġom roep
U K
Ġopbreng sten
ĠA Z
Ġvakantie huizen
Ġadem ben
Ã Ĥ
ĠDe ur
roef d
Ġgeschil derd
i vering
ĠBl ijf
Ġversch affen
ĠR esearch
st udenten
Ġbev alt
c al
ĠZ uider
Ġprem ium
j uiste
ĠB urg
ĠTran sport
Ġop maken
Ġc annab
ĠCorn el
ĠH O
Ġtevoor schijn
Ġverwij dering
ra men
ak elijke
Ġdaar onder
Ġgep rijs
ĠAV G
ĠFran ce
Ġinter face
Ġger elateerd
Ġgeslacht s
Ġn eef
Ġgerenomm eerde
ĠTechn ische
f les
Ġwein ige
oedd h
Ġverlen ging
str alen
Ġcompon ist
ĠNoor der
org aan
Ġbe f
it em
ĠP rachtig
Ġverv alt
Ġd ader
Ġstart ers
iep ing
ĠOver zicht
ĠInst all
Pro f
wit te
ol ing
ĠS us
sp at
Ġafw achten
od el
Ġbenodig d
Ġ8 6
d ingen
Ġzo ontje
Ġgest imuleerd
G eef
Ġou derd
ĠBur gemeester
geh ele
Ġuit en
Ġdoos je
aas je
Ġuit slagen
m ars
ĠUtrecht se
g olf
Ġmoe iteloos
Ġc rypt
at ien
j u
Ġover gewicht
Ġbez itt
Ġtegen komen
Pl us
Ġvoor deur
Ġb ug
Ġredelijk erwijs
ĠY oga
Ġ ]
J ul
ĠSp oor
Ġ198 6
Ġover sch
Ġtele com
og d
ĠGro etjes
Zod ra
Ġlast iger
Ġre k
w ets
kw artier
ĠS of
ĠH aal
Ġzo om
ail able
zig de
Ġbev el
ĠM R
Ġom heen
ĠMag azine
bliot he
ĠF ac
Ġgen oot
Ġavond je
d et
P ol
hebben den
ĠZ eg
iet je
Ġontwikk elaars
n atuur
Ġver gez
Ġtoe behoren
Ġstap te
Ġsp an
Ġspectacul air
Ġinzicht elijk
Ġ3 65
Door dat
Over igens
âĢĻ )
Ġaf wisseling
âĢĻ -
Ġtele vis
Ġafge beeld
Ġuit laat
Ġkon ijn
Ġmag ne
ĠFinanc iÃ«le
ĠEl s
ĠSp an
ĠEl isabeth
Ġbepalen d
ĠRes ort
Ġoverb odig
st oot
ĠGroen Links
ĠMil f
ge deeld
ett eren
ĠBij lage
L EN
Ġintellig entie
v akken
end am
Ġc iv
Ġ19 70
ĠRoer mond
Ġr im
ĠCom bin
Comp any
kt akel
unt u
riter ium
M o
ĠOekra Ã¯ne
zitt ers
T op
ĠM ur
Ġaange sproken
Ġf oute
u vel
Ġstop te
Ġst ag
instru menten
Ġhart slag
Ġ9 6
ĠFig uur
end el
Ġbrood je
Ġhoof de
ĠCa rol
rie sland
l eten
ver schil
ĠM and
Ġtoegank elijke
Ġvier kant
Ġer ectie
Ġvrijwill ige
Ġgecertific eerde
Ġgez ongen
Ġaf vragen
Ġeigent ijdse
ĠSch even
Ġkarakter istieke
ĠS uz
Ġop ruimen
Ġra zen
Ġpornofilm s
ĠH oi
gro otte
Ġged ownload
in iti
ĠBrussel se
rij dt
Ġsp eed
Ġse gment
z alen
camp agne
Ġilleg aal
ĠCo ach
Ġec ologische
Ġ/ /
Ġverkocht e
Ġe y
decor atie
Ġz wee
ze m
Ġin put
per centage
ĠG ab
Ġc red
Ġtoel aat
Ġconcent reren
Ġzijn e
Ġnabij heid
iter atuur
re ens
Ġop zij
res erv
Ġin genomen
Ġverlie p
ard o
Ġboek ing
Ġ8 3
Ġreg ime
Ġfinanc iÃ«n
Ġcons ul
Ġisol eren
Ġro oster
Ġsm aakt
ge sloten
ĠJ azz
Ġc ilinder
Ġaf gelegd
clus ie
Ġpot ten
sch ijf
ar me
w ie
f ast
ag a
Ġg ist
d aal
ge erde
the se
Ġcan vas
ark eerd
st ruct
Ġgere d
Ġf uck
onder neming
h aalt
Ġh il
Ġt ast
Ġv ulling
Ġporte feuille
ĠF amil
Ġmeren deel
res h
j obs
Ġafwiss elend
i qu
s feer
ant a
Ġdipl om
p resident
ĠA w
A angezien
anne ke
l azen
Ġmiddag s
urs us
Ġdrie hoek
Ġreferend um
Ġmen gen
ĠS ander
ry sl
ĠRuim te
Ġoverw eld
Ġsilic onen
ee dt
ĠRob in
ĠZ en
Ġind irect
pro vis
Ġhor ec
Ġsport ers
Ġover gebracht
anal ys
Ġster f
Ġing reep
hoe ve
techn ieken
P D
Ġstat ement
w n
Ġkn el
Ġaanspreek punt
Ġdert ien
Ġimm uun
ĠDem oc
Ġv iew
kl in
ĠPool se
Ġbek ro
Ġinten se
ĠN OS
ple et
Ġaut on
Ġk ist
Ġverpakk ingen
Ġecht genote
Ġaf halen
Ġom vatten
k ader
Ġo ct
ĠMob ile
ĠG ere
ĠCamp ing
Ġl obby
Vrij dag
Ġaanwez igen
ĠN orth
ĠAl melo
Ġin breng
as p
ĠH ill
in y
Ġwenk bra
ĠR ing
ĠIn s
Ġeven veel
g racht
Ġc afe
ĠPl atform
ĠPers oneel
t wee
ĠHeu vel
Ġwebshop s
Ġa ch
Ġo cc
Ġeeuw ig
Ġ5 000
A c
Ġrond reis
Ġeen zelfde
D enk
meub elen
Ġlij sten
Ġmil itair
h oor
Ġuitgang spunten
ĠBru ssels
O ost
S m
Ġw im
Ġgang bare
Ġbel ach
Ġmann etje
ĠR ot
schap en
Ġl innen
G R
Ġh olland
ĠHel p
Ġbr oed
Ġvle ugel
Ġ198 7
Ġverwel komen
Ġrec ensies
Ġeleg ant
Ġcorrig eren
ĠĠĠĠ ĠĠĠĠ
Ġslijt age
Ġg angen
mod ule
Ġwh ite
Ġge advis
Ġpl assen
Ġconcl ude
ess el
os m
Ġbeg aan
ĠOver al
ĠA ctie
Ġnodig t
H uis
Ġdemonstr atie
stij len
Ġkunst gras
Ġvriend je
Ġaut oriteit
Ġstat uten
is ion
ĠCent re
um en
Ġj oodse
st ond
Ġvrouw elijk
Ġas falt
Ġmuzik aal
Ġvert oont
Ġ2 30
ĠL ar
ch a
Ġartie st
Al l
ĠHand ig
Ġprie ster
Ġh ing
Ġbeheer st
am el
Ġlegend arische
Ġhand tekening
spart ner
ien nes
Ġg old
ent wintig
Ġwereld kampioen
Ġall ergie
man te
ĠBe scherm
w all
eld ing
Ġz onen
ins on
Ġgel iefd
Ġfunction eert
arch ief
ar etten
Ġbenad rukken
ĠM u
Ġgevarie erde
ĠK ad
Ġge deelde
Ġont v
Ġantwoord de
ĠF em
we bs
r onden
Ġaanget rokken
Ġoord elen
Ġspring t
Ġben ut
ĠAr den
Ġhar ten
s neden
ĠAll ah
ĠRe in
Ġattra ctie
get jes
ra ining
Ġkl okken
ĠV I
ĠL ex
ĠEr fgoed
Ġkwal ificatie
oog d
ĠSt udenten
Ġdrink water
Ġminder jarige
cont ent
g al
Ġopricht er
Ġver waar
sp ieren
anc es
Ġm ost
ett a
Ġf er
techn ische
Ġmig ranten
ron ten
Ġk inky
ĠT it
kop er
Ġaanger aden
ĠK ra
abon nement
Ġverl aagd
Ġp oe
ĠB ach
s ers
Ġpublic eerde
o les
Ġhar ige
Ġwagen s
con ferentie
Ġprem ies
Ġverb azen
ĠG arden
we d
Ġp ut
ĠVol vo
vak anties
Ġw oede
ĠP eters
ger elateerde
Ġde kken
Ġboven al
ĠAl p
R eg
t ent
Ġgerest au
Ġk eken
Ġstroom t
desk undige
ĠT ube
roe gen
Ġzw angere
V aak
ĠV alle
pers oneel
ĠJans sen
Ġvier t
Ġsp rekers
Ġdynam iek
ter ras
Ġto ele
Ġkn ow
Ġhoofd stukken
Ġpsych ologie
os a
Ġverle id
ĠD S
o und
Ġru iken
00 3
ore aanse
Ġk ermis
ĠSl ot
Ġbesp aring
Ġo om
h orn
ĠR iet
Ġgemen gd
st aart
bl oemen
cus es
over dracht
sh ip
Ġop inie
Ġimplement eren
Ġmisd aad
Ġonder gebracht
Ġperiode s
Ġaller eerst
ĠM ah
Ġ19 44
ĠgeÃ¯sole erd
Ġwint ers
ĠKL M
Ġint ieme
Ġge plaatste
ot on
Ġd urende
Ġsp ie
Ġf oss
ĠK ampen
arte menten
Ġwed uwe
ĠN okia
Ġverd achten
Ù Ĩ
Ġtw itter
Ġform ele
Ġuitge zet
Ġgesch atte
Ġwezen s
Ġoper a
ĠL ast
Ġagr arische
ĠT a
min istr
q uis
stand igheid
Ġbereik baarheid
van af
ĠTex el
ĠSch iedam
M ed
ĠGe org
Ġeng in
Ġmus ical
Ġroy ale
Ġbak ker
ĠWash ington
Ġmonit oren
Ġleef omgeving
p ack
Ġbeg raafplaats
Ġverzam elt
ĠG ren
k achel
Ġhum an
b orgd
Ġsp raken
Ġproduct iviteit
ge me
ver w
Ġh all
Ġrom antisch
Ġlink se
Ġonver h
Ġass istent
be vestiging
Ġfant as
Eigen lijk
ĠAut oriteit
ĠInternation aal
ĠCura Ã§
Ġk achel
ĠÐ ¸
ele ctie
Ġnaar mate
Ġdocument atie
v s
oven de
af hankelijk
Ġre volution
sproces sen
Ġleuk s
ult urele
streek se
Ġsong s
re es
Ġsubt iel
be ker
Ġ anten
ĠSt ock
Ġpil ot
ĠBi bliotheek
ak i
Ġongev allen
vest eerd
ĠG ames
Ġk rok
eer baar
U p
ĠF M
Ġchauff eurs
G G
ĠR oss
Ġe sp
Ġzorg v
Ġaan wijzing
Ġm asse
Ġcarnav al
Ġfabriek s
Ġnaad loos
V ER
Ġuitvoer t
Ġt ik
me den
us den
Ü ³
k ost
Ġmot ie
Ġstruct uren
Ġsec urity
ĠT ar
spre ker
ĠP raktijk
ĠL ieve
ession al
red acteur
Ġvide oc
Ġmet ing
ĠF ys
ĠGG Z
ĠIsraÃ«l ische
sp ons
c d
ĠD un
Ġst ar
h l
Ġgru w
ĠSant a
Ġreg ist
af onds
Ġtegen aan
oze f
Ġz zp
ĠNet werk
Ġsymp ath
z ige
Ġc ity
appar aten
ĠLand bouw
Ġst ere
Ġopdracht nemer
ĠE p
Ġdu el
Ġorganis eerde
ĠAv onds
mom enten
Ġvoer ing
ĠK eur
Ġonder st
ĠZ utphen
T ree
Ġuplo aden
d oelen
w is
ĠTha i
ig i
v oeg
Ġnab ije
Ġco Ã¶per
ĠC M
d rank
Ġbe denk
Ġact rice
aaf de
K inderen
Ġaansluit ingen
ĠS eb
ĠB an
Ġspont ane
Ġg okkasten
Ġgede fin
Ġhuis jes
Ġverle iden
in ation
Ġmaat je
Ġra p
ĠB K
Ġenerg iek
sp oren
Ġfamilie bedrijf
Ġrecht vaard
Ġgem erkt
sp e
Ġt enten
ĠA and
sp raktijk
Ġgesch ied
Ġex tern
Ġvoor ganger
Ġopge heven
ĠPet rus
Ġinst ituut
ĠKonink lijk
Ġgast vrijheid
ĠBar b
is d
Ġgesch onken
Ġhandh aving
instru ment
Ġprofit eert
ĠB ram
Ġwoon huis
Ġs int
Ġverwar men
Ġbeg raf
ag h
Ġapp els
Ġuit brengen
ron om
ĠProf ess
Ġgep erson
Ġv rijk
Ġsch and
neem bare
Ġ9 7
ĠKl aar
Ã¨ nes
I X
Ġgl ijden
ul pen
P RO
ĠSp a
Ġvarie ert
ell ings
Ġmasturb eren
Ġinteg rale
Ġd ozen
Ġneg er
ĠO ss
Ġbinnen zijde
ud o
e ar
Ġzons onder
Ġle ent
Ġwee g
gt ijd
Ġ198 4
ĠS ov
Ġneut rale
C ar
over schrij
Ġaan nemers
Brit tanniÃ«
Ġkle uters
t ran
Ġloun ge
Ġtoel ating
anc a
Ġger aken
Ġintegr iteit
IJ N
ĠC H
utt ers
Ġ8 1
kom mer
aren de
Ġs etting
Ġgewaar borgd
Ġm ess
Ġu t
ĠNet flix
Ġverm eer
Ġvis um
Ġuitger oepen
ilj oen
Ġbestur ingssysteem
Ġru ilen
Ġverg unningen
Ġin gebouwd
ĠT osc
k ist
ĠAd am
Ġregion aal
lie d
ĠefficiÃ«nt ie
l ichten
Ġgest ructure
Ġab out
h agen
Ã ¥
ĠH oop
Ġerg ste
8 00
M ich
f rag
schak eling
vor dering
ĠGl obal
b t
recht elijk
Ġne ven
Ġh akken
Ġgeloof s
Ġaankond iging
Ġverspre iding
ĠRoo sendaal
Ġd as
Ġe vol
Ġca o
Ġalbum s
meub el
Ġverwer ven
Ġcon versie
Ġh as
Ġuit oefening
Ġelast ische
ontste king
Ġlij dt
Ġmak elaars
Ġsex contact
Ġgeact iveerd
ort ing
Ġkon ijnen
uro ver
Ġklass ieker
r un
Ġze ge
Ġsloten maker
ĠP in
n ota
Ġvoor genomen
zij l
Ġf onte
Ġpaar se
Ġtot stand
Ġgezicht s
Ġk rassen
Ġhand doek
ĠH EER
Ġaansp reken
ĠD elf
ĠÃ¼ berhaupt
ipl om
V erk
ĠbeÃ«ind iging
y bal
k eren
Ġintell igen
Ġb onen
Ġsl anke
ĠC BS
ĠVeil ig
Ġuitgev oerde
Ġwel be
P G
ĠNoord zee
l opers
Ġter ugt
wet geving
Ġinf l
Ġwe blog
ĠJ O
Ġfull time
h age
ĠP ad
Ġge index
ven de
Ġgenees middel
Ġv uist
iel id
ĠL ong
P E
Ġgeg ooid
Ġbedre igd
Ġtoe slagen
ĠG as
Ġgesp annen
mm et
Ġprocess or
Ġst repen
ĠZZ P
ĠR ac
Ġvlak ke
Ġbel oond
Ġhe up
houds opgave
Ġ24 0
Ġs ort
Ġingewikk elde
Ġl of
Ġin acht
semb le
g i
sluit ingen
Ġseni or
auw en
ĠSec urity
open de
æ Ĺ
st an
door n
ĠS he
Ġmeub elen
put eerde
Ġd ossiers
r oren
Ġdaar buiten
Ġkart on
Ġte elt
Ġb oekt
ĠHen gelo
aat jes
ĠRe geling
isten te
Ġwerk omgeving
Ġapp ellant
Ġkru ipen
Ġp oorten
Ġbl ikken
Ġcru ise
Ġaan komende
ĠH ere
E erst
ĠK ut
ber ry
P art
2 50
Ġverwij der
Ġal gehele
gev ings
Ġbewon er
Ġge financier
Ġbr un
Ġnam iddag
oe ide
Ġc ondens
ĠA AN
ram p
Ġklein schalige
Ġbij t
Ġball onnen
ĠT oer
ĠEx cel
ĠN oorden
mer ing
Ġblok jes
Ü °
el o
Ġop een
in ingen
Ġopst arten
st oten
op per
oor s
Ġbrieven bus
Gen er
Ġz ucht
Ġsm al
ras h
ull etjes
ĠKort rijk
ab o
Ġh ockey
ĠF en
med ia
ĠG esl
ĠÐ ½
Ġverzam elde
Ġzet els
Ġgeh uwd
Ġre validatie
ĠIn n
Ġun it
ĠPrem ium
er veren
D rie
ĠL eef
Ġverdw een
Ġcent ra
Ġvol gers
rom ingen
Ġr end
Ã¢ n
Ġoverst appen
Ġachter laten
Ġsol ide
Ġsch uin
Ġvernieuw en
ell ak
Ġbier tje
Ġbescherm de
A chter
Ġinzet baar
Ġdaadwerk elijke
Ġgere c
Ġfeder ale
Ġom schrijven
gr id
ig ma
Ġf riet
ĠR ose
Ġuitgever ij
em end
ĠBre ed
Ġindividu en
Ġsin aas
erk ast
ĠJac obs
ĠN intendo
ĠAls of
Ġa mat
Ġ12 00
ĠD ia
Ġbl ues
ĠVoor beeld
ĠHug o
A h
Ġcadeaut je
Ġzorgverzeker aars
r ich
Ġlie deren
combin atie
ĠK uip
ant iek
ĠWilhel m
Ġzaterdag avond
ĠB ot
ĠL oon
Ġvi agra
Ġgehandicap ten
Ġkl oof
Ġver p
D C
ĠB ier
Ġac ryl
Ġsterk ste
Ġrecht spersoon
Ġ19 00
Ġsc an
ĠMon te
Ġgeregist reerde
ĠBout erse
u iving
Ġm uizen
deren de
Ġhorizont ale
Ġbeste k
ĠA cht
ĠâĢ º
Ġgek wal
W as
Ġh uurt
Ġtoil etten
ill y
sl acht
amp ing
ĠIJ sland
Ġf r
gev at
c risis
Ġest het
Ġvere isten
Ġfotograf en
Ġm art
wet se
p aden
Ġcont ant
ĠOn geveer
Ġnegent iende
ĠBrabant se
Ġb len
sl ijn
neem baar
Ġsco ot
Ġle ase
ĠM ike
Ġopv ragen
bl oed
rouw de
Ġcamp agnes
isc us
c at
aam de
ĠC u
Ġvoer de
le ct
ĠUl tra
ĠL oc
Ġe qu
Ġondernemer schap
spl ant
Ġwaar genomen
sc ar
Ġgelijk tijdig
ĠBad kamer
Ġste kker
htt ps
k it
av es
Ġperson age
ĠTim mer
um bo
ĠAma zon
Ġmin isters
Ġinst ap
stro ok
u eren
Ġvoor schot
Ġdoor gevoerd
Ġvl akken
Ġburger lijke
m ie
ĠVol wassen
Ġreken t
Ġp ic
ex tra
houder ij
Ġaf v
Ġbet onnen
b elt
el ig
Ġgev ulde
v illa
Ġsp in
Ġj assen
Ġfel icit
h eren
ĠD agen
ĠB io
Ġprov iders
Ġblokk eren
Ġal ert
ĠCol omb
Ġver maken
Ġpsych ologische
ĠO R
Ġcom bi
ĠL eren
ĠM ET
ĠGebruik ers
ĠCons umenten
Ġtradit ies
ind ien
Ġruim ten
zend ingen
ĠA OW
Ġcom pro
ĠH ua
Ġro uter
Ġopgev angen
ĠP aris
Ġrespect eren
Ġuitvoer ig
Ġontb inding
Ġer kent
Ġa merik
' ',
l ot
or kest
eff ect
sn iveau
Ġinacht neming
ĠPalest ijnse
g oten
Ġeven ts
ĠL age
Ġkl onk
Ġincass o
aa ie
Ġvoor gestelde
Ġon volle
ĠC oll
Ġp ract
ĠÃ³ f
Ġk weken
ĠMeis je
Ġhe ide
V orig
Ġpark ing
Ġd oods
Ġpersonen auto
ĠL inda
ra ppen
Ġc erem
ĠW onder
auff eur
Ġon ly
Ġover eind
ĠLimburg se
ĠHe in
Ġn ostal
Ġelektron ica
oek omst
Ġgast heer
ov eel
ĠN EN
ĠN PO
ac ao
aag den
Ġleer jaar
Ġzuin ig
ĠG isteren
Ġkn us
aard igheid
Ġle vel
Ġart istieke
Ġvoor spel
ĠZ iggo
Ġbegele iders
pol is
ĠK rim
eep vaart
Ġvolst rekt
ĠV M
ĠP ensioen
h ande
Ġman ip
Ġzonn ig
Ġafsp reken
ilis atie
P h
ĠC ari
ort eerd
Ġborst voeding
Ġred elijkheid
ĠRij pe
Ġhuis kamer
ĠOu der
ace ut
yc ling
Ġorg anische
T oe
end om
Ġverd ragen
Ġbeur zen
Ġmoe iz
Ġleef de
Ġv a
Ġru we
ou le
ĠVl ak
¨ æĢ
r ikt
Ġgevangenis straf
Ġexamen s
verb aal
Ġmiddel grote
Ġmeub ilair
uni vers
ĠInd iase
Ġm essen
be kleding
Ġverk ond
Ġonder vinden
ĠMart ijn
Ġhoofd kantoor
Ġalle daagse
Ġbe werking
ĠOosten de
Ġvat baar
Ġform aten
sk osten
ĠT E
Ġfysiot herapeut
er ijen
Ġrefle ctie
ĠPro te
ĠDag elijks
ĠcoÃ¶rdin atie
s ites
ĠA y
' )
Ġcurs isten
Ġzoek machines
ĠLaur a
Ġvergoed ingen
Ġbre ak
ĠX xx
or derd
Ġafsp elen
Ġpos ition
aut oriteit
Ġople ggen
Ġv oc
ak els
ĠE X
ĠSte ven
" )
ill ingen
Ġthe m
Ġafwijken de
Ġvergelijk t
b uilding
aller y
Ġb un
ĠÂ ©
Ġverw eer
Ġj agen
ĠT oy
ro ze
ĠVoor t
c ium
ĠJ am
Ġinteress es
beheer sing
Ġbutt on
ig ranten
ĠB le
ĠDe ense
Ġst oren
ĠT j
ang st
Ġ198 2
Ġp aste
b ell
Ġbeg reep
Ġop doen
Ġs ource
Ġst oten
Ġstij gende
Ġcon f
Ġkost prijs
Ġgev raagde
Ġondergrond se
ed y
ĠK enn
Ġverniet igen
Ġinform ele
ĠDe v
ĠRo ad
Ġinvester ings
Ġcy clus
Ġafk oelen
pakk ing
be perk
Ġeett afel
ĠB roe
k ie
im edia
Ġbest r
Ġinnov atief
Ġag ressie
Ġunivers um
Ġmee maken
Ġjuist heid
Ġmed it
ĠS CH
Ġm Ã©Ã©r
ĠB ag
k or
Ġbest uderen
ĠJ ak
ra ce
Ġrazen ds
ĠControle er
Ġbereik te
Ġl iquid
Ġzwaar te
Ġeenv oud
Ġarrange ment
Ġprivacy verklaring
Ġhe ette
Ġkort om
Ġk aal
Ġar riv
ĠDen nis
ĠE c
ĠC ond
ĠCuraÃ§ ao
Ġbel oofde
Ġdro ger
ast ische
w ich
Ġstr aling
ĠA gent
Ġo blig
ast isch
Ġwerk ervaring
ig erd
ĠS yl
r atisch
Ġreiz iger
ver ij
Ġvermeld t
ĠS et
ĠZwits erse
Ġver over
ĠHet zelfde
Ġvrijwilligers werk
Ġbest aand
ĠSl uit
sp ring
ĠK re
Ġbenoem ing
Ġinc identen
Ġbe et
ak a
Ġcontrole ert
ringen de
Ġgew richten
Ġvij anden
Ġgeh akt
Ġvoor handen
ee ee
Ġhy bride
ro ck
ĠEn gin
ĠBo ys
Ġsem in
ĠV orige
Ġopl etten
ĠN eu
ette s
Ġsl aaf
as i
N T
ha vens
Ġkol om
Â ³
ĠFer r
Ġp ur
ĠOb ama
ĠR oe
onie me
Voor al
K S
ĠMatt h
Ġl int
Ġb ie
Ġbet reden
Ġdou ane
voor stelling
ic ip
gele iden
ac a
Ġg oogle
Ġvriend jes
hand els
voor schriften
chn ologie
u ct
Ġhe us
u sten
ĠP ok
Ġged ood
Ġaard gas
begele ider
ĠN T
ĠTele graaf
Ġm arket
Ġomgek eerd
y o
Ġde clar
kle ine
Ġj l
ol er
ĠSl im
out ing
å Ī
Ġaanv rager
Ġim plic
d ans
ĠViet nam
Ġontle end
ix el
ĠJ oy
iv al
te x
Ġrits sluiting
Ġovertu igend
ĠHe y
Ġtwee Ã«n
ĠF amilie
Ġfinanc ieren
ĠC atal
wen sen
Ġtro ost
Ġproe ft
Ġb oost
Ġdoel punt
rein en
Ġnat ur
ĠP ra
Ġspe akers
Ġger ing
ĠTen slotte
us sy
H oog
g eren
k oeken
Ġgeadvis eerd
D P
ĠP A
mod us
Ġb aat
Ġport ie
st on
ĠFran sen
d ossier
v c
D eel
Ġkanton rechter
ĠArch itect
Ġru ikt
ĠPriv Ã©
ĠAm eland
ov o
houden d
ĠH ann
Ġbro ertje
Ġd uiden
Ġgesch ieden
ĠSinds dien
Ġp p
Ġ17 0
ĠAdvoc aten
Ġhand doeken
ĠEn g
Ġaanb ouw
Ġoptim alisatie
de ed
ĠOu ders
Ġm aa
G oogle
Ġd rive
b oten
ĠW is
Ġsp ijs
Ġaf zuig
ĠD al
eloos heid
ĠWe bs
R es
Ġkee per
Ġto ere
Ġdeskundig heid
Ġstij ve
ĠL ondon
bund el
ru chten
Ġgirl s
Ġchamp agne
bru ggen
ele gen
Ġkie zers
ole ster
Ġgep akt
H eerlijk
1 000
Ġbr ilj
Ġalleen staande
merk elijk
Ġpol iklin
Ġverstand elijke
autom aat
Pers oon
rie m
Ġmoeilijk heden
ĠDigit al
ful ness
ien e
iÃ« t
Ġdem o
an ch
Ġmis bru
oel ichting
Ġzorg verleners
Ġie ders
T ijd
ĠL ine
Ġwiss elende
b udget
in ch
Ġsp ee
Ġgemeente huis
B ER
b ijna
De al
Ġondernem ings
it im
Ġre ading
F or
Ġcontinu Ã¯teit
ĠLaat ste
g irl
Ġacht ste
Ġverzorg ings
in ese
ĠPier re
Ġgeheim en
kl ap
re sten
Ġkop iÃ«ren
str aten
Ġpl uim
b ok
Ä ±
ig heden
ĠSte fan
eel de
Ġgel aden
Ġn oot
m y
Ġrot terdam
ing se
ĠDor ps
ĠTen zij
ĠN ed
il ers
ow ers
Ġiet wat
Ġgeste und
g u
Ġkeert je
Ġzijk anten
uden t
Ġwee fsel
n ische
Ġlaw aai
ĠR oemen
Ġl ijk
ele ment
Ġscheids rechter
ĠV L
ĠToe zicht
V I
Ġauthent iek
Ġw ay
Ġverk ozen
ĠJ oe
p u
Ġl ar
Ñ ħ
ĠK rist
Ġom gaat
ĠÃ ī
Ġdriet al
L and
beh alve
agen da
d iploma
B er
Ġc ro
sp lein
Ġsm ooth
de c
Ġel ite
Ġbes met
Ġic oon
Ġon juiste
Ġopw inden
ĠA ard
Ġfre el
Ġon regel
Ġbek leed
ie ds
oet e
ĠChin ees
m i
ĠL uik
rest eerd
ĠT abel
Ġbegrijp elijk
Ġhel den
W eb
s recht
ĠGemeen schap
Ã¯ st
p annen
Ġst aken
Ġverwij dert
Ġwh is
y on
Ġnale ving
ĠAl pen
aand am
Ġonbew ust
Ġsh ampoo
Ġperson al
ple ging
Ġgraf isch
Ġinspir erend
ĠH on
ĠLuc as
ne ur
} .
kleur ig
ç ¥
re at
ul pt
as a
ĠP O
gev olge
Gro te
zw art
rij gbaar
Ġovernacht ing
Ġsem i
Â ·
Ġst ellingen
ĠContin ue
Ġerot iek
ĠG P
ĠWit h
oorde elt
G raag
Ġmot ief
ĠM ind
Ġblog gen
rek ingen
D M
t hop
P as
om eter
Ġb uigen
Ġst rekt
ec e
Ġsch u
Ġheil ig
le id
nem ens
Ġzelf moord
te d
con c
B ar
Ġwij ten
sp rekers
ff ecten
Ġval uta
Ġadvert eren
Ġbe voor
Ġsp ijker
Ġal om
ĠT am
ĠHum an
pens ioen
Ġin leveren
ĠW are
ĠVl aard
Ġpap rika
T ip
ĠK ijken
Ġbre uk
ĠThe Company
ĠTheCompany Tree
Ġin woner
Ġvier ing
ĠL iss
ĠO ct
ĠF u
H ertogenbosch
inn etje
wand eling
ĠTra ining
Ġvermen ig
Ġkijk ers
Ġhand elt
Ġfaill iet
ĠAbra ham
Ġann o
Ġtab blad
rik ant
ĠJ oris
Ġcontact eren
Ġreken ingen
Ü Ĳ
Nieuw s
Ġat mos
Ġd rast
Ġt ag
Ġgroot schalige
Ġeen heden
e is
ind eling
ĠKun nen
Ġcre aties
ge wijs
Ġdat eert
Ġziek tes
wij zigde
Ġle en
af spraken
Ġmot ieven
v aring
Ġg amma
i ram
F ran
ĠEm ma
Ġhand boek
ĠBe w
Ġsolid ariteit
Ġ19 75
Ġfi les
Ġbl aadjes
ĠWat t
w ing
v ries
Ġaanvullen d
comp uter
Ġstraf baar
Ġtoe geven
Ġsl ank
Ġwat ersport
Ġasiel zoekers
ĠS au
ĠgeÃ¯n vesteerd
Ġverniet iging
Ġgelov igen
Ġb ass
ĠRen ault
Ġf ut
ĠW ist
yr ight
a ert
lief hebber
ĠR io
Ġlaag drempel
Ġnot itie
ĠI r
h ad
Ġbev onden
Ġkruis ing
Ġver ven
D O
ĠS O
Ġopt reedt
colle ge
Ġbe ssen
Ġcrimin aliteit
Ġambul ance
Euro pese
Ġdraag vlak
Ġmonument ale
Ġrij d
Ġhartst ikke
Ġnation aliteit
Ġzuiver e
Ġkorter e
Ġkost te
Ġv aders
Ġver zetten
Ġvertrouw elijk
K n
an ie
ver zam
Ġverbouw d
Ġl oge
ĠHooge veen
al les
ĠKe vin
Ġerv arings
âĢ¦ âĢĿ
ur d
Ġb ots
Ġmagne et
ĠPl ant
Ġchar me
stat us
Ġbl azen
Ġvoorbe houd
ruim ing
Ġverz innen
Ġbaar moeder
Ġall ocht
k open
ize d
Ġgrond ige
ĠGem aakt
ĠB L
Ġwereld s
ĠHoog te
Le kker
aart je
ĠWill iam
el p
Ġpunt je
u euze
f ys
Ġom standigheid
Ġeet le
ĠKun sten
Ġaan sluitend
Ġkind jes
Ġtegen komt
¨æĢ ¨æĢ
Ġsex film
Ġbuiten wereld
Ġgeconstat eerd
Ġmee brengt
ĠK ir
act erie
Ġsu pers
ĠScheven ingen
Ġperiod iek
S CH
ij sten
Ġdoel punten
Ġvorm de
Ġweig ert
Ġpro staat
Ġover leef
Ġaanv aardt
aken s
ĠTechn iek
aanbie der
ĠL uxe
Ġrij en
n as
ge Ã¯n
pt ische
Ġhelder heid
Ġle deren
ib et
ĠNoord wijk
Ġherinn er
Ġvoorst ander
Ġaangev allen
n i
ele kt
Ġverwarm ings
Ġverle ent
ĠMiddel landse
Ġfunction aliteiten
ĠCol or
d omein
ar iÃ«rs
Ġaant oon
Ġstu c
Ġsp ek
cent r
AG E
nel heid
ĠN r
ĠEx pert
Ġk ozen
Ġbedrijven terrein
Ġverv elen
Ġmen ings
T om
spl annen
m g
Bel ang
ver plichting
ĠSu pport
Ġb oze
iz ers
ĠD iensten
ĠE ten
ĠH ert
Ġwoon den
ĠD ynam
Ġover gebleven
ĠYou tube
Ġk we
ĠbeÃ«ind igd
ĠGoed kope
ĠSing les
Ġwiel ren
gem akkelijk
over n
f outen
r ine
sk unde
P aul
Ġdie genen
Ġexcurs ies
ĠH ind
Ġcomp ositie
Ġstier f
Ġf alen
Ġlat ex
du b
okt ers
ex amen
Ġplant aardige
Ġgep aste
Ġbasis onderwijs
Ġgemen gde
Ġelektriciteit s
ok ke
Ġkerst boom
Ġfl its
Ġacht eren
ver tegenwoord
ĠCon c
Ġhier uit
will igers
Ġwe ide
Ġont binden
we ar
ĠL ittle
Ġ198 3
ĠM osk
Ġde fect
Ġv als
ĠGebruik er
w h
ĠH aw
Ġkwest ies
Ġplaat ste
Ġachter gelaten
wonen den
U B
ction s
Ġvrij gezellen
ĠB esp
Ġeigen aars
h aak
Ġontste king
r t
Ġro s
Ġvers ieren
Ġpakk etje
Ġsn ow
Ġwand elaars
200 6
Ġink open
ke d
ĠS ommigen
Leu ke
D W
Ġint iem
he et
Ġsex dating
Ġbak je
Ġp ups
Ġ9 3
. ),
Ġnakom ing
200 7
ĠO ma
Ġb oor
Z onder
Ġdiv isie
Ġverb ruikt
__ __
Ġgeform uleerd
ĠF el
Ġiv m
Ġdu ivel
Ġthuis zorg
Amerik aanse
g han
ĠBouw jaar
Ġass oci
Ġsp anningen
Ġdiscipl ine
el bare
k raan
ĠDon ald
Ġon d
Ġviru ssen
Ġbegraf enis
ĠX box
Ġad apter
Ġachter aan
ĠKoning in
Ġb aten
Ġcontact persoon
ĠB arend
Ġgew ap
iz igers
co ur
Ġged et
ĠG ijs
re ding
ĠBe auty
Ġterror isme
ĠÂ ±
ĠBe ver
Ġlanc ering
Ð° Ð½
pro v
ĠMaat schappij
Ġaanm oed
ĠT ok
ĠH i
I Z
Ġt urn
Ġbel uisteren
Ġover gaan
Ġbik ini
Ġwe kken
Ġafw as
r s
Ġselect eert
Ġzogenaam d
Ġvroe gtijd
Ġri ol
P rachtige
Ġdr inkt
its ing
Ġm oskee
ĠB ri
Ġbew eert
G raven
eb o
ĠJ oop
ĠKN VB
d own
doc umenten
n ood
Ġeen malige
ĠC amb
w ens
ol s
richt lijn
E B
Ġl ifestyle
ĠP ijn
Ġg ooit
ĠRe acties
on ica
ĠS ign
ĠS S
Ġarrange menten
Ġex cuses
ĠAn th
ĠM ode
Ġsn ell
m arketing
ste k
Ġgecon cent
ĠL ode
ĠK B
Ġwij zer
duc atie
Ġprec ieze
ĠSp ring
Ġind irecte
ĠAntwerp se
a es
Ġcl ient
Ġvliegt ickets
Ġhand vatten
Ġkennis geving
Ġbewerk stell
ĠBal i
Ġp aren
! '
Ġgewe igerd
Ġspe aker
at iÃ«
ĠPersoon lijk
a ise
Ġsch ijnen
Ġun der
Ġbest eedt
Ġdruk werk
Ġverv oerd
ĠEn t
Ġde ad
P al
Ġbeg rot
Ġvl oerk
itu eerd
Ġbezicht igen
s nede
Ġachter een
ĠL ijkt
Ġtwijf els
kw al
Ġb oll
et ijd
Ġh uil
ocht ans
Ġk ogel
Ġvert aal
Ġle ken
ĠÐ ¾
Ġanal yt
Ġsur in
Ġet appe
Ã³Ã³ k
erm at
Ġte zamen
Ġont g
uk aart
Ġget reden
ĠAd res
Ġp it
v aste
Ġdrupp els
ĠV echt
Ġbev rijding
ĠAf metingen
Ġvl otte
Ġpu ber
Ġk ras
ĠG olden
herap euten
Ġk oorts
Ġopmerk elijke
Ġafge zet
Ġb ul
ĠC ra
be werking
Ġk raa
ĠV ac
Ġuit rusting
ss ituatie
ĠBen ieuwd
ĠO x
IE UW
iet y
ĠMe vrouw
Ġh avo
Ġrechts bijstand
Ġgene zing
Ġj ust
Ġbij draagt
gel den
elijk en
Ġcruc iale
ĠCh ic
oe il
Ġp ompen
ĠEl len
kun sten
s upp
Ġp aas
ost aat
unct uur
Ġstand punten
Ġmod us
Ġste entje
Ġneut raal
Ġtw eeling
ĠN ord
r ink
z uiver
Ġuitge komen
ule erde
ĠHeer e
m assa
Ġadequ aat
oe slag
om i
H L
Ġg oden
Ġdiam ant
Ġover tre
men g
ĠR i
) )
v oegen
der nis
Ġbal ie
ĠSte ve
ro oms
Ġverwarm d
Ġg y
Ġc ast
ff ingen
prest aties
ĠSport s
Ġk us
Ġecht paar
spro cedure
ac on
ĠC all
ob b
? .
ĠM E
Ġklimaat verandering
Ġsoep ele
Ġto eren
com merce
Ġaanbe steding
ĠP ure
Ġesc orte
I tal
Ġgeh alte
smaat regelen
Ġverdien de
Ġbuiten af
aver nij
Ġact u
ĠHeer len
Ġcarnav als
ĠP ot
Ġpar el
Ġboek houding
Ġgebruiks vriendelijk
Ġkap per
Ġvoor nemen
or er
ge midd
Ġkont je
Ġreal istische
Ġch allenge
oe zie
leeft ijd
Ġontwikk elaar
Ġre sten
ett elijke
Ġreger ings
P oint
Ġtoe gelicht
Ġv een
im it
Ġaan zet
ĠP interest
ou ds
is ering
onder deel
Ġp ikken
ĠOp vallend
Ġpitt ige
Ġdes gewenst
spro f
Ġsch utting
ĠL ake
Ġkleink inderen
Ġtro f
ĠV ogel
ĠT ags
Ġautomob il
ĠV ent
U iteindelijk
ubsid ie
Ġ196 8
or ies
Ġevalu eren
ĠRu ud
wee kt
rag on
ĠGesch iedenis
of oon
ĠHua wei
Ġvers ierd
af hank
ĠAp ril
Ġwer elden
Ġaange steld
Ġter reur
Ġex t
ĠVre emd
Ġstem t
ill ers
Ġkalender jaar
Ġon kruid
Ġ9 4
U G
ĠT y
Ġcompl imenten
cent er
Ġinfl atie
F O
Ġzonsonder gang
ĠMoh am
Ġb dsm
Ġverd ie
ĠR ick
certific aat
w s
Ġf at
W S
ĠMiddel burg
oy d
ver sl
Ġbe ach
Æ Ĵ
Ġarbeids voorwaarden
ĠT i
Ġij sk
Ġk ick
Ġverkie zings
Ġgenomin eerd
Ġacht tien
ec o
Ġhand vat
bouw er
Ġaf gevoerd
ĠMed isch
Ġmethode s
Ġsm eer
Ġmass ief
ro ot
l etter
Ġverw iss
Ġcorru ptie
Ġl oy
ĠSt op
n st
Ġinvest eerders
G od
Ġ Ã³Ã³k
off ic
Ġk week
ĠL oo
Ge z
ĠE vent
Ġgast vrij
ĠKar in
und igen
ĠH TC
Ġkn uts
Ġsp am
Ġgra an
Ġ ~
Ġbeh eert
ind ings
ĠVerk oop
m aanden
ĠE G
ĠR ou
ĠWel k
pat iÃ«nten
ĠE V
Ġvl am
Ġspons oren
U IT
ĠMult i
ui le
Ġsche uren
Ġzoveel ste
c ken
Ġex otische
Ġge ass
Ġnederl aag
ush i
Ġp s
Ġviss erij
ok kel
ĠPost bus
Ġmor ele
Ã ®
Ðµ ÑĢ
way s
ri um
ker n
Ġvis ueel
Ġwereld ber
Ġvel gen
Ġspeel s
Art ikel
Ġs etje
ĠB ast
Ġaange st
dem oc
ĠR od
Ġverw oest
ĠD ra
ĠBe p
Ġwer ven
ĠD re
ĠP rijzen
eg er
Ġhe use
Ġcamp ings
Ġpri oriteiten
bliothe ken
draa i
Ġwer pen
Ġkonink rijk
Ġuit je
ĠSing le
ver plicht
ĠP il
Onder tussen
Ġge per
ĠM Ã¼n
Ġwarmte pomp
Ġger uchten
get uige
Ġschrijf ster
p ompen
Ġ9 1
Ġz weven
ĠSn ap
old aat
Ġfietsp ad
Ġcannab is
Ġvracht wagens
ĠSy steem
Ġsch etsen
ic il
ĠD onderdag
Te vens
Ġprem iÃ¨re
Ġh bo
Ġwinnen de
Ġvle k
ĠC S
ĠF ar
Ġlang ste
Ġprofit eer
du ct
Ġzen ders
ch ange
ish ing
kk ingen
ub el
Ġro ad
Ġinsp ire
Ġtol er
Ġwij zig
Ġvl inders
Ġtotstand koming
f o
Ġgevorder de
m eren
ade el
ĠWat ch
STER DAM
Ġbe komen
Ġben aming
EN D
Ġopge sch
Ġrecht ers
Ġev t
Ġdoor sn
Ġcadeaut jes
Ġklin iek
Ġleiding geven
Ġschol ing
Ġeen zaamheid
Ġgal erij
Ġj ac
zi atisch
Ġres ident
ach ine
Ġvan ille
Ġfl y
Ġgek leed
Ã Ĺ
Ġjaar verslag
Ġfe atures
ĠD icht
ĠEurope an
Ġschud den
ĠVoed sel
Ġambitie uze
Ġtest ament
ĠPersoon lijke
zijd ige
aam s
enn ers
Ġbehoe ft
Ġdat ac
Ġsch ijven
Ġbeschad igingen
Ġaud it
ĠKe y
Ġversl aving
,- -
Ġcur ator
Ġrond borstige
kant oren
ĠMo z
ree uwen
Ġuitzonder ingen
rel aties
Ġstr aalt
Ġver duidelijk
Ġverle gen
Ġer fen
kt ie
Ġgew oond
Ġbeelden de
ĠGezond heid
Ġsp a
alt y
Ġspra y
sp ositie
ra cten
lie den
Ġbas ket
Ġk roeg
il les
Ġingrijpen de
Ġch alet
Ġzonne bril
bel ast
I ST
Ġro mp
Ġber ust
Ġm p
Ġb aai
Ġpak je
Ġverminder de
ake hol
c rÃ¨me
ĠC R
Ġleven dig
Ġherinn ert
us ion
verd ieping
st ri
Ġr und
L AND
ier echt
ĠZ omer
Ġkap itein
ur i
Ġgroep jes
Ġbloem ist
aute uil
z out
oor deel
Ġs we
ĠG oe
Ġo ur
pap er
Ġonro erend
ĠK roon
ĠRegel matig
Ġz ui
Ġh ut
Ġgedetail leerd
Mijn heer
ĠW A
ĠB eel
over eenkomsten
Ġb ollen
ĠIn tel
Û Į
Ġtheor etische
sp rak
Ġexcurs ie
Ġ197 8
Ġbeschermen de
Ġ Ø§
ĠE ast
Ġ( '
Ġpad den
r in
ĠGel et
Ġtwintig ste
ĠA x
g oederen
ĠL EG
Ġonde u
Ġaccept atie
ĠG ij
ĠL ocatie
Ġten en
Ġi ct
Ġf ix
ĠCom pl
Ġinsp ecteur
Ġmak er
iel and
atie ke
Ġinter ventie
Ġklin ische
ĠW ood
ac ademie
Ġsoc i
ul ar
Z W
Ġbestuur slid
un ctie
Ġmon teur
Ġopen lucht
Ġpro c
ath an
ant je
Ġp iep
ĠO e
Ġbedrijfsp and
ĠV ar
ite uren
aa aa
ĠM ann
ĠC ase
Ġzen den
ren e
Ġzwij gen
uit voer
Ġz orgel
ĠA wards
ghan istan
ic ure
ĠJong eren
Ġgemeenter aads
h uwd
Ġgeweld dad
Ġform uleren
Ġonn odige
dra ul
ĠMari anne
eff ic
> >
Ġbe klim
Ġuit sluiting
Ġhoriz on
Ġp y
Ġout let
Ġp oint
ĠD isc
oen ing
ĠGG D
Ġkinder kamer
ĠOnt werp
Ġmo le
Ġvrouw tje
Ġvin yl
Ġp age
Ġbl ock
ste am
Ġneg eren
ĠVal ken
at oe
Ġst en
ĠG uy
Ġzeld zaam
Ġgoedkop ere
Ġopl aad
af spraak
ĠRijs wijk
akt ers
Ġneer zetten
ĠMich iel
b row
Ġbas ic
ra pp
az ijn
st one
Ġkeram ische
M on
å ®
ĠB C
Ġrecht streekse
Ġvocht ig
oo le
id iscipl
Ġmy th
Ġm it
ic eerd
sp en
Ġbasis scholen
Ġkr alen
bre kende
nis sen
Ġheft ige
h ome
Ġruim en
Ġ q
ĠN eer
ĠP u
Ġover dekte
Ġschoor steen
itie me
Ġterm ijnen
Ġ198 1
Ġvers us
Ġbe er
Ġhy drat
gere den
ant se
ouw e
ĠP M
ĠC AO
ĠA ugust
Ġaf druk
Ġval k
sens or
Ġhulp verleners
waard elijke
Ġhotel kamer
sl anden
Ġwaar toe
Ġst elen
ĠForm ule
1 20
Ġbereken ingen
ĠW eert
Ġnabij gelegen
gesch oten
L aten
schad uw
ĠC E
Ġselect eer
ĠT ol
Ġbloot stelling
Ġf os
Ġd id
T ags
ud de
Ġvoor dracht
Ġgev els
vaard ing
Ġk aders
Ġl ullen
Ġnederland s
Ġlicht jes
Ġkunst matige
ĠI erse
Ġgloed nieuwe
Ġteken s
Ġrelax en
Ġonmiddel lijke
Ġkl anken
Ġc row
ss on
Ġtoezicht houder
Ġverl os
Ġboter ham
Ġwoon wijk
for um
Ġont kennen
Ġouder wetse
Ġoneind ig
ĠTelefoon gids
ĠArden nen
Ġbel de
OR M
Ġgek ookt
Ġvoor nemens
ĠTim es
Ġvoor kom
Ġsch em
B ijna
ĠK eer
Ġ19 50
Ġbek ost
Ġ if
Ġarbeidsongeschikt heid
ett ings
Ġcontin ent
Ġer door
Ġbot ten
Ġsk ige
cte urs
ĠN K
be wegingen
Ġ197 9
Ġen velop
Ġdash board
sp aar
Ġchar mante
Ġsn acks
Ġuitwiss elen
ĠD et
Ġcont ainers
Ġon her
K unst
Ġin stel
Ġaardbe ien
Ġhuur prijs
len s
Ġsp rint
n ooien
Ġuitgest rekte
zw arte
Ġad ult
im er
sl ijst
Ġgew as
os ium
Ġcon vent
ĠSp ir
Ġvibr ator
ĠLiss abon
ĠRe izen
un ie
ĠL ow
ĠSt an
Ġ11 2
Ġlid staat
acc ommod
Ġonder uit
Ġsens oren
der obe
ĠCanade se
urover eenkomst
Ġk aak
Ġb aard
TM L
Ġmijn e
Ġdoorb reken
ĠEst her
Ġgez w
ĠO ceaan
ic aties
ĠU RL
uz zi
Duit sland
Ġuit werken
ĠZ oeken
ien d
Ġj r
b ussen
Ġonderhand elen
Ġact iva
ĠSov jet
Ġwoon ruimte
Ġde eltjes
sch rijf
ĠSm ith
ĠEn ter
Ġw end
Ġgest orven
it us
aad pleegd
fac iliteiten
if er
Ġaandu iding
ĠPart ners
Ġj ungle
Ġt ric
reg n
Ġip hone
Ġaflever ingen
Ġport retten
Ġvar ken
e isen
Ġsch uren
sk erk
P L
Ġval lei
ge in
Ġget oetst
Ġch arm
ĠAn aal
ĠPers on
Ġleef stijl
pl afond
oe sem
Ġvuil nis
b uren
inder ing
Ġvan ochtend
Ġdonderdag avond
ĠD Ã©
w i
ĠT alent
Ġd ay
ĠAller eerst
Ġmyster ieuze
reken ingen
le ep
Ġverw end
Ġpar ap
beste ding
ĠWil de
Ġkleur rijk
ï¿ ¯
Ġ19 60
Ġren overen
Ġaf slag
Ġspecialis atie
ï¾ ¾
W ater
ĠD og
Ġwat eren
Ġk olen
K orea
burg ers
Ġdoor slag
Ġfil men
ĠF r
Ġmee geleverd
Ġyou tube
Ġge optim
ĠZe ist
Ð ¿
ic iteit
ĠVoor af
ĠB ell
beheer ders
Ġge fl
ĠCon cert
ĠBinnen kort
ru il
Ġuitdagen d
ĠV V
spre kende
Ġbuur vrouw
Ġopger uimd
Ġor th
Ġt illen
Ġupgra de
p il
ĠL E
Ġiemand s
Ġherken bare
Ġopzeg ging
Ġgister avond
Ġgereed schappen
ĠRu ben
Ġondersteun ende
l ife
ĠcoÃ¶rdin ator
ĠSh ell
Ġcomplex iteit
ĠJ ozef
Ġimport eren
Z ou
Ġcorre sponden
Ġk ne
or ia
Ġkut jes
ĠE L
j agen
ĠK aap
Ã £
Ġparoch ie
Ġst oep
Ġdoor brengen
ĠVerwij der
Ä ģ
Ġcy ber
Ġprogramm eren
Ġp ond
ul f
Ġbeh art
ĠSt rand
ĠWhats App
Ġverschijn ing
Ġver bergen
ĠInf o
Ġle erm
ĠL an
Ġsch omm
ĠFin land
ĠK y
Ġpost ers
Ġgem acht
Ġbezitt ingen
ĠW omen
ĠW oerden
Ġy og
ĠDe scription
rien ds
Ġgok kast
Ġt racht
c ams
Ġonder goed
Ġvert ol
h oot
uk ten
Ġsp ulletjes
, .
ĠK V
ge heugen
Ġexper imenten
Ġb ijn
Ġgefinancier d
Ý ģ
Ġopen heid
ĠR E
Ġindustrie el
Ġb achelor
ĠG iet
Ġp alen
Ġgaat jes
ul air
Ġbijzonder s
over heid
Gew eld
Ġpil oot
ĠStr ateg
Ġbelach elijk
Ġm uts
ĠProdu cten
d ragers
Ġeng elen
00 1
laat ste
OR D
H eer
ĠK ab
ĠSt raf
Ġop namen
Ġop zeggen
ss ysteem
han gende
y k
K le
Ġgev oeld
M ax
ĠM eg
ĠP unt
get reden
Ġuitvoer ings
Ġaf gelegen
Ġon terecht
St eeds
ĠR S
Ã¶ n
ben en
Ġprint s
ĠS outh
L eer
Ġin it
ĠUit geverij
ion aal
Ġopv atting
ap ore
Ġkoff ers
Ġgebl okk
Ġsig aretten
Ġwoon achtig
oven d
Ġâ ľ
man agers
Ġbeveil igen
p ed
Ġgebouw de
Ġg ad
ul ine
Ġop komen
Ġonro erende
aa ier
Ù Ī
G l
ĠS W
kl ist
St and
Ġe ver
Ġp upp
Ġm asc
k am
Ġb amboe
ruk king
uch on
ĠP V
ĠM ix
kopp eling
ll ust
kl ass
ĠPas en
Ġspre ker
h eeft
Ġschol ieren
Ġv ieze
Ġtest s
Ġacc enten
Ġgeb it
Ġsch imm
ĠFil ip
Ġvergez eld
Ġh ack
Ġd uwen
ĠAn nem
m aakte
ken merken
Ġover komt
ĠD ur
ĠA rie
Ġk eerde
lem atiek
ĠG ogh
Ġv ries
sc oop
å ħ
Ġgeb ak
ĠIn vest
Ġaanget ast
ĠJuni or
ĠLeeuw en
ĠSt ijl
Ġbroe der
ĠN aakte
c eel
Ġbele mm
Ġzo chten
alt a
zeg ging
ĠC J
ĠV IP
ĠK oper
ĠTh ijs
Ġstand aarden
ĠD uin
Ġsch aar
yl l
Ġrot sen
Ġl ik
B oek
il y
Ġteleur stelling
s lepen
Ġtien de
Ġopen staande
ro oster
sm useum
Ġaller hande
Ġdir igent
Ġbinnen landse
Ġdiv idend
ĠF ront
ĠD aan
Ġre duc
op breng
Ġcl ips
Ġs a
Ġhem els
w ord
p et
itt ard
Ġtop kwaliteit
ĠFl ash
Ġtoepass elijke
ĠN B
ĠG L
ĠDigit ale
ors ele
e ste
Ġgebre ke
ĠBinnen landse
ĠA udio
ĠOr de
ĠMar io
Ù ħ
over s
merk ingen
ĠPart ner
Ġet her
Ġrobu ust
Ġverschijn sel
Ġvis u
D I
Ġop rit
Ġt rim
Ġcode s
ĠS ales
Ġaccess oire
Ġautom atis
Ġambacht elijke
p reventie
ĠHou dt
gel uk
om o
oge en
Ġprivacy beleid
ĠAP K
ĠChrist ian
me et
Ġpot entie
let iek
Ġp uin
ui ze
sch ikt
ay er
Ġger uime
ĠV iew
Ġontmoet ingen
ell ow
k in
re dig
re ff
ter e
Ġbevestig ings
ĠD j
Ġz wer
buff et
Ġoe ver
v ruchten
ass o
eigen aar
aan val
ĠBern ard
Ġwor ld
St ation
t se
uur s
Ġban anen
ĠH elen
Ġ196 9
ĠAss oci
Ġge grond
Ġv aas
Ġparall el
rie st
ĠL ag
Ġaf geb
pol itie
ĠB ah
gro und
Ġst ruiken
Ġdus danig
En kele
Ġaangek ocht
ne veld
ĠÂ Ń
Ġrep et
im o
Ġbestuurs leden
film d
Ġraad zaam
ĠOntwikk eling
erm in
m erend
Ġmot iveren
Ġsuik ers
ĠBru in
Ġpers bericht
Ġte pels
ĠL ijn
Ġstre aming
Ġform atie
ĠInd ische
v oed
Ġbesp reking
Ġaf stemming
Ġsh irts
Ġtrac ks
ĠSc ience
Ġbed roeg
Ġveren igings
p aard
Ġverlen gde
Ġzw aard
ĠPar ad
iden ce
Ġin getrokken
Ġnatuur steen
ĠPost NL
ning meester
ĠH aan
im ens
Ġt act
ĠT ja
Ġgr iep
Ġhuis vrouw
Ġinst alle
ĠGem iddeld
ĠDe kker
Ġbel eeft
Ġhand s
Ġvertegenwoord igt
Ð¾ ÑĢ
Ġsens uele
Ġfact ur
Ġocc as
Ġnaa ste
Ġbew ol
ĠHall oween
Ġr enners
ĠVeiligheid s
ĠEen voudig
ĠT C
Ġcertific aten
Ġvervang t
Ġker el
Ġb oy
Ġzorg den
Ġpix els
ven ant
ĠVeen endaal
Ġint rig
Ġople vering
ĠJ ones
Ġte werk
ĠM oor
an st
orn uis
ĠQu a
Ġvreem deling
Ġbij gedragen
Ġbeschad igen
cor re
ĠAf ghanistan
Ġp igment
Ã¨ res
Ġpre stig
fot ograaf
Ġpens ion
Ġvoortd urende
aal s
gevol g
ĠSch rift
Ġ17 5
ul lingen
Ġind iase
Ġeerst volgende
Ġaanvraag formulier
Ġfet ish
Ġbewust wording
N G
Ġbe ugel
m ast
ĠK as
Ġwerk zame
be kw
ar range
Ý Ĥ
om ot
ro os
ou re
Ġpe sten
Ġbo ard
Ġwind ows
Ġbijge houden
Ġgesch rift
bevol king
re atie
Ġdos ering
Ġvervol gd
bep aling
ĠAd obe
Ġthr iller
Ġk athol
ĠW iel
all ige
le u
Ġaanbev eling
ĠA A
oon stelling
Ġgepl akt
Ġtoet sing
Ġbrun ette
mp eld
rij ze
n ick
Ġleg itim
Ġd oeken
wijd ing
z ones
Ġo x
schak elaar
st yle
Ġtussen komst
ĠCh rome
Ġl imburg
Ġgene igd
Ġv iool
Ġ197 6
Ġjong etje
' -
Ġuit schakelen
ber ts
Ġtoepas baar
Ġstad huis
Ġzon es
Ġindruk ken
ĠB oy
Ġoverhem d
Ġt eller
Ġbl inde
Ġp oos
ĠH orst
Ġform ulieren
al eren
Al ler
de ment
ĠKl anten
Ġh oo
Ġonvermijd elijk
ĠAl f
g an
Ġ( âĢľ
Ġgl itter
th ur
Ġpolit icus
b aren
ĠG raf
Ġbre dere
Ġp ist
F M
ĠW IL
am an
Ġkl appen
Ġl oep
ĠV est
Ġro oms
Ġkamp eren
comp etitie
Ġl aars
ne kk
int age
ĠT u
Ġvreemd elingen
Ġgelukk ige
Ġbed ank
an sen
Ġb id
ĠAl i
ier t
ĠN or
Ġz ussen
ĠT L
uit stoot
Ġsp eer
ĠAv ailable
ĠN l
Ġtentoon stellingen
i res
Ġlekker der
Ġwh at
scont role
sterk te
Ġd ys
Ġfac etten
ĠJ ol
Onl angs
Ġa kker
Ġinternet verbinding
Ġbru isende
ro se
Ġw omen
op jes
d re
Ġbek n
ĠRe den
waar der
ĠIn spectie
os oof
Ġver veel
Ont dek
Ġon tevreden
Ù Ĭ
Ġserv ies
ĠD ier
Ġaan zetten
ĠRomein en
Ġp ag
Â Ķ
ĠZ aan
Ġeeuwen oude
al y
Ġk oren
Ġgra p
Ġweek je
Ġoog t
ik opter
H S
Ġregen t
dro ger
l anders
ĠP el
Ġd ad
lop ig
Ġst ick
v ulling
at om
Ġletsel schade
ĠN aties
Ġl ow
Ġwillekeur ig
pro of
prem ie
ot isch
Ġl elijk
ĠR og
Ġsn appen
bet rokken
ĠSn eek
kun nen
ĠLang s
gor it
Ġkn al
Ġparkeer gelegenheid
EM A
Ġcommand o
verst rek
ĠP K
Ġtoen eemt
ĠMosk ou
Ġzo enen
Ġspoor weg
Ġversch aft
ĠPr int
Ġuitgek ozen
Ġwonen de
ĠSp eed
Ġbezuin igingen
7 00
ĠS ir
Ġb a
Ġuit keringen
Ġdruk ker
ĠVictor ia
a ine
Ġt amelijk
stra ject
Ġgrond water
ĠL ady
Ġwonder en
an us
ĠAD HD
Ġz aag
Ġp illen
c ase
Ġna z
ĠW oensdag
ĠKro atiÃ«
erse y
ver pleeg
Ġcont ributie
ĠSch er
ER E
voor de
ma ge
mak ings
Ġakoest ische
Ġverw ond
itt ers
Ġvaria bele
Ġouderd om
och em
ih i
Ġwaarb innen
Ġintens iteit
Ġre de
st ud
Ġspecial istische
ĠAustral ische
he orie
P ort
Ġe cho
Ġfab ric
ĠZ in
Ġc ell
ĠP oort
âĢĻ :
Ġtab ak
ĠSch ep
iment atie
m aten
w orp
gl ans
Ġbekw aam
Ġmech an
l ers
Ġwat t
par atie
beh oe
Ġzul ks
Ġw eld
s ma
Ġsl avernij
k as
Ġleu gen
att oo
Ġintelligen te
Ġwijn gaarden
Ġuitger uste
a er
l ander
g oede
Ġon ont
Ġan onieme
ĠÐ º
Ġrit ten
Ġverb randen
ĠBijzonder e
Ġleven se
Ġgedefin ieerd
ĠG oes
ĠS U
Ġgep ol
Ġ10 5
Ġam us
Ġ( -
Ġricht ingen
Ġident ificatie
ĠF und
Ġvervuil ing
Ġcontrol ler
ĠOpdracht nemer
Ġsignific ant
Ġerfen is
Ġconst ru
ĠHar der
Ġ19 20
ĠH uizen
ou k
Ġproduct ies
ab ine
he uvel
Ġwel komst
Ġtegen woord
Ġterug betaling
ell ers
Ġover weging
Ġmotor rij
ĠEnerg y
Ġuit sch
Frank rijk
ialis me
Ġbesp aar
ude er
ĠCB D
Ġbroe ken
B ouw
Ġop neemt
p eel
Ġstr ik
Ġvitam inen
Ġraak ten
Ġhe ads
he k
Ġge iten
ĠE y
ĠZ aandam
n b
Ġkar akters
Ġsl ots
h olland
Ġm Ã©t
Ġform eel
Ġacc ur
Ġprec isie
ĠM uur
ĠKem pen
Ġab stra
ĠVerk eer
Ġonbep aalde
Ġkost baar
wend ige
Ġbebouw ing
Ġh elling
antie ke
ĠHit ler
Ġon gere
ĠF ro
el et
ĠK i
Ġverd uur
zicht ige
Ġbro m
ĠD ru
Ġoog punt
or ial
Ġbi ografie
Ġsn or
Be halve
Ġnieuw kom
m alen
ĠVlaard ingen
Ġtoeschouw ers
Î ±
ĠB S
Ġst akehol
Ġsc annen
ru sten
ĠK ern
ç ļ
Ġgere g
Ġongel of
Ġpraat je
ï¼ Į
Ġdeel tijd
à ¦
mogelijk heid
Ġverv uld
verb indingen
Ġbew aken
gren zen
id i
Ġv wo
past a
Ġk et
i ater
ĠV alk
ĠreÃ« le
Ġstof zuiger
Ġsch ets
F A
Ġk aarsen
am ingen
Ġvre zen
Ġde als
Ġd eleg
cent ages
Ġor ders
ĠK asteel
Ġsch ors
ĠFot os
ĠA I
Ġinst eek
N E
ĠW erkt
te kens
ĠK ool
ĠMar y
d rie
Ġinfra rood
Ġan ker
ĠE co
Ġkat hedraal
ĠAN WB
ĠCar l
Ġbless ure
Ġstr etch
Ġl ost
ĠJ es
ins el
Ġ( "
inf rastructuur
Ġz uig
sc on
ĠP os
Ġmag n
Ġeiser es
vullen de
sluiten de
Ġb ochten
ch ester
mat igheid
ara van
Ġtram pol
Ġbev rijd
coÃ¶rdin ator
get rouw
Ġver zen
Ġreser ver
st il
is j
w oon
ĠD oen
ĠT s
Ġon ger
Ġverk opers
Ġgesl apen
ĠRand stad
Ġn ylon
ĠP ack
Ġharm on
lief de
Ġomgek eerde
Ġrechter lijke
F R
ĠintuÃ¯ t
b aas
Ġjal oers
Ġb oe
Ġ197 7
ĠSe ptember
Ġgehand eld
ĠSe a
ch ain
Ġgerecht elijke
H R
kle in
waard elijk
Ġgel ieve
histor ische
leg ger
Ġbev rijden
Ġbe wegende
qu entie
Ġver overen
Ġf air
ĠY v
Ġover wegingen
Ġgemot iveerde
ĠD insdag
stellen d
il ter
\ "
B ron
ve cht
ĠLand elijke
zeker heid
Ġer onder
Ġdr iek
ĠGoed koop
Ġp oetsen
Ġlesb iennes
Ġzint uigen
ĠL um
T unes
R ob
cu us
sch ild
Ġrac isme
Ġma chin
Ġsecret ariaat
Ü ¶
Ġgod delijke
Gro en
Ġdicht e
Ġdi ffer
h it
Ġonder nomen
Ġben ade
Ġeffectie ver
ĠEventu eel
m olens
Ġafval stoffen
l oo
besten dige
al iter
ouver neur
al ers
Ġkap it
Ġfascin erende
G S
Ġru ss
Ġfietst ocht
Ġwar mer
Ġher roep
ĠCh allenge
Ġdienst verband
Ġop d
Ġaan een
Ġch olester
ĠJe ff
Ġsch reven
Ġm iste
Ġmov ie
l an
Ġb ind
Ġn ie
l ichaam
Ġsex chat
Ġprobleem loos
Ġdef ensie
ĠW ay
Ġh ul
oc iale
Ġambassade ur
Ġbinnen komst
Ġbe sten
ĠL isa
Ġhoog uit
Ġver gemakkelijk
oper atie
ĠDoor n
ĠB udget
sp ullen
IN E
Ġc rit
eem se
Ġorganisator ische
Ġbed oelen
ĠD own
c ript
Ġh oorden
ĠL ink
Ġgest ort
ĠSchot land
l abel
Ġhe vige
ĠSp el
ograf isch
Ġcrimin ele
Z oekt
ĠH erv
chn ieken
ik er
Ġinsp elen
ĠKl ass
ĠLand elijk
Ġstam men
Ġbuiten lucht
vriend elijkheid
ast iek
eed schap
b ijdrage
Ġfl ash
ĠK h
ine zen
Ġlaptop s
ten sie
Ġonzicht baar
â Ĩ
Ġabon n
ãĢ ģ
i kend
ĠF R
ĠE ssen
Ġdoor st
K amer
Ġover dekt
Ġge dat
gevoel ige
ĠgeÃ¯ m
ĠBlauw e
fra ctie
Ġloodg ieter
K O
Ġ197 4
ĠE vang
Ġwint erse
Ġbl u
od ox
Ġhy giÃ«n
ik baar
Ġvl oog
Be schrijving
Ġe b
Ġl ady
Ġvrie zer
ĠSl aapkamer
Ġinzien s
ant i
ĠEconom ie
Ġbeeld houw
K un
ge zien
gel de
Ġk ado
Ġmen stru
ĠGe west
Ġwed den
ha i
Ġgroot st
ĠW en
Ġbe ffen
Ġkerk elijke
op ie
Ġtoegank elijkheid
Ġneer gelegd
ion al
Ġrazends nel
advert enties
Ġop getrokken
Ġbe ken
voor al
ĠVerk rijgbaar
Ġbese ft
M art
Ġru iten
ĠW assen
ĠG ang
Ġ197 2
Ġher kend
Ġbeant woordt
Ġaf ronden
rie zen
ĠSch akel
ĠF A
Ġteken t
ĠAchter hoek
Ġgef eliciteerd
St aat
ĠU K
ĠPor sche
Ġge schapen
Ġst ief
pr iv
ĠLa uren
ĠAn ale
Ġmaat st
ĠBeg ele
ĠSand ra
v rienden
k alender
ĠTh is
nation ale
osc open
cy cl
hand elaar
ĠS oft
arbe id
Ġsnel heden
i ams
geb ruikt
Ġtoe gestuurd
Ġmet al
im al
Ġst aaf
Ġm ank
ĠK oe
Mob ile
ĠValle y
Ġgeindex eerd
Ġnag ellak
Ġconfigur atie
Ġbet rof
valu atie
Ġp oes
Ġkop pen
Ġonder tekenen
ĠMe iden
ĠVolks gezondheid
Ġgig antisch
Ġz onden
Ġbe kennen
Ġherken ning
Ġinge stelde
âĢ ¯
st ore
Ġcade aus
Ġw olf
Ġbez ochten
Ġk ikker
ĠSt rip
Ġment or
ol uut
Ġstra ffen
á »
advis eurs
ĠN M
eu ge
Ġaan houden
w apen
Ġet age
Ġbl aden
Ġgr ind
Ġlich amen
oc ument
c are
Ġ197 3
bet h
Ġex cl
ann el
waar onder
ĠS MS
ĠM agn
y d
Ġ12 3
zek erd
ree pt
Ġbew aart
pp ro
or ium
Ġverl ichten
Ġsc Ã¨ne
Ġvoort reff
ĠR iver
ov ing
toe stellen
Ġzom erm
Ġass ist
Ġboet es
Ġverz w
ĠD anny
Ġpsychiat rische
kl assen
Ġade men
Tegen woordig
Ġg sm
ĠB un
ĠX P
ver ancier
autom aten
Ġautover huur
ĠL aw
ĠBrazil iaanse
Ġtra uma
Ġkw ast
Zelf s
ĠCath arina
Ġonder druk
all ers
Ġsch aatsen
ĠGeweld ig
ĠSar ah
Ġbeschouw ing
Ġges ign
uk i
ij gen
D onderdag
Ġeduc atieve
besl ag
w ogen
water staat
H ou
ĠB oot
is el
del ige
ĠM anu
Ġlekk age
Ġb out
Ġuit stel
ĠL O
Ġin een
Ġd aalde
Ġkond igde
Ġveel bel
Ġwoensdag avond
Ġesp ress
Ġeind eloze
Ġopge wekt
pr incip
Ġma y
Ġdoorb raak
h ok
ĠH ollywood
hand elen
ĠHolland s
H ele
Ġnauwkeur ige
Ġdre iging
ĠB oon
Ġh ost
ä »
vlucht en
Ġfacilit eren
ĠHom o
Ġ( âĢ¦)
Ġall round
Ġkinder dag
verd rag
ĠAl b
eken ing
Ġi Deal
ett y
Ġuit gaat
Ġinz am
V eil
Ġrealis eert
Ġwereld oorlog
ĠT antra
ĠIn houdsopgave
u en
ĠJ im
Ġomgev ingen
Ġzu ivel
Ġ antieke
Ġcade aub
Ġhard nekk
ĠOC MW
ĠMul der
univers iteit
ĠR oze
ch eck
Ġspijs ver
Ġinter venties
Ġbel icht
ikk ers
Ter ug
rysl Ã¢n
pare erd
af druk
Ġb ilj
Ġsle ep
behoe ften
Ġgeprijs d
Ġtoegang s
ĠGele gen
ail les
ĠLeid se
ĠPart ijen
adres sen
ĠA le
Ġ196 7
Ġf rit
Ġf ax
ĠV iv
ĠGriek s
Ġf asen
Ġimmuun systeem
le et
Ġgewicht s
lie p
Ġvakk undige
Ġuitge zocht
ĠS erie
ĠD iv
Ġst ip
k at
Ġbord uur
ĠPet ra
be k
Ġcal cium
Ġse p
Ġhorm onen
Ġuitvals basis
Ġw iet
Ġbis schop
ĠBrow n
Ġer ed
Ġaf zet
pe il
Ġorden ing
Ġsk iÃ«n
un it
ĠOl den
Ġpr enten
D ownload
Ġlab els
Ġgew richt
ĠEcht e
Ġgesch oren
ie kt
St art
ĠIb iza
Ġop kn
Ġdeel genomen
ĠE euw
ra der
ĠZ eeuwse
EL IJK
ĠNov ember
Ġpoliklin iek
ĠKat wijk
rad io
fin anc
ĠGe heel
Ġinkomsten belasting
Ġu ien
Ġauteurs recht
ĠMe i
Ġuit gelezen
ĠG eil
ĠCub a
Ġrecht spraak
Ġwer kend
Ø ª
G u
ĠIn ge
Ġdou ch
ĠC hem
Ġaanvaard ing
Ġgebruiks aanwijzing
le kken
vlie gt
Ġre pl
Ġra uwe
ĠBe ij
weten schappen
j acht
Ġbelasting dienst
Ġonderbouw ing
Ġkle p
Ġpr ik
Ġdoor bl
A ch
ĠT OP
tra ject
ĠW E
ale er
200 5
ĠChrist elijke
Ġmass eren
ĠZ om
Ġoper eren
Ġv aardigheid
ver schijn
Ġmee werken
Ġonsch uldig
Ġdess ert
Ġsnell ere
Ġon duid
f its
Ġver pl
Ġko ele
Ġs ab
Ġmarkt plaats
oo dt
Ġaanv oelen
Ġges itueerd
Ġuitge drukt
Ġbevor dering
ĠE S
Ġre search
Ġn oe
cul atie
Ġthe aters
Ġk ooi
Ġcoach es
Ġhorm oon
g ame
Ġbud g
ĠB is
Ġmus ic
ĠBrit ten
Ġin get
pe ctie
Ġopge groeid
ĠG eeft
ich es
k ans
el baar
and y
Ġwat ert
Ġcon vers
Ġbe middeling
Ġbeleven is
Ġlief ste
ĠVer halen
m ijnen
Ze ker
ank a
Ġpl ac
verb etering
ĠH alf
Ġlunch en
Ġversch ijns
O k
besch ikking
od af
school se
Ġbelang hebbenden
ĠNoor se
ier te
Ġna re
b onen
ĠVl oer
ĠBit coin
ĠM os
mot oren
f ers
Ġnieuws brieven
ĠJac ques
ĠN ut
ĠSl ow
200 4
Ġred ding
oord elingen
Ġwinkel wagen
ĠN am
o oms
aat je
b ul
Ġillust ratie
Ġsp ul
EL D
Ġschak elt
Ġstik stof
Ġkle den
> <
Ġac ute
plaat je
ĠV ond
Ġst yle
recht ers
Ġw raak
Ġverhuis de
Ġment aliteit
fl ow
Ġm i
ĠRoemen iÃ«
o am
Ġparkeer garage
Ġhoek je
j pg
Ġtext uur
Ġl i
bere iding
Ġverschijns elen
ĠZ es
ve y
Ġaan voer
.âĢĻ âĢĻ
Ġmat rassen
Ġbar st
Ġho sp
ĠVer antwoord
Ġverwij t
l ights
Ġzorgv uldige
Ġaan winst
ber gt
ve stig
Ġopst art
over trek
Ġdoeltre ffend
ĠA bs
keur de
ĠMe ijer
ĠL A
brug ge
Ġantib iotica
Ġz ielen
Ġon gelijk
ĠO L
Ġbouw de
ĠA ri
. ;
Ġsl ijm
ite ur
Ġgebruiks gemak
Ġmag ie
ĠD etails
Ġte ch
Ġwaarschuw en
Ġleg aal
Ġgen en
ĠI ris
Ġsn ijd
Ġge wijzigde
ne uzen
zelf sprekend
heim er
Ġang sten
Ġachter in
oft en
Ġinter im
Ġlevens middelen
Ġpitt ores
aan slag
he ide
Ġsollicit eren
Ġwoning corpor
Ġonge kende
ran de
ĠVre de
st a
on ia
Ġop maak
ĠKe izer
wikk eling
R IJ
ĠM es
Ġpen nen
Ġd aders
Ġv aag
Ġpant y
ĠGew icht
f out
Ġbedien d
ĠWik ipedia
ong eren
ĠSer ver
um ps
P T
sch ieten
ĠO pl
Ġste k
w illen
ĠConne ct
Ġconst ructies
Ġopzicht en
in se
Ġnacht rust
Ġecht scheiding
Ġver oordeling
Ġoor bellen
Ġmil de
Ġuitstap jes
v iss
Ġst allen
ank ing
Ġeen d
iet st
Ġdurf de
ĠBlijk baar
Ġment aal
K A
Ġkr ingen
Ġge gener
çļ Ħ
Ġadministr atief
ven d
ij de
Ġdomein en
ĠMon ique
Ġwat ers
verl of
weer der
Ġverdriet ig
Ġgepass ion
Ġk oord
Ġb oeien
Ġban aan
z ad
sprak elijkheid
Ġeduc atie
Ġbesp reekt
Ġw ax
Ġvol um
Ġste ile
Ġsucces sen
ĠOu dere
Ġwaarschuw t
Ġperc elen
ĠG SM
Ġc our
, '
Ġuitn odigen
itu te
ik o
ĠK os
open ing
Ġduister nis
Ġraads el
Ġmilj arden
Ġanal oge
Ġspel regels
ĠB BC
M aandag
warm te
Ġvak bonden
ken baar
io den
ĠSh ar
Ġafsp eelt
Ġlangs komen
Ġvoordel iger
Ġte goed
Ġelekt ra
Gener aal
Ġkort ste
Ġg ooi
Ġprevent ief
Ġdinsdag avond
Ġinter rac
ĠLode wijk
em de
odaf one
ge sproken
pat ronen
Ġorg ie
ver ordening
A ct
or ings
IS CH
actie k
prof essionals
Ġd armen
Ġg rachten
Ġmar ine
ĠTr io
ĠT urn
Ġversn ellen
on ze
ut ies
ab it
le kker
b ike
ĠSy rische
wee s
Ġverkleed kleding
Ġz ad
Ġsne aker
ĠChamp ions
Ġd olf
D B
Ġin door
Ã¡ Ã¡
Ġfrustr atie
ĠHem el
Ġged uurd
Ġrecht op
Ġschoon gemaakt
ĠcreÃ« er
ĠP raag
een de
b ot
ĠP resident
Ġmag nes
Ġl ongen
sp ots
ĠQu een
ĠHor eca
f ree
Ġbe ek
Ġu sb
Ġhorizont aal
ĠD R
Ġonder meer
Ġinb oedel
aro k
Ġp alm
Ġamat eurs
ball ers
Ġstem pels
Ġsn apt
M oet
Ġatmos feer
een se
ad i
Ġo t
ogelijk heden
eter a
Ġkennis sen
ĠV uur
Ġr oem
ĠC ust
zet ter
Ġobst akels
Ġgan se
Ġpresent eerde
Ġb oeg
?? ??
Ġbez orgt
lem ma
Ġb ont
Ġvloei bare
Ġmult idiscipl
Ġdra ger
Ġvle ug
ĠSeb ast
Ġeen duid
Ġ19 65
Ġjeugd zorg
Ġprestig ieuze
Ġb ieren
Ġcal am
Ġterugk erende
ĠBo urg
ĠA ange
Ġ18 00
Ġfac ul
sl ang
Ġpl ukken
ĠStart pagina
Ġsc ene
ĠSk ype
journ alist
in ema
Ġpanor am
ĠDe ut
ĠÃ ¢
Ġopge hangen
Ġafge wisseld
J E
Ġker nen
M omenteel
Ġmac ro
Ġmill imeter
al ine
Ġboek jaar
Ġongewen st
u ite
ĠE indelijk
ren ovatie
ĠA ction
ĠT ai
Ġbev red
ail y
kan alen
Ġk raak
y en
Ġmult ination
Ġinv als
Ġz ink
spro ject
fig uur
Ġe ist
Ġhou se
v elt
ere d
comm issaris
EL L
{ "
Ġc r
ĠVl issingen
ĠZil ver
Ġ197 1
Ġst anden
Ġmisl ukte
ĠVeg as
har ige
L ieve
ĠReg ering
ST E
Ġte weeg
W eer
v E
Ġdel ic
Ġbrouw erij
Ġd okters
ĠS ittard
Ġacadem ische
Ġwen den
Ġrond lopen
Ġop hang
ĠC orpor
lijst je
IT E
Ġber ucht
tek sten
ĠZ oo
Ġfysiot herapie
j assen
Ġvermeld ingen
ouw d
Ġherzien ing
Ġaan ste
Ġverb ieden
Ġsche pping
ï »¿
Ġpij pt
gev ingen
Ġmoest uin
Ġgar derobe
Ġmob ile
Ġkonink lijke
iss a
ĠSo und
z anger
ĠPer u
ĠArgent iniÃ«
Ġb ull
ĠAn g
ĠSol utions
Ġrand je
- ).
we ide
ĠS ara
Ġmet sel
Ġhe f
Ġbron s
Ġsch eren
Ġoverzicht elijke
Ġsm akelijk
ĠDan iÃ«l
Ġmacht iging
ver anciers
Al tijd
gel oof
Ġpap er
Ġdier lijke
Ġhu urovereenkomst
ĠPiet ers
Ġonder water
Ġfir st
sch oots
eeft ijd
Ġmagnes ium
ĠL ijst
Ġgemeente bestuur
rie d
Ġcontrole er
is k
Ġinh uren
om sten
Ġwaar nemen
AN G
Ġdem ont
Ġvrij en
Ġstrateg ieÃ«n
Ġhalf jaar
c riteria
ĠZuid oost
ring t
Ġzondag middag
Ġzo danige
Ġslag room
Ġst roming
Ġmijn heer
Ġged iplom
Ġmonit oring
beur ten
Ġdoor gebracht
Ġim pos
erk erk
th ee
ran e
Ġadequ ate
un ingen
Ġonderbouw d
Ġvoorzitter schap
ĠÐ ´
gel eerd
Ġlad der
y ou
ĠO ld
st eren
ze ilen
Ġop geleide
Ġavontuur lijke
Ġbe macht
Ġverpleeg kundigen
Ġdes ondanks
iv els
mob iel
ĠoriÃ«nt atie
op s
ĠNieuwe gein
Ġvernieuw ende
t ele
Ġgrens overschrij
Ġasp er
Ġhen nep
ab or
v allig
ze il
gele s
Ġsl angen
zen ders
Ġleer zaam
Ġmantelzorg ers
Ġ196 4
norm aal
Ġblog post
Ġhe ffing
Ġaf rekenen
ĠP ublic
DE AL
Z H
ann etje
Ġ25 00
Ġe zel
Ġkl itten
ĠA re
ĠPre cies
ĠPl at
Ġben ch
Ġontspannen de
Ġde press
ĠF al
Ġz usters
ĠRe view
Ġcomp ilatie
Ġgesl oopt
it eld
Ġverw ant
Ġverle ende
A lex
Ġkrist al
Ġho stel
ĠOn langs
ĠC ON
Ġonder ver
F in
Ġij zeren
Ġplatte grond
ĠcafÃ© s
ĠS ong
ĠE sc
ug ht
M L
il eren
Ġex cuus
av iljoen
Ġgal erie
ha ve
Ġbord je
Ġopen lijk
Ġvol ken
ĠR ozen
ĠLEG O
R uim
ĠOostenrijk se
ĠL it
gra den
ij pt
C ent
Ġtegen deel
Ġv atten
Ġvern oemd
b ou
ul um
Ġver vangende
Ġkat oenen
ĠKe ulen
Ġcogn itieve
uld igen
ĠG esp
vaard igd
Ġgebruik ten
V erd
ĠCom itÃ©
ag d
Gen iet
Ġnatuur gebieden
ĠDon ker
Bij zonder
Ġspir aal
Ġsuggest ie
vorm ig
Ġsier aad
Ġge al
Ġover brengen
Ġpomp oen
je b
eu vre
Ġabs orb
ĠKle uren
Ġuitsp reken
ĠPortuge se
Ġschoon heids
Ġbl ouse
Ġv aten
ien ne
ĠDan ce
Ġver slaan
Contact gegevens
Ġautom atisering
âĢĿ )
ir s
spec ifieke
Ġmon teurs
verst erk
Ġsp ar
Ġintroduc eert
Ġvol staat
ĠF irst
Ġdoor gang
ĠM all
ies el
ĠHe ide
W er
ĠM ade
weten schap
ĠSt raat
in cl
ken n
ĠF ox
Ġdi lemma
ĠM ill
ĠV orm
ge haald
Ġonbe g
Ġfol ders
ol et
Ġbehouden s
ĠP ant
ce an
T T
d ukten
Ġte kende
ĠG es
ĠG ord
ĠV ir
Ġgar anties
P ark
F S
Ġtoe spraak
Ġuit gaande
W oensdag
gew eld
Ġkon ings
ĠL ut
be schouw
em ail
Ġversn elling
Ġsp elling
Ġaut os
Ġwezen lijk
pers on
w innen
Ġkle intjes
lok aal
Ġopt ische
Ġheu pen
Ġbek leding
ĠSim pel
Ġw onnen
Ġpedagog isch
Ġhoor n
Ġzon wering
w ielen
Ġsan cties
ĠN AS
v K
Ġis s
Ġbless ures
Ġmy st
Ġb h
Ġt rachten
Ġbem anning
oll ow
Ġaanv oelt
plaat jes
Ġz gn
Ġhen gel
ĠO scar
Ġweg gelegd
Ġtoe staan
o uren
Ġpel gr
en g
Ġb oren
l asten
Ġhouden d
Ġdier bare
aff ing
Ġcir cus
sy n
un s
ĠChar l
ab a
Ġin leg
Ġvolwassen e
ĠR oll
Ġverh uurd
ĠH ow
Ġoverb odige
Ġt ub
ah n
Ġde e
ĠO uden
ĠL ed
ĠEdit ion
Ġal hoewel
Ġonverm inderd
Ġzomerm aanden
Ġm un
ĠF ocus
Ġgl orie
P rachtig
box en
aan gifte
ĠB M
ĠDub ai
r io
Ġbet wist
Ġ10 1
s ong
Ġbestuurs recht
Ġmis leiden
rijp elijk
Ġopzet telijk
Ġcl ose
t i
ĠKrij g
Ġperiod ieke
an ker
ĠEen s
r etje
m men
ĠEx tre
ĠMijn heer
An dere
Ġgarn alen
Ġspe ktakel
sp r
Ġk oest
Ġuit gesteld
on ge
ĠP oet
sp ie
c ommun
Ġresult eerde
Ġbinnen land
rid ge
ĠHarder wijk
W E
Ġknel punten
pen de
ĠJ en
Ġbon ussen
k ocht
x it
g asten
vallen de
ĠDaar op
Ġlig ht
ĠA H
ĠH ay
Ġpl afonds
Ġmed io
Ġsch enk
ĠAgent schap
Ġblack jack
stal ig
Ġzen uwen
Ðµ ÑĤ
W ist
ĠD ans
Ġbl ow
len en
ĠAl fa
Ġproductie proces
ĠDoc ument
ĠMar l
Ġlever ings
Ġfamil ielid
advert entie
iere geling
Ġem mer
Ġsl acht
J ouw
Ġfl uit
Ġvol waardige
g oud
Ġsu ite
ĠAf beelding
Ð ±
Ġrot onde
Ġruim schoots
ak eld
cont in
Ġamb t
Ġmiddel eeuwen
o chter
Ġdecor atieve
Ġg idsen
K EN
Ġuit zetten
ĠRuss isch
Ġk alf
ĠA ru
Ġconfront atie
Ġsl ing
Ġv d
Ġaan geleverd
ĠGeme enten
Ġ quiz
In formatie
ĠGen ees
oen de
Ġmult ic
Ġuit val
Ġbel gie
Ġvoor doet
Ġprob eerden
Ġre v
w riter
ĠT her
Ġill usie
ĠO d
be zoeken
Ġdep artement
na uw
Ã© Ã©l
F D
kt ober
ĠL iving
el ige
Ġbesp reekbaar
d ru
Ġse par
Ġblad zijde
ĠH ang
Ġfarm aceut
Ġaf geven
Ġbelang stellen
Ġvoor z
d ress
Ġl acht
Ġgeass oc
rakt ijken
Ġe e
Ġvervol gen
Ġk uur
Eer der
st ract
Ġl onen
ĠInter ieur
mech anisme
oe stel
Ġwenkbra uwen
g om
Ġgit arist
ĠDuur zaam
ĠT iel
alis eert
Ġgeblokk eerd
. âĢ¦
Ġuit pakken
Ġin geb
Ġwaar naar
ĠAn geles
Ġtele fonie
Ġvakantie woningen
ĠV alen
ĠWest land
ĠAv ond
ĠMo unt
Ġim provis
P eter
ĠWillem s
Ġpen et
Ġaantrekkelijk er
Ġcl own
Ġdoorsn ee
richt er
Ġru ige
ooi ing
m oe
ĠJan e
Ġfab rieken
Ġe indt
com itÃ©
ĠvariÃ« rend
verse el
pectie ven
Ġverst oord
Ġl iving
Ġrelatie gesch
Ġvoet gangers
Ã¶ l
u eerd
Ġvraag stuk
Ġf auna
Ġcond ition
Ġbuiten zijde
Ġa rab
ap er
aft rek
g ames
ĠB es
Ġaf weging
f ox
Ġk oelen
ĠiP od
Ġkl etsen
ruim ten
Ġbal ken
ĠLekker e
ĠIndu strie
å¤ ©
Ġbi od
W et
Ġgevangen en
Ġdoor gaat
ĠL CD
ag u
Ġafgev aardig
ĠSing apore
sc anner
Ġknuts elen
Ġcrimin elen
ĠF arm
ĠG ef
ĠP U
ĠAct iviteiten
Ġt s
echt e
** **
ĠM aakt
t rans
vre de
Ġdr ang
Ġpitt ig
iot herapie
zoek er
str aling
Ġst okje
Ġdron e
Ġbed rukt
Ġgr and
Ġstr ips
book s
Ġverwezenlijk en
k aar
ĠK euze
ĠUr ban
ut sel
ĠH TML
Ġgeg oten
ĠGent se
EL F
ĠG ooi
ĠV VV
g od
stij ging
ĠDe fin
Ġge esten
Ġsch ier
Z et
plicht ige
Ġherv orm
V ert
ĠW mo
Ġcab ine
I ES
ip er
Ġkeram iek
ĠS oest
ich en
ĠG rijs
Ġsch elen
Ġwol k
ink omsten
Ġs mer
å ¹
raa kt
Ġ11 5
Ġdoorlopen d
ĠT ekst
t huis
Ġ( !)
Ġaccept eert
D i
p k
ĠHen ry
N orm
weer gave
Ġkennis makings
be handelingen
: :
ge el
Ð° ÑĤ
Ġtabl etten
Ġover grote
Ġliefde volle
Nederland s
Ġin houden
ign on
norm ale
ĠP alm
Ġnar c
e ars
Ġsh oot
Ġtom aat
Ġte ef
vari ant
Ġdru ppel
ĠA sh
Ġvoor schrift
ĠSch oenen
Ġfinancier ings
g mail
ĠSch ade
F it
ra ine
Ġoverw innen
od or
ĠK ost
L ang
Ġwink eltjes
ĠEn k
ĠP rix
Ġkool stof
an as
ĠP oint
Ġmon sters
s ur
ĠE sp
ĠT ony
Ġi Tunes
A z
Ġwij de
ĠD ark
Ġh ind
Ġkenmer kende
ijk erk
Ġseizoen s
Ġjal oezie
Ġsyn droom
ĠS ven
ĠD ream
oc o
ĠFre derik
om schrijving
sch uur
pen d
T ja
Ġreport age
ĠBox tel
Ġrechts zaak
Ġle kken
oll ig
Ġpannen koeken
ĠLaat st
Ġaan gren
Ġ( ...)
Ġ ×
iss ion
uit es
Ġgrond wet
er y
Ġre us
b aring
ĠD raag
Ġ Ï
ĠMach ine
ĠB ow
Ġover loop
Ġwe kker
Ġsamen gewerkt
oze s
ĠG erecht
ĠP y
Ġbev ond
verb anden
Ġchrist endom
Hier bij
Ġstakehol ders
s bergen
ĠH E
Ġout s
wijf el
ĠInnov atie
ĠB oeren
Ġ12 8
Ġk oeken
ch ip
az el
g assen
ar g
Ġpro tot
is hed
gel ingen
ĠEH BO
ina zie
Ġpublic iteit
ction eel
Ġon gez
Ġb oeddh
Ad visor
w id
Ġij z
Ġrecht erkant
Ġdesign s
Ġsp ins
Ġop stap
Ġob jectieve
em ot
ĠS hemale
Ġlopen d
C L
Ġgec or
Ġgeh uurd
Ġtegemoet koming
ma kende
ĠToy ota
Ġbehoor de
ĠGesl acht
col or
Ġlog ica
kl ok
Ġtelefon ische
Ñģ Ðº
ele ss
ĠA st
Ġverwij zingen
ĠNieuw ste
Ġpar ad
Ġschak elaar
Ġgehe cht
Ġgep raat
Ġjaar gang
ĠP aas
ar in
Ġoverwegen d
Ġbegins elen
ĠSn ijd
oren ce
Van wege
roe i
genees kunde
vl ag
ĠL inden
ĠL yn
otos hop
Ġbet rapt
Ġgerestau reerd
Ġh anger
Ġsecund aire
ĠK unt
Y ou
Ġdro p
Ġz eem
Ġd iale
ĠÃ©cht e
Ġopgev ol
af stoten
unn y
den s
ot ograf
Ġoversch reden
kn oop
Ġu trecht
Ġ4 000
ĠJaar lijks
Ġstappen plan
Ġdeb ut
Ġna zi
dis play
Ġbuiten gewone
h arm
anc eerde
Ġwer f
au de
prof ielen
ĠK W
slaan de
ĠCle an
ĠBre ak
Ġdoel man
m ooie
Ġde zen
Ġsp ouw
ig a
Ġinstru cteur
Ġsp oelen
n on
Ġge sn
Ġs oe
Ġmar ge
ĠO F
Ġgeb ieds
ĠJ un
m ir
Ġeen zaam
Ġfot ob
Ġenerg iele
ĠT ax
ĠSec ret
Ġst elden
Ġonder stel
) -
on dt
ĠT an
ch i
ig ste
te elt
Ġcertific ering
tot aal
de b
ĠLeer lingen
ĠÃ¨ n
Ġfranch ise
ter ug
Ü Ŀ
Ġt ut
Ġra uw
Ġelast iek
Ġwhis ky
ĠJas per
hand leiding
hol m
Ġtussent ijds
Ġoper ationeel
ĠB I
av i
Ġevang elie
Ġb onds
Ã¼ m
Ġopgest art
ĠM oon
Ġo euvre
Ġverdie pt
ab ility
Ġdon atie
l im
Ġhe ffen
oo oo
Ġap pl
Ġbew ogen
part y
u h
Ġhand bereik
ĠR GB
Ġouder wets
ĠDatings ite
Ġbouw werk
ĠNederland sche
ĠD uid
Ġmail s
ĠL l
Ġgesch oven
Ġdak bedekking
pos it
Ġst rijken
Ġvervol gt
Ġversl eten
Ġaf neemt
Ġgord ijn
ĠIndu str
Ġst ock
Ġvak mensen
Ġtro tse
Ġvul kaan
w erende
je wel
Ġcap uchon
M eest
ĠI ke
ĠT oelichting
K waliteit
ĠG ras
Ġover gegaan
Ġx x
um atische
ĠTur ks
Ġbeoord elings
Ġinwerking treding
Ġprevent ieve
Ġontwer pt
Ġbegrot ings
Ġpl ot
Ġkantoor ruimte
bar st
Ġverkle inen
ä ¹
Ġsynth etische
Ġafle veren
ĠAal st
ĠR v
Ġbel oven
Ġzit hoek
ĠD irecteur
ĠW enen
Ġconc ern
Ġgemeen schappen
wijd te
sp orten
Ġontbij ten
ĠVerg adering
ãģ ®
Ġan us
uc king
og o
Ġzen ding
ĠN iels
oorde vol
Ġop vangen
ĠMarkt plaats
kl are
Ġwerk zoeken
conom ie
Ġmat te
Ġmaandag avond
il ia
Ġmet erkast
Ġjonge man
Ġmilieu vriendelijk
Ġp ier
Ġarch ieven
ĠCons erv
ĠAnt i
ĠDe cor
Ġvert oeven
Ġt un
Ġpro spect
Ġdre igen
n at
Ġre uze
de els
Ġmiddel punt
Ġtegenover gestelde
Ġdat zelfde
ĠVolle dig
Ġbel anden
omm y
ĠT R
Ġtijd loze
Wil lem
Ġboek jes
Ġamb ts
Ġgeautomatis eerde
Ü ¢
Ġvoor zet
Ġon wijs
M B
Ġstads centrum
Ġopgevol gd
gez ins
Ġhy draul
Ã£ o
be houd
Ġmisd rijf
Ġom wonenden
ĠSol ar
Gro ot
Ġstraat jes
ĠP im
Ã¤ n
euge ot
ĠV G
ĠT ay
V roeger
Ġop komende
Ġonder dak
EL E
ĠB uur
mp jes
Ġal fab
ĠAr thur
zijd se
ĠEn ige
Ġ Å
Ø ¯
Ġbewerkstell igen
ĠWill iams
bouw ers
Ġbinden d
Ġuit ingen
pro cess
ĠIn derdaad
Ġaanged reven
Ġop hangen
Ġvervang er
in ne
Ġaf stemmen
Ġde kt
Ġs en
ĠNA VO
f ijn
Ġm odem
centra les
ĠRicht lijn
Ġstort ing
Ġvitam ines
uck y
ĠTechn ology
s ol
Ġverb inten
burg h
ĠFerr ari
E cht
pl as
Ġkan eel
Ġbro k
Ġbi bliotheken
Ġbe oefenen
Ġgek ost
sc ore
ĠV irtu
f ruit
dit ionele
du iken
erv aringen
ĠKl achten
Ġuit bouw
Ġzon g
ure erd
Ġtro on
Ġgep re
Ġbetre ffen
b oord
Ġspl it
Ġconcl uderen
Ġop houden
ĠG est
Ġdin eren
Ġbi om
g aten
dig d
ĠVerv ang
re er
Ġd wer
Ġdrast isch
Ġk oer
ĠPalest ijnen
ff ings
Ġvoortvl oeiende
len ing
ĠAl t
Ġbeg l
h aken
st alen
o a
ĠC aro
afet y
Ġvl oot
Ġlink erkant
ĠBeat rix
] [
g ooid
Ġaf hank
Ġstro ok
Ġreinig ings
Ġr ange
onom isch
k ook
Ġaccount s
Ġver geven
ĠMen g
St ap
Ġsamen gevat
Ġthuis ontvangst
ix t
Z O
ĠU IT
Ġgo al
Ġk rom
ĠK ook
Ġversterk er
in igd
ĠD ir
Ġkook plaat
ĠAr ts
ĠL ub
ste kende
Ġpopul atie
H B
Ġpall et
g aaf
U IS
Ġg oot
Ġs ize
im in
gek regen
Ġall erm
ĠB uss
ĠRe p
ĠK aart
Ġdak terras
Ġt ikken
Ġin schrijvingen
ett ig
Ġuitstap je
Ġcompro mis
Ġkap sel
Ġvoorn oemde
k andid
l oor
Ġcab aret
d w
Ġomgevings vergunning
Ġin stemming
ĠH ee
Ġs oul
Â ¬
H oud
ĠE v
Ġachter ste
ĠVl iet
P re
Ġk rie
Ġaft rekken
Ġgerec yc
ĠT T
Ġvor k
ft eling
Ġkwaliteit seisen
V ul
k ade
in ers
Ġro mans
Ġtr ig
ĠSp ace
k we
Ġk ub
ĠV U
ru stig
gez in
ĠTsjech iÃ«
Ġgr ie
Ġlangzamer hand
ĠSm ilde
Ġje ug
Ġvervol ging
Ġoog sten
bere kening
Ġoef ent
Ġinformatie ve
Ġprof eet
sluit er
za Ã¯
b is
Ġl opers
Ġl ist
Ġon gebruik
Ġf ire
Ġbloot gesteld
Ġetik et
ĠPe eters
ĠJ umbo
iv ia
ĠProvinc iale
ĠDec ember
Ġgroot e
Ġsch reeuwen
Ġkom kommer
ĠMo derne
ĠD ik
Ġor thop
at ings
Ġre cher
sl apen
Ġzak jes
Ġanten ne
Ġd onder
Ġonder zijde
Ġuitge oefend
kings kracht
ĠV ene
Ġoper aties
Ġdienst verlener
Ġhoud baar
Ġklassiek ers
ĠF ol
Ġtelefoon tje
Ġnag aan
Ġchrist elijk
zonder d
Ġzee f
Ġrout ine
Ġbund elen
ĠL is
ĠA RT
mede verdachte
Ġnaa sten
Ġhier naast
Ġkast je
Ġhe kel
ĠR ussen
Ġrecht vaardig
Ġkop telefoon
ĠDoet inchem
Ġglan zend
ĠPur merend
ĠC ees
Ġnu cle
sp agina
Ġachter hoofd
Ġprop ag
Ġw i
Ġtherm ostaat
Ġbijge staan
Ġg ooide
ste st
ĠO og
Ġmet af
Ġmarkt leider
Ġsc ores
1 10
Ġt Ã©
Ġpresent ator
Ġf us
ĠGirl s
brow ser
le zing
Ġbou levard
ĠVer a
voor raad
Ġvoor jaars
wor ds
Ã »
Ġband jes
fact oren
âĢ ¨
Ġbe oordeelt
Ġinventaris atie
pl anning
raa ien
Ġventil ator
ĠF NV
verantwoord elijke
Ġhal te
Ġgere inigd
Ġvereen voudig
Ġspot ten
ĠS R
Ġgebruikers naam
ĠMe ppel
ĠOnder nemers
Ġ aap
Ġtussent ijd
Ġk urk
V ers
Ch rist
Ġbr illen
Ð¾Ð »
d ist
Ġwaar neming
ron ic
Ġgev orderd
S im
ĠS av
ĠD ries
Ġopgel aden
bas ed
ĠSex date
ar r
Jul lie
Ġmand aat
Ġs app
re cl
el iers
Ġbe middel
Ġsch aak
Ġander halve
Ġm ol
ĠChristen Unie
len d
st ocht
her lands
Ġprost itutie
D irect
ĠW a
Ġd amp
aad je
yl an
ĠOpen bare
Ġwater stof
Ġbezig houden
Ġre ductie
ĠSpec ificaties
fin ale
Ġkru llen
ies sen
Ġgewoon weg
Ġbeleg ging
Ġou ds
ĠProf iel
r if
Ã ī
g ooien
Be stel
itu de
ĠTrip Advisor
Ġgeperson aliseerde
Aller eerst
sp ark
ĠP rest
Ġnak omen
ĠF ris
Ġvoortvl oeien
Ġopslag ruimte
Ġrond jes
Ġjur ken
Ġinvest eert
ur ig
ĠHoofd dorp
Ġge in
ĠC ob
Ġverl iet
ĠHeer lijke
ĠF ijne
Z E
o stel
ĠHen ri
f est
agn ost
ĠHier op
Ġlig bad
rik anten
an ium
arch ie
Ġbep aal
ĠM ama
ĠM aan
Ġopl age
ĠB our
Ġaan recht
Ġp oot
ĠL aan
Ġatt ent
ĠS pl
st ock
ĠAan melden
Ġconsequ ent
Ġmyster ie
ĠComp uter
Ġa ten
w erd
Ġsch aats
mak elaar
Ġge deel
splant atie
ĠOnt vang
ĠC MS
Ġkers en
ĠAl len
H art
ĠF all
Ġvers iering
Ġving eren
Ġgere pareerd
Ġzelfstand igen
Ġvern eder
Ġintroduc eren
Ġbet over
Ġstee vast
Ġovereen komt
Ġkolon iale
Ġbij lagen
ĠR yan
ĠR ap
h um
Ġcerem onie
ib i
ĠB ok
ne ut
Ġben de
ĠGron inger
ĠWilhelm ina
Ġvrij gegeven
Ġversl aafd
ĠPar am
Ġmenstru atie
ĠK offie
C P
ĠMil aan
Ġl ade
Ġsch een
ĠU den
Ġland s
Ġfl ow
Ġqu e
Ġdier entuin
zorg ing
m uis
im us
ĠH aak
Ġopge sloten
Ġsteden bouw
ad der
Ġinf ecties
brand t
ens ap
Ġgehand h
Ġb ow
Ġpan el
Ġb aden
Ne w
Ġfl u
Ġverk eert
Ġ19 14
wij zigingen
cte d
Ġaf rond
Ġwin sten
i op
ard in
ĠSte ph
ĠGar antie
Ġgeld ige
Ġdom me
eer bare
Ġon belangrijk
df un
sm on
Ġgeb aseerde
AN S
Ġgedeelt elijke
ien ing
Ġgedroog de
ant oor
ĠT eken
ĠÃ ĺ
Ġbizar re
Ġgel eefd
Ġmultifun ctionele
Ġmech anisme
Ġvoel den
ĠMar ine
Ġdiep ste
P rijs
ings wet
Ġpat ro
Ġsche p
Ġgoed s
p oorten
ĠM aand
ai res
gar ije
Ġmee geleverde
ĠZ ul
m ogelijke
Ġle pel
Ġle gende
ĠP i
Ġ ans
spart ij
Ġfl ora
Ġwaterv al
Ġst yl
ĠB ie
ĠK ong
Ġmondeling e
Ġbas il
Ġinsp ect
g g
ĠgeÃ¯nteress eerden
ex per
Ġr atten
roe pt
Ġrapport ages
Ġ19 48
uro p
Ġbroe ders
} ,
ĠOnt bijt
sb eek
ĠIn grid
ĠB od
ĠV D
Ġz akt
af il
Ġst uw
schapp ers
on na
gek eerd
ĠJ aren
Ġland ing
ĠSh are
Ġbeg ren
Ġpast oor
Ġtax atie
ĠP E
Ġwat erm
ĠPro test
Ġbou illon
Ġmelk vee
ĠW out
ĠF ruit
ĠCit ro
kussen s
AM STERDAM
Ġvervaard igen
orte feuille
z oom
Ġgem at
Ġz n
Ġpred ikant
ĠIn g
ur ch
Ġb acterie
st re
ĠC yp
ĠBarb ara
Ġboer derijen
Ġgeh uurde
Ġs aaie
Ġstads deel
c ategorie
k oers
Ġzo al
J aar
on isch
Ġgear resteerd
Ġna den
kop ers
Ġdeel de
Ġwiel er
ĠM akkelijk
Ġachter wege
Ġag ressief
p ijp
ĠS in
ar ct
ĠMoham med
ĠM arket
ĠC amera
Ġat leten
Ġop bergen
Ġzwaar dere
Ġh ent
Ġet nische
ĠD M
Ð½ Ñĭ
Ġverh olpen
ĠWoon kamer
ĠC T
Ġweder zijds
ĠR apport
Ġkoel ing
d iner
Ġdraaien de
ĠgeÃ¯ mp
bo ards
Ġdr ingt
Ġborst kanker
9 00
Ġal gorit
Ġ16 00
Ġelast isch
Ġparap lu
ib b
Ġgemeent elijk
s omm
ah l
Ġkn allen
Ġ _
Ġbetrek kingen
Ġs orry
up unctuur
Ġmacht ige
aa ide
z uigen
Ġgro etjes
Ġv mbo
ik anten
bl okjes
Ġnieuwsgier igheid
up date
geld ig
Min ister
ĠM ozes
rik ken
Ġbom bar
Ġin name
Ġklein schalig
Ġs oldaat
Ġlees baar
Ġc ock
utt le
eil anden
Ġgl aasje
Ġm oss
ãĢ Ĥ
Ġwerk druk
H oofd
ĠOm schrijving
Ġbron zen
ĠFranc isco
Ġbenodigd heden
rein iger
Ġl act
eel tje
Ġgener aal
C ol
U X
ĠD rive
ĠAl hoewel
mat ch
Ġuit kijken
act or
ak ra
Ġafzuig kap
spro jecten
k al
Ġgroot se
Ġintell igent
Ġgerecht vaardigd
ĠV elen
Ġopge d
ĠKampioen schap
amen teel
ambten aar
Ġmuzik ant
Ġop druk
Ġvert icaal
ĠW es
Ġjournalist iek
sp ecteur
Ġl elijke
Ġbeh oef
t oon
te sten
pl ussers
pr aat
Ġbescherm ings
Ġgev oed
ous se
ker ings
Ġleer zame
ul erings
str ip
Ġaan hanger
e de
Ġr ie
Ġhoop te
Ġkring loop
Ġst ore
ĠAn deren
K E
Ġve ele
Ñ Ĩ
org an
Ġsl uis
Ġspro okje
Ġco urg
ĠI j
Ġko zijn
ES S
ĠSil ver
idee Ã«n
A rab
ĠL ier
Ġinv ult
ĠHaarlem mer
Ġkrij t
Ġl on
Ġschijn baar
Ġsupp lementen
Ġvari aties
ĠR oc
ĠW oud
Ġann ulering
ĠKle ding
Ġwaterd ichte
oe ver
lever ancier
æĹ ¶
c raft
ĠI ll
ĠRijks waterstaat
ĠJ oke
Ġont vingen
Ġverfijn de
ost ers
ĠVenet iÃ«
ĠBar neveld
Ġgel uisterd
Ġs i
Ġn ieren
ĠG S
mat ten
o ien
ĠBl onde
Ġverrijk t
Ġl ib
qu o
Ġolif anten
ĠB em
ag els
Ġduur dere
Ġeen persoons
om draai
Ġsp ook
spat roon
ĠK ris
ger ing
ĠGel oof
Ġmilieu vriendelijke
ĠT ap
Ġbloem etjes
ĠH onden
ged raaid
Ġgewe kt
ze s
Ã Ł
Ġsmaak vol
om me
Ġbeheer s
Ġsc reens
Ġkortings codes
c il
Ġsp innen
kle p
Ġ19 42
Ġcompens eren
ĠJac ks
Ġaf sl
le uning
Ġsamen hangen
u elen
Ġ19 30
p orn
Ġk avel
h aard
Ġprikk els
ĠInst itute
Ġtaf er
Pl aats
z aag
Ġgra ph
Ġpast or
Î ¿
ĠA ank
Ġverm aak
V akantie
ĠAd vis
Ġingen ieurs
ĠEn tertainment
Ġvleug je
Ġcoll age
Ġchem ical
off ee
ĠDire ctor
s uper
Ġdu ikt
hor loge
m ooi
ĠWal ter
Ġvan g
ĠF ut
t oren
Ġinform eert
ent s
iet jes
ĠOp el
gen amen
ĠVerk l
Ġstralen de
ĠGe Ã¯n
w inter
ĠSl ag
ort us
lev ings
G EN
Ġsm eren
m uren
ĠG oo
Ġrob ots
i ous
os es
Ġkonink lijk
Ġhand omdraai
Ġrecl am
Ġver vl
Ġdit maal
ĠZand voort
ĠT ob
Ġgen ood
Ġafger onde
ĠMex icaanse
red ingen
del ings
ĠG enk
ĠPlay Station
anc er
M ac
Ġrond uit
ĠGre at
Ġl ant
ĠI mm
ĠC art
cons ult
Ġhor ror
Ġsch uift
ĠV il
Ġonverh oopt
lex ie
ĠCong res
itu ten
à ¹
bru ine
Ġvoor ouders
jeb lieft
ier p
Ġleid raad
Ġgeoptim aliseerd
Ġsn oeien
Ġstr ikte
Ġpromin ente
ĠNet work
ĠO oit
ĠAqu a
ĠMag ic
ĠB D
uiden d
ien cy
Ġbinnen komen
[...]
