{"<s>": 0, "<pad>": 1, "</s>": 2, "<unk>": 3, ".": 4, "Ġde": 5, ",": 6, "Ġvan": 7, "Ġen": 8, "Ġeen": 9, "Ġhet": 10, "Ġin": 11, "Ġis": 12, "Ġop": 13, "Ġte": 14, "Ġmet": 15, "Ġvoor": 16, "Ġje": 17, "Ġdat": 18, "-": 19, "Ġzijn": 20, "Ġdie": 21, "Ġniet": 22, "Ġaan": 23, "Ġom": 24, "Ġof": 25, "Ġ(": 26, "ĠDe": 27, "Ġook": 28, "Ġik": 29, ":": 30, "Ġer": 31, "Ġbij": 32, "Ġals": 33, "Ġu": 34, "Ġdoor": 35, "Ġdan": 36, "Ġmaar": 37, "Ġnaar": 38, ")": 39, "Ġuit": 40, "Ġworden": 41, "Ġdeze": 42, "Ġheeft": 43, "Ġover": 44, "Ġkan": 45, "ĠHet": 46, "Ġwordt": 47, "Ġwe": 48, "Ġnog": 49, "s": 50, "?": 51, "Ġdit": 52, "Ġwas": 53, "Ġmeer": 54, "!": 55, "Ġze": 56, "Ġtot": 57, "Ġhebben": 58, "Ġwat": 59, "Ġal": 60, "Ġwel": 61, "De": 62, "Ġkunnen": 63, "Ġzo": 64, "Ġuw": 65, "Ġhij": 66, "âĢĻ": 67, "/": 68, "Ġgeen": 69, "Ġjaar": 70, "Ġveel": 71, "ĠIn": 72, "Ġ-": 73, "Ġmijn": 74, "Ġons": 75, "Ġgoed": 76, "Ġzich": 77, "Ġonze": 78, "Ġandere": 79, "Ġhaar": 80, "Ġmaken": 81, "Ġ1": 82, "Ġkunt": 83, "Ġhun": 84, "Ġwaar": 85, "ĠIk": 86, "Ġweer": 87, "Ġheb": 88, "Ġmoet": 89, ";": 90, "Ġnu": 91, "Ġalle": 92, "Ġ2": 93, "Ġgaan": 94, "ĠEen": 95, "Ġonder": 96, "ĠâĢĺ": 97, "de": 98, "Ġwij": 99, "Ġdus": 100, "Ġgaat": 101, "Ġnieuwe": 102, "Ġwerd": 103, "Het": 104, "Ġzal": 105, "Ġna": 106, "Ġhier": 107, "ĠEn": 108, "Ġ3": 109, "Ġmensen": 110, ").": 111, "ĠDit": 112, "Ġdoen": 113, "d": 114, "a": 115, "Ġeerste": 116, "Ġmee": 117, "Ġheel": 118, "n": 119, "Ġzou": 120, "Ġalleen": 121, "Ġzelf": 122, "...": 123, "Ġtijd": 124, "Ġaf": 125, "Ġstaat": 126, "t": 127, "Ġtegen": 128, "Ġzoals": 129, "Ġ'": 130, "Ġben": 131, "Ġhoe": 132, "Ġtwee": 133, "Ġeigen": 134, "Ġkomen": 135, "Ġgrote": 136, "Ġhad": 137, "ĠB": 138, "ĠDat": 139, "ĠDeze": 140, "'": 141, "Ġzien": 142, "Ġbinnen": 143, "Ġdaar": 144, "Ġper": 145, "Ġaltijd": 146, "Ġwil": 147, "2": 148, "Ġdag": 149, "ĠâĢľ": 150, "ĠMaar": 151, "e": 152, "Ġtussen": 153, "Ġkomt": 154, "en": 155, "er": 156, "ĠOp": 157, "Ġ4": 158, "Ġvia": 159, "ĠAls": 160, "In": 161, "je": 162, "ing": 163, "ĠJe": 164, "Ġ\"": 165, "Ġmij": 166, "'s": 167, "Ġmogelijk": 168, "o": 169, "1": 170, "i": 171, "Ġtoch": 172, "ĠWe": 173, "Ġzij": 174, "ĠD": 175, "Ġiets": 176, "Ġ5": 177, "Ġmoeten": 178, "Ġeens": 179, "ĠOok": 180, "Ġverschillende": 181, "m": 182, "Ġme": 183, "Ġhem": 184, "Ġgebruik": 185, "Ġlaten": 186, "ĠÃ©Ã©n": 187, "ĠVoor": 188, "ĠT": 189, "Ġwerk": 190, "Ġomdat": 191, "ĠMet": 192, "ĠK": 193, "in": 194, "ĠEr": 195, "ĠH": 196, "Ġuur": 197, "Ġgemaakt": 198, "Ġinformatie": 199, "Ġecht": 200, "ĠM": 201, "ĠâĢĵ": 202, "ĠS": 203, "Ik": 204, "Ġaantal": 205, "ĠP": 206, "ĠNederland": 207, "ĠC": 208, "ĠA": 209, "Ġzonder": 210, "ers": 211, "Ġterug": 212, "Ġtoe": 213, "Ġsnel": 214, "Ġweg": 215, "ĠL": 216, "Ġleven": 217, "y": 218, "3": 219, "Ġgoede": 220, "ĠU": 221, "ĠHij": 222, "Ġvinden": 223, "Ġstaan": 224, "Ġalles": 225, "Ġnodig": 226, "Ġkinderen": 227, "Ġsamen": 228, "Ġwaren": 229, "%": 230, "),": 231, "Ġeven": 232, "Ġgeven": 233, "nl": 234, "b": 235, "jes": 236, "Ġsteeds": 237, "Ġzeer": 238, "Ġtijdens": 239, "Ġ10": 240, "ĠR": 241, "Ġkeer": 242, "ĠG": 243, "p": 244, "Ġerg": 245, "5": 246, "Een": 247, "Ġelkaar": 248, "Ġhebt": 249, "Ġplaats": 250, "Ġhuis": 251, "h": 252, "v": 253, "Ġverder": 254, "ĠZe": 255, "Ġbent": 256, "Ġkun": 257, "Ġwebsite": 258, "4": 259, "\"": 260, "Ġvaak": 261, "Ġgratis": 262, "Ġmaakt": 263, "k": 264, "on": 265, "Ġwerken": 266, "B": 267, "ĠW": 268, "ĠN": 269, "D": 270, "eren": 271, "ĠV": 272, "st": 273, "Ġ6": 274, "Ġm": 275, "Ġgraag": 276, "ĠBij": 277, "Ġwillen": 278, "Ġwant": 279, "ĠWij": 280, "S": 281, "se": 282, "z": 283, "00": 284, "Ġkrijgen": 285, "ĠVan": 286, "C": 287, "ie": 288, "Ġvind": 289, "Ġfoto": 290, "Ġbijvoorbeeld": 291, "Ġjaren": 292, "el": 293, "ĠZo": 294, "ĠF": 295, "Ġgroot": 296, "Ġwater": 297, "V": 298, "Ġmooie": 299, "Ġe": 300, "Ġbeste": 301, "M": 302, "Ġt": 303, "Ġzeker": 304, "l": 305, "ig": 306, "Ġweten": 307, "Ġcontact": 308, "ĠE": 309, "Ġhele": 310, "c": 311, "Ġzit": 312, "Ġmanier": 313, "Ġnatuurlijk": 314, "Ġnemen": 315, "et": 316, "A": 317, "u": 318, "g": 319, "Ġweet": 320, "Ġdeel": 321, "Ġlaatste": 322, "Ġvragen": 323, "Ġdrie": 324, "Ġwelke": 325, "Ġminder": 326, "Ġzullen": 327, "Ġgebruikt": 328, "Ġwereld": 329, "Ġsex": 330, "Ġjouw": 331, "Ġonline": 332, "Ġjij": 333, "te": 334, "Ġten": 335, "P": 336, "Ġlaat": 337, "al": 338, "Ġnet": 339, "of": 340, "Ġ&": 341, "T": 342, "Ġgeeft": 343, "âĢ¦": 344, "Ġgewoon": 345, "Ġhouden": 346, "G": 347, "K": 348, "Ġzodat": 349, "Ġ18": 350, "den": 351, "Ġgebruiken": 352, "Ġ7": 353, "Ġvindt": 354, "Ġbeter": 355, "Ġweek": 356, "ĠâĤ¬": 357, "Ġdagen": 358, "Ġmag": 359, "Ġbuiten": 360, "L": 361, "Ġvanaf": 362, "Ġ8": 363, "Ġvolgende": 364, "H": 365, "Ġvooral": 366, "Ġkleine": 367, "Ġwanneer": 368, "ste": 369, "Ġs": 370, "Ġbedrijf": 371, "is": 372, "Ġextra": 373, "an": 374, "Op": 375, "Ġzelfs": 376, "Ġauto": 377, "Ġp": 378, "Ġlang": 379, "Ġelke": 380, "f": 381, "Ġanders": 382, "ĠWat": 383, "Ġmooi": 384, "Ġman": 385, "Ġhelemaal": 386, "Ġwilt": 387, "Ġb": 388, "Ġachter": 389, "Ġtoen": 390, "Ġd": 391, "F": 392, "Ġligt": 393, "Als": 394, "Ġ20": 395, "Ġmoment": 396, "Ġkrijgt": 397, "w": 398, "âĢĿ": 399, "Ġ.": 400, "us": 401, "Ġter": 402, "W": 403, "Ġzoek": 404, "ings": 405, "Ġbasis": 406, "Ġleuk": 407, "Ġenkele": 408, "Ġdirect": 409, "Ġa": 410, "6": 411, "Ġgeval": 412, "R": 413, "Ġhand": 414, "Ġ15": 415, "Ġnooit": 416, "ĠJ": 417, "Ġrond": 418, "ige": 419, "Ġmen": 420, "x": 421, "Ġallemaal": 422, "Ġprijs": 423, "Ġver": 424, "Ġkon": 425, "Ġvraag": 426, "es": 427, "Ġblijven": 428, "Ġkosten": 429, "Ġdoet": 430, "Ġboek": 431, "Ġ,": 432, "Ġ/": 433, "Ġwerden": 434, "Ġonderzoek": 435, "Ġechter": 436, "le": 437, "Ġgeld": 438, "ĠZ": 439, "op": 440, "ar": 441, "Ġkwam": 442, "ingen": 443, "Ġproducten": 444, "Ġkijken": 445, "Ġlekker": 446, "ĠDoor": 447, "Ġartikel": 448, "]": 449, "Ġwaarin": 450, "Ġeerst": 451, "N": 452, "at": 453, "7": 454, "Ġzitten": 455, "Ġl": 456, "Ġiedereen": 457, "Ġnaam": 458, "as": 459, "or": 460, "it": 461, "Ġvrouwen": 462, "Ġgegevens": 463, "ic": 464, "Ġpaar": 465, "ĠNa": 466, "ĠDan": 467, "Ġder": 468, "Ġland": 469, "Ġvrouw": 470, "Ġkwaliteit": 471, "E": 472, "8": 473, "Ġk": 474, "Ġmeest": 475, "Ġwaardoor": 476, "Ġ[": 477, "Ġstad": 478, "Ġ12": 479, "Ġwaarbij": 480, "Ġschool": 481, "ĠNederlandse": 482, "(": 483, "ver": 484, "Ġopen": 485, "Ġjullie": 486, "Ġzowel": 487, "Ġtweede": 488, "Ġeuro": 489, "re": 490, "Ġzorg": 491, "Ġander": 492, "der": 493, "Ġblijft": 494, "Ġzorgen": 495, "Ġniets": 496, "ge": 497, "Ġbelangrijk": 498, "Ġging": 499, "Ġbiedt": 500, "r": 501, "Ġjou": 502, "Ġvast": 503, "be": 504, "Ġ*": 505, "ĉ": 506, "ia": 507, "Ġgebied": 508, "Ġhadden": 509, "Ġon": 510, "Ġthuis": 511, "Ġgemeente": 512, "Ġ9": 513, ".âĢĿ": 514, "Voor": 515, "Ġvele": 516, "ĠOm": 517, "Ġlicht": 518, "ĠSt": 519, "Ġvanuit": 520, "Ġkennis": 521, "Ġvoorzien": 522, "Ġbieden": 523, "ĠI": 524, "Ġhelpen": 525, "Ġboven": 526, "Ġ16": 527, "heid": 528, "Ġvolgens": 529, "Ġbestaat": 530, "Ġc": 531, "Ġ30": 532, "Ġ17": 533, "Ġeten": 534, "ik": 535, "Ġwerkt": 536, "man": 537, "Ġzeggen": 538, "ĠO": 539, "Ġrecht": 540, "Ġgedaan": 541, "U": 542, "Ġbeetje": 543, "Ġga": 544, "We": 545, "ies": 546, "Ġoude": 547, "Ġnamelijk": 548, "Ġleuke": 549, "ant": 550, "Ġo": 551, "Ġf": 552, "Ġiemand": 553, "Ġjuiste": 554, "Ġbrengen": 555, "Ġruimte": 556, "Deze": 557, "Ġbijna": 558, "Ġwie": 559, "Ġdiverse": 560, "Ġbekend": 561, "000": 562, "j": 563, "am": 564, "Ġgeweest": 565, "Ġvrij": 566, "Ġnieuw": 567, "ische": 568, "Ġomgeving": 569, "Ġvol": 570, "Ġhoofd": 571, "Ġh": 572, "Ġ0": 573, "Ġn": 574, "Ġspelen": 575, "ĠDie": 576, "Ġbest": 577, "Ġ:": 578, "ĠAl": 579, "Ġthe": 580, "Ġziet": 581, "Ġ14": 582, "9": 583, "ten": 584, "Ġzetten": 585, "Ġzegt": 586, "atie": 587, "Ġlater": 588, "Ġproduct": 589, "Ġeigenlijk": 590, "Ġgroep": 591, "sen": 592, "O": 593, "Ġduidelijk": 594, "om": 595, "Ġ100": 596, "Ġkind": 597, "eerde": 598, "Ġkleur": 599, "ĠOf": 600, "Ġervaring": 601, "Ġ|": 602, "..": 603, "eerd": 604, "Ġkeuze": 605, "Ġgrond": 606, "Ġgenoeg": 607, "Ġvorm": 608, "Ġstellen": 609, "Ġlijkt": 610, "um": 611, "Ġstuk": 612, "ĠAmsterdam": 613, "os": 614, "Ġmuziek": 615, "Ġplaatsen": 616, "elen": 617, "Ġenige": 618, "Ġhen": 619, "ad": 620, "werk": 621, "ine": 622, "Ġv": 623, "Ġhoog": 624, "Ġelk": 625, "Ġbedrijven": 626, "ier": 627, "Ġg": 628, "Ġterwijl": 629, "Ġvolledig": 630, "ĠHoe": 631, "Ġmisschien": 632, "Ġvier": 633, "ist": 634, "Ġweinig": 635, "Ġdaarom": 636, "Dit": 637, "Ġprachtige": 638, "19": 639, "Ġ...": 640, "I": 641, "Ġwoning": 642, "Ġge": 643, "Ġdenken": 644, "Ġmaanden": 645, "id": 646, "Ġw": 647, "0": 648, "10": 649, "Ġlid": 650, "isch": 651, "Ġdingen": 652, "Ġlangs": 653, "Ġzie": 654, "Ġzorgt": 655, "aan": 656, "Ġ25": 657, "ro": 658, "Ġ2018": 659, "Ġminuten": 660, "ĠDaarnaast": 661, "il": 662, "Ġkans": 663, "Ġklanten": 664, "Ġseks": 665, "ent": 666, "Ġorganisatie": 667, "Ġkiezen": 668, "Ġtop": 669, "Ġslechts": 670, "Ġtuin": 671, "Ġsoms": 672, "Bij": 673, "Ġden": 674, "Z": 675, "Met": 676, "Ġgeleden": 677, "Ġmaand": 678, "Ġverhaal": 679, "Ġervoor": 680, "Ġleren": 681, "ur": 682, "Ġgeschikt": 683, "Ġsite": 684, "ch": 685, "Ġweken": 686, "Ġprogramma": 687, "Ġmogelijkheden": 688, "Ġmeeste": 689, "Ġhoge": 690, "Ġst": 691, "Ġklein": 692, "Ġeerder": 693, "J": 694, "ĠSch": 695, "Ġieder": 696, "Ġvandaag": 697, "Ġkopen": 698, "ke": 699, "Ġpagina": 700, "Ġgezien": 701, "sch": 702, "Ġ24": 703, "Ġsoort": 704, "Ġongeveer": 705, "Ġbegin": 706, "ĠZij": 707, "Ġz": 708, "Je": 709, "Ġbuurt": 710, "Ġfilm": 711, "Ġpas": 712, "Ġ50": 713, "Ġproject": 714, "Ġ11": 715, "els": 716, "Ġaandacht": 717, "aal": 718, "Ġmoest": 719, "ra": 720, "Ġlange": 721, "Ġenergie": 722, "Ġteam": 723, "Ġ13": 724, "Ġdoel": 725, "Ġoud": 726, "ol": 727, "Er": 728, "Ġinternet": 729, "ĠThe": 730, "Ġklaar": 731, "Ġprobleem": 732, "Ġlopen": 733, "Ġdruk": 734, "Ġafgelopen": 735, "baar": 736, "30": 737, "sp": 738, "Ġzaken": 739, "Ġnaast": 740, "Ġlezen": 741, "Ġmogen": 742, "Ġplek": 743, "Ġmeerdere": 744, "Wij": 745, "Ġdezelfde": 746, "Ġmannen": 747, "Ġcm": 748, "Ġbeschikbaar": 749, "Ġbepaalde": 750, "Ġbe": 751, "com": 752, "Ġlichaam": 753, "Ġgenieten": 754, "Ġzouden": 755, "Ġreis": 756, "Ġvakantie": 757, "ĠAan": 758, "Ġdenk": 759, "âĢĻ.": 760, "Ġnatuur": 761, "im": 762, "Ġrekening": 763, "Ġgeheel": 764, "huis": 765, "Ġgrootste": 766, "ot": 767, "Ġjuist": 768, "Ġhotel": 769, "Ġliggen": 770, "Ġbetekent": 771, "gen": 772, "Ġx": 773, "af": 774, "Ġrol": 775, "Ġporno": 776, "Ġzoeken": 777, "eer": 778, "Ġouders": 779, "ap": 780, "tje": 781, "Ġbeeld": 782, "Ġkleuren": 783, "Ġterecht": 784, "Ġhoudt": 785, "ĠVer": 786, "Ġruim": 787, "Ġkant": 788, "Ġdelen": 789, "Ġzoveel": 790, "ster": 791, "Ġhoogte": 792, "Ġeind": 793, "ale": 794, "Ġsinds": 795, "ak": 796, "Ġgegeven": 797, "Ġproblemen": 798, "Ġmassage": 799, "Ġblijkt": 800, "Ġmarkt": 801, "Ġkeuken": 802, "Ġstart": 803, "ĠBe": 804, "Ġheerlijk": 805, "18": 806, "Ã©": 807, "Ġeenvoudig": 808, "Ġsch": 809, "Ġfamilie": 810, "Ġre": 811, "uit": 812, "eert": 813, "elijk": 814, "Wat": 815, "ĠLees": 816, "ĠNiet": 817, "En": 818, "Ġmeter": 819, "Ġechte": 820, "Ġvervolgens": 821, "ma": 822, "ĠDaar": 823, "ij": 824, "Ġbelang": 825, "Ġklant": 826, "ere": 827, "Ġwaarop": 828, "Ġperiode": 829, "Ġkreeg": 830, "Ġdient": 831, "Ġontvangen": 832, "Ġ2017": 833, "Ġvideo": 834, "Ġneemt": 835, "Ġvond": 836, "Ġmei": 837, "Ġkom": 838, "Ġsuper": 839, "Ġpersonen": 840, "Ġbouw": 841, "Ġmoeder": 842, "Ġseptember": 843, "12": 844, "Ġwilde": 845, "Ġzin": 846, "bare": 847, "ne": 848, "Ġjanuari": 849, "Ġmeteen": 850, "ĠMijn": 851, "Ġwijze": 852, "Ġnovember": 853, "ien": 854, "Ġ19": 855, "aat": 856, "Ġbezig": 857, "Ġleden": 858, "ken": 859, "Ġpersoonlijke": 860, "ul": 861, "Ġboeken": 862, "Ġactiviteiten": 863, "Ġiedere": 864, "Ġgelijk": 865, "iek": 866, "Ġsysteem": 867, "Ġaanwezig": 868, "Ġbeide": 869, "Ġheen": 870, "ĠSex": 871, "ed": 872, "Ġopnieuw": 873, "ab": 874, "ĠNu": 875, "eld": 876, "ion": 877, "Ġhuid": 878, "men": 879, "Ġoktober": 880, "Ġadvies": 881, "weg": 882, "Ġdienst": 883, "Ġont": 884, "Ġkorte": 885, "Ġwaarmee": 886, "Ġ2016": 887, "ve": 888, "een": 889, "Ġvoldoende": 890, "Ġvalt": 891, "Ġvoorkomen": 892, "Ġidee": 893, "Ġgevoel": 894, "Ġhart": 895, "Ġgeworden": 896, "Ġbetalen": 897, "ĠHier": 898, "Ġvijf": 899, "land": 900, "Ġschade": 901, "Ġtotaal": 902, "Ġdoe": 903, "Ġdaarna": 904, "Ġto": 905, "Ġprecies": 906, "Ġanderen": 907, "Ġsport": 908, "elijke": 909, "ĠUit": 910, "Ġmerk": 911, "Ġhalen": 912, "ĠWanneer": 913, "Ġwaarom": 914, "Ġlucht": 915, "Ġenkel": 916, "sl": 917, "Ġjuni": 918, "Ġgehad": 919, "Ġmaat": 920, "Ġonderwijs": 921, "em": 922, "aar": 923, "Ġwaarde": 924, "per": 925, "Ġ21": 926, "Ġderde": 927, "âĢľ": 928, "Ġ2015": 929, "Ġontwikkeling": 930, "ĠOnze": 931, "11": 932, "Ġstond": 933, "Ġhoeft": 934, "Ġ#": 935, "Ġhard": 936, "Ġpersoon": 937, "Ġbed": 938, "ĠAlle": 939, "Ġwaarvan": 940, "Ġtoekomst": 941, "Ġcombinatie": 942, "Ġmaart": 943, "Ġkrijg": 944, "Ġlocatie": 945, "Ġlanger": 946, "Ġgelegen": 947, "ele": 948, "straat": 949, "Ġprocent": 950, "Ġhanden": 951, "ag": 952, "ĠZijn": 953, "50": 954, "ĠDen": 955, "Ġgeldt": 956, "Ġmogelijkheid": 957, "Ġreden": 958, "Ġand": 959, "Ġbelangrijke": 960, "Ġkaart": 961, "Ġzei": 962, "Ġgevonden": 963, "Ġgemakkelijk": 964, "Ġvolgen": 965, "Ġindien": 966, "Ġ22": 967, "Ġhuidige": 968, "Ġmedewerkers": 969, "ert": 970, "Ġwinkel": 971, "Ġrisico": 972, "Ġhulp": 973, "Ġjonge": 974, "erd": 975, "ĠGod": 976, "Ġmiljoen": 977, "Ġsamenwerking": 978, "Ġr": 979, "un": 980, "Ġavond": 981, "aties": 982, "iet": 983, "ĠDus": 984, "Ġogen": 985, "Ġno": 986, "Ġapril": 987, "Ġsp": 988, "Ġkort": 989, "Ġdaarbij": 990, "ut": 991, "&": 992, "Ġ40": 993, "Dat": 994, "Ġmakkelijk": 995, "ĠIs": 996, "ĠCh": 997, "Ġbetreft": 998, "Ġprijzen": 999, "Ġbehandeling": 1000, "Ġbestaan": 1001, "ker": 1002, "Ġkunst": 1003, "15": 1004, "Ġvormen": 1005, "Ġdecember": 1006, "Na": 1007, "Ġmens": 1008, "@": 1009, "ĠJan": 1010, "Ġgeboren": 1011, "Ġpraktijk": 1012, "Ġbijzonder": 1013, "Ġdiensten": 1014, "Ġbeginnen": 1015, "Ġsterk": 1016, "Ġnummer": 1017, "Ġhoren": 1018, "he": 1019, ".\"": 1020, "Ġeinde": 1021, "ÂŃ": 1022, "Ġonderdeel": 1023, "Ġmedia": 1024, "Ġtelefoon": 1025, "20": 1026, "Ġbegint": 1027, "Ġregelmatig": 1028, "Ġrijden": 1029, "Ġkamer": 1030, "up": 1031, "Ġresultaat": 1032, "end": 1033, "Ġstandaard": 1034, "ip": 1035, "ven": 1036, "Ġbekijken": 1037, "ders": 1038, "ir": 1039, "Ġhoop": 1040, "Ook": 1041, "Ġmiddel": 1042, "Ġspel": 1043, "ĠMeer": 1044, "ĠOver": 1045, "Ġzwarte": 1046, "Ġsituatie": 1047, "Ġwedstrijd": 1048, "Ġtekst": 1049, "me": 1050, "Ġleveren": 1051, "âĢĿ,": 1052, "X": 1053, "Ġwoord": 1054, "Ġservice": 1055, "Ġregio": 1056, "Ġmaakte": 1057, "Ġrust": 1058, "Ġtoepassing": 1059, "Ġmoeilijk": 1060, "ĠEuropese": 1061, "dag": 1062, "Ġrichting": 1063, "Ġ2014": 1064, "Ġprachtig": 1065, "age": 1066, "Ġoplossing": 1067, "ĠâĢ¦": 1068, "ĠRe": 1069, "Ġgenomen": 1070, "Ġgehouden": 1071, "Ġpast": 1072, "Maar": 1073, "Ġjuli": 1074, "Ġbedrag": 1075, "ac": 1076, "io": 1077, "Ġkm": 1078, "Ġsoorten": 1079, "Ġ23": 1080, "ide": 1081, "voor": 1082, "Ġfiets": 1083, "Ġbezoek": 1084, "EN": 1085, "âĢĻ,": 1086, "Ġplan": 1087, "Ġzaterdag": 1088, "Ġaanbod": 1089, "and": 1090, "Ġlanden": 1091, "Ġhoger": 1092, "Ġzichzelf": 1093, "Ġprima": 1094, ".âĢĻ": 1095, "Ġooit": 1096, "Ġmeestal": 1097, "ter": 1098, "Ġslag": 1099, "Ġjezelf": 1100, "Ġblij": 1101, "ĠPDF": 1102, "Ġbank": 1103, "ĠZuid": 1104, "Ġfile": 1105, "elt": 1106, "ĠBen": 1107, "Ġhalf": 1108, "Ġbijzondere": 1109, "Ġrest": 1110, "zen": 1111, "Ġvrienden": 1112, "Ġgevallen": 1113, "Ġafstand": 1114, "Ġzomer": 1115, "Ġuiteindelijk": 1116, "Ġgenoemd": 1117, "Ġzee": 1118, "ĠNoord": 1119, "Ġzag": 1120, "Ġoverzicht": 1121, "Ġoog": 1122, "Ġja": 1123, "ijn": 1124, "Ġhetzelfde": 1125, "Ġlos": 1126, "Ġpolitie": 1127, "17": 1128, "Ġkerk": 1129, "Ġproberen": 1130, "Ġdaarmee": 1131, "Ġmaak": 1132, "Ġsociale": 1133, "Ġj": 1134, "Ġkracht": 1135, "over": 1136, "Ġbedoeld": 1137, "ĠX": 1138, "ĠDaarom": 1139, "Ġmateriaal": 1140, "Ġleggen": 1141, "ink": 1142, "Ġopleiding": 1143, "Ġfunctie": 1144, "Ġvader": 1145, "16": 1146, "Ġwensen": 1147, "Ġmodel": 1148, "Ġschrijven": 1149, "Ġervan": 1150, "Ġtoegang": 1151, "Ġinmiddels": 1152, "Ġpartijen": 1153, "Ġontstaan": 1154, "ell": 1155, "Y": 1156, "Ġstand": 1157, "Ġfijn": 1158, "Ġnacht": 1159, "Ġmidden": 1160, "Ġervaren": 1161, "les": 1162, "Ġvoorwaarden": 1163, "ĠIndien": 1164, "Ġzon": 1165, "Ġstelt": 1166, "Ġstrand": 1167, "Ġcentrum": 1168, "Ġzondag": 1169, "Ġher": 1170, "Ġpartij": 1171, "ĠGe": 1172, "mail": 1173, "Ġwoorden": 1174, "Ġleerlingen": 1175, "Ġloopt": 1176, "Ġactief": 1177, "co": 1178, "Ġeeuw": 1179, "ze": 1180, "Ġdames": 1181, "als": 1182, "Ġbevat": 1183, "Ġstap": 1184, "ĠY": 1185, "Ġvroeg": 1186, "ĠSp": 1187, "ger": 1188, "Ġzet": 1189, "bedrijf": 1190, "ĠEuropa": 1191, "ĠRotterdam": 1192, "Ġspeciale": 1193, "Ġleeftijd": 1194, "lijk": 1195, "Ġvoordat": 1196, "Ġgek": 1197, "Ġallerlei": 1198, "Ġadres": 1199, "Ġ": 1200, "Ġkoop": 1201, "ee": 1202, "Ġdieren": 1203, "Ġgesteld": 1204, "Ġdeur": 1205, "oc": 1206, "âĢĿ.": 1207, "Ġdood": 1208, "Ġkennen": 1209, "Ġkonden": 1210, "uren": 1211, "Ġsucces": 1212, "Ġleer": 1213, "Ġuitgevoerd": 1214, "Ġniveau": 1215, "ĠâĢĻ": 1216, "Ġwachten": 1217, "Ġseizoen": 1218, "Ġdaarvan": 1219, "Ġtaal": 1220, "ĠÃ©n": 1221, "Ġrelatie": 1222, "Ġ2013": 1223, "Ġthis": 1224, "Ġwet": 1225, "Om": 1226, "Ġvallen": 1227, "Ġgebracht": 1228, "Ġsommige": 1229, "ĠGratis": 1230, "Ġgevolg": 1231, "het": 1232, "Ġhoor": 1233, "Ġopdracht": 1234, "Ġwijn": 1235, "ĠLe": 1236, "erende": 1237, "ering": 1238, "Ġveilig": 1239, "Ġhiervoor": 1240, "Ġwww": 1241, "schap": 1242, "Ġbelangrijkste": 1243, "Ġnieuws": 1244, "Ġbepaald": 1245, "Ġvorige": 1246, "ĠNederlands": 1247, "Ġliefde": 1248, "ys": 1249, "ast": 1250, "Ġfeit": 1251, "oe": 1252, "Ġperfect": 1253, "Ġzaak": 1254, "Ġkwamen": 1255, "Ġdeed": 1256, "Ġbegon": 1257, "Ġopgenomen": 1258, "ĠWant": 1259, "Ġshort": 1260, "Ġzwart": 1261, "Ġgekomen": 1262, "_": 1263, "Ġmede": 1264, "Ġalgemeen": 1265, "Ġle": 1266, "Ġblog": 1267, "Ġgeplaatst": 1268, "Ġspeciaal": 1269, "ang": 1270, "jarige": 1271, "ĠBelgiÃ«": 1272, "Ġontwerp": 1273, "berg": 1274, "oo": 1275, "Ġi": 1276, "ok": 1277, "Ġunieke": 1278, "ĠTijdens": 1279, "Ġvanwege": 1280, "Ġbestaande": 1281, "Ġaugustus": 1282, "ĠGoogle": 1283, "Ġapp": 1284, "ans": 1285, "Ġkinder": 1286, "Ġbestellen": 1287, "pen": 1288, "ob": 1289, "Ġtien": 1290, "Ġbrengt": 1291, "Ġloop": 1292, "Ġfebruari": 1293, "uur": 1294, "Ġproces": 1295, "Ġvolledige": 1296, "Ġ28": 1297, "groep": 1298, "Ġband": 1299, "Ġgesprek": 1300, "ĠNeem": 1301, "Ġlaag": 1302, "Ġkoffie": 1303, "Ġdating": 1304, "Ġ+": 1305, "Ġwarm": 1306, "Ġbereiken": 1307, "ate": 1308, "Ġbetrokken": 1309, "Ġpassen": 1310, "Ġzoekt": 1311, "Ġnetwerk": 1312, "Ġspeelt": 1313, "ina": 1314, "ce": 1315, "Ġmeisjes": 1316, "Ġthema": 1317, "Ġversie": 1318, "ĠWil": 1319, "ĠOnder": 1320, "://": 1321, "'.": 1322, "Ġwaarschijnlijk": 1323, "Ġhelpt": 1324, "Ġtevens": 1325, "Ġzat": 1326, "Ġvaste": 1327, "Ġactie": 1328, ",-": 1329, "ĠfinanciÃ«le": 1330, "Ġdak": 1331, "Ġplezier": 1332, "Ġrij": 1333, "Ġglas": 1334, "Ġbetrekking": 1335, "Ġdragen": 1336, "Ġpunten": 1337, "ill": 1338, "Ġheerlijke": 1339, "eling": 1340, "Ġresultaten": 1341, "Ġsfeer": 1342, "Ġbekende": 1343, "Ġvoeren": 1344, "Ġmerken": 1345, "Ġgeschiedenis": 1346, "Ġvolgt": 1347, "ĠUtrecht": 1348, "Ġ2012": 1349, "Ġtafel": 1350, "Ġwist": 1351, "tjes": 1352, "Ġpunt": 1353, "Ġ26": 1354, "Ġetc": 1355, "Ġwitte": 1356, "Ġcollega": 1357, "Ġgebeurt": 1358, "13": 1359, "art": 1360, "Ġ60": 1361, "Ġverkoop": 1362, "Ġkl": 1363, "14": 1364, "Ġgekozen": 1365, "Ġzes": 1366, "Ġpdf": 1367, "Ġsprake": 1368, "Ġzoon": 1369, "ĠGeen": 1370, "Ġuitvoering": 1371, "Ġantwoord": 1372, "ay": 1373, "Ġhout": 1374, "Ġ27": 1375, "ont": 1376, "Ġtips": 1377, "Ġbezoekers": 1378, "Ġpubliek": 1379, "Ġwit": 1380, "Ġlast": 1381, "Ġlijst": 1382, "aten": 1383, "Ġmin": 1384, "ĠPro": 1385, "Ġwonen": 1386, "Ġcollectie": 1387, "ĠVeel": 1388, "Ġontwikkelen": 1389, "isten": 1390, "Ġwoon": 1391, "ĠWaar": 1392, "ĠMar": 1393, "Ġverschil": 1394, "ib": 1395, "pl": 1396, "Ġch": 1397, "Ġnatuurlijke": 1398, "sten": 1399, "Ġgroter": 1400, "Ġgebruikers": 1401, "ĠVerder": 1402, "Ġvoorbeeld": 1403, "Ġbecause": 1404, "Ġkomende": 1405, "Ġbesluit": 1406, "Ġtermijn": 1407, "Ġberoep": 1408, "ĠAmerikaanse": 1409, "Ġpartner": 1410, "Ġdescription": 1411, "Ġneem": 1412, "Ġkijk": 1413, "Ġsmaak": 1414, "iel": 1415, "Ġvertellen": 1416, "Ġcomputer": 1417, "Ġstraat": 1418, "van": 1419, "met": 1420, "Ġlokale": 1421, "od": 1422, "Ġinhoud": 1423, "ĠToen": 1424, "25": 1425, "Ġverhalen": 1426, "Ġrechts": 1427, "Ġmoderne": 1428, "Ġstof": 1429, "Ġvrijdag": 1430, "Ġlees": 1431, "Ġalgemene": 1432, "\",": 1433, "ah": 1434, "Ġuiteraard": 1435, "Ġbel": 1436, "Ġveiligheid": 1437, "Ġfor": 1438, "Ġlinks": 1439, "Ġfilms": 1440, "Ġschoon": 1441, "Ġmeisje": 1442, "Ġhierbij": 1443, "Ġdochter": 1444, "Ġsexy": 1445, "Ġbouwen": 1446, "amp": 1447, "na": 1448, "ou": 1449, "av": 1450, "Ġmotor": 1451, "Ġdicht": 1452, "ende": 1453, "ard": 1454, "Ġvoet": 1455, "Ġwaaronder": 1456, "ren": 1457, "Ġgezegd": 1458, "ss": 1459, "ons": 1460, "sh": 1461, "Ġmoeite": 1462, "Ġuitzicht": 1463, "Ġbloed": 1464, "ĠNaast": 1465, "oren": 1466, "mm": 1467, "pt": 1468, "Ġpersoneel": 1469, "ator": 1470, "alen": 1471, "ĠBovendien": 1472, "Ġpost": 1473, "Ġvoelt": 1474, "Ġweekend": 1475, "Ġoverheid": 1476, "Ġwinter": 1477, "Ġfeest": 1478, "Ġassortiment": 1479, "Ġmis": 1480, "Ġvis": 1481, "Ġinvloed": 1482, "Ġmm": 1483, "Ġbestuur": 1484, "Ġbestelling": 1485, "ation": 1486, "Ġovereenkomst": 1487, "Ġdaarvoor": 1488, "ha": 1489, "au": 1490, "Ġstudenten": 1491, "ĠWie": 1492, "aren": 1493, "Ġvervangen": 1494, "Ġlijn": 1495, "igen": 1496, "boek": 1497, "Ġimmers": 1498, "Ġacht": 1499, "Ġname": 1500, "Ġmaximaal": 1501, "Ġdagelijks": 1502, "igheid": 1503, "Ġkleding": 1504, "Ġkent": 1505, "Ġserie": 1506, "og": 1507, "Ġsoftware": 1508, "Ġbleek": 1509, "ĠOmdat": 1510, "Ġex": 1511, "Ġjeugd": 1512, "Ġonderdelen": 1513, "Ġafspraak": 1514, "Ġliefst": 1515, "Ġvoelen": 1516, "Ġinclusief": 1517, "ind": 1518, "Ġclub": 1519, "Ġgezet": 1520, "\".": 1521, "ĠEl": 1522, "40": 1523, "Ġword": 1524, "Ġ29": 1525, "Ġbadkamer": 1526, "Van": 1527, "Ġsl": 1528, "centrum": 1529, "Ġjongeren": 1530, "Ġinfo": 1531, "Ġleiden": 1532, "Ġgericht": 1533, "Ġbeschikt": 1534, "Ġverwacht": 1535, "ri": 1536, "Ġwerkzaamheden": 1537, "Ġkost": 1538, "Ġcultuur": 1539, "Ġouder": 1540, "Ġproductie": 1541, "Ġruime": 1542, "Ġbaby": 1543, "Ġneer": 1544, "Ġpijn": 1545, "mer": 1546, "Ġnou": 1547, "all": 1548, "Ġspecifieke": 1549, "Ġgekregen": 1550, "Ġslecht": 1551, "ets": 1552, "ER": 1553, "ĠBekijk": 1554, "ĠHierdoor": 1555, "Ġmaterialen": 1556, "Ġbaan": 1557, "Ġdata": 1558, "ite": 1559, "Ġtrekken": 1560, "Ġdaardoor": 1561, "Ġartikelen": 1562, "ĠLaat": 1563, "Ġenorm": 1564, "Ġene": 1565, "....": 1566, "Ġbericht": 1567, "Door": 1568, "Ġoveral": 1569, "Ġcamera": 1570, "Ġgingen": 1571, "Ġeffect": 1572, "Ġ=": 1573, "Ġverzoek": 1574, "Ġsturen": 1575, "erk": 1576, "Ġvoorbij": 1577, "ins": 1578, "Ġcompleet": 1579, "burg": 1580, "Ġbetreffende": 1581, "Ġpersoonlijk": 1582, "Ġpersoonsgegevens": 1583, "sc": 1584, "ĠVolgens": 1585, "*": 1586, "Ġgezicht": 1587, "if": 1588, "Ġtraining": 1589, "Ġgedrag": 1590, "net": 1591, "Ġbegonnen": 1592, "Ġkop": 1593, "Ġinternationale": 1594, "Ġgaf": 1595, "Ġ2011": 1596, "Ġreactie": 1597, "Ġwind": 1598, "Ġonderhoud": 1599, "Ġmogelijke": 1600, "Al": 1601, "Ġreeds": 1602, "ĠHaag": 1603, "Ġhelft": 1604, "uk": 1605, "Ġgeweldig": 1606, "Ġuitgebreid": 1607, "elde": 1608, "bouw": 1609, "Ġontwikkeld": 1610, "Ġrestaurant": 1611, "Ġregels": 1612, "Ġdeelnemers": 1613, "we": 1614, "punt": 1615, "Ġstijl": 1616, "Ġhelaas": 1617, "out": 1618, "Ġvoordeel": 1619, "ĠOn": 1620, "ĠHeb": 1621, "Ġperfecte": 1622, "ow": 1623, "Ġafhankelijk": 1624, "Ġtype": 1625, "Ġspreken": 1626, "ĠAn": 1627, "Ġgelukkig": 1628, "Ġkantoor": 1629, "ĠToch": 1630, "ens": 1631, "Ġ2010": 1632, "Ġprojecten": 1633, "Ġklachten": 1634, "erend": 1635, "Ġgroen": 1636, "âĢĺ": 1637, "recht": 1638, "Ġvraagt": 1639, "Ġverband": 1640, "Ġgeschreven": 1641, "gel": 1642, "Ġcontrole": 1643, "iv": 1644, "ĠWest": 1645, "Ġgegaan": 1646, "Ġcommunicatie": 1647, "Ġles": 1648, "Ġondersteuning": 1649, "Ġkerst": 1650, "St": 1651, "gebied": 1652, "ief": 1653, "Ġgebouw": 1654, "int": 1655, "Ġmocht": 1656, "Ġbepalen": 1657, "Ġinderdaad": 1658, "pe": 1659, "ĠWel": 1660, "Ġniks": 1661, "Ġkader": 1662, "ru": 1663, "Ġorganisaties": 1664, "kl": 1665, "Ġlevert": 1666, "Ġstudie": 1667, "Ġbrand": 1668, "Ġgeleverd": 1669, "Ġstappen": 1670, "Ġhond": 1671, "ĠSh": 1672, "sk": 1673, "ft": 1674, "Ġvoldoen": 1675, "Ġsluiten": 1676, "Ġdigitale": 1677, "Ġdesign": 1678, "Ġhandig": 1679, "Ġnadat": 1680, "Ġverkopen": 1681, "ds": 1682, "Ġbloemen": 1683, "ian": 1684, "Ġbezoeken": 1685, "Ġgeluid": 1686, "ec": 1687, "Ġnoemen": 1688, "Ġvloer": 1689, "Ġluxe": 1690, "Ġprofessionele": 1691, "Ġgel": 1692, "kt": 1693, "Ġverantwoordelijk": 1694, "ov": 1695, "Ġgehele": 1696, "Ġvertrouwen": 1697, "+": 1698, "Ġenorme": 1699, "est": 1700, "Ġvak": 1701, "ĠDuitsland": 1702, "Ġbl": 1703, "Ġverbeteren": 1704, "Ġbus": 1705, "Ġmail": 1706, "Ġverplicht": 1707, "Ġrode": 1708, "Ġdes": 1709, "bl": 1710, "plaats": 1711, "ĠSamen": 1712, "Ġbetere": 1713, "Ġniemand": 1714, "Ġstem": 1715, "Ġeisen": 1716, "Ġbar": 1717, "dt": 1718, "Ġgezellig": 1719, "Ġvaker": 1720, "Ġrustig": 1721, "ĠÂ·": 1722, "Ġmond": 1723, "ort": 1724, "Ġontvangt": 1725, "Ġtevreden": 1726, "Ġliet": 1727, "heden": 1728, "sm": 1729, "Ġbedrijfs": 1730, "ber": 1731, "ja": 1732, "24": 1733, "aars": 1734, "Ġerop": 1735, "Ġolie": 1736, "Ġgedurende": 1737, "Ġliever": 1738, "ure": 1739, "Ġstrijd": 1740, "Ġzwembad": 1741, "!!": 1742, "Ġ80": 1743, "Ġrug": 1744, "Ġoverleden": 1745, "Ġhoort": 1746, "Ġdorp": 1747, "ks": 1748, "Ġhe": 1749, "ĠAf": 1750, "zie": 1751, "ST": 1752, "Ġbovendien": 1753, "ĠTot": 1754, "Ġopnemen": 1755, "Ġwelkom": 1756, "Ġdacht": 1757, "Ġverwijderen": 1758, "ck": 1759, "Ġmaandag": 1760, "oor": 1761, "Ġergens": 1762, "ieren": 1763, "programma": 1764, "Ġneuken": 1765, "ade": 1766, "ond": 1767, "Ġvlak": 1768, "Ġdienen": 1769, "Ġslot": 1770, "veld": 1771, "ĠDuitse": 1772, "Ġwerking": 1773, "Ġhiervan": 1774, "Ġduur": 1775, "ĠâĢŀ": 1776, "ĠZorg": 1777, "ĠTe": 1778, "Ġprovincie": 1779, "Ġaangeboden": 1780, "ĠBl": 1781, "Ġomstandigheden": 1782, "EL": 1783, "Ġsneller": 1784, "Ġdenkt": 1785, "Wanneer": 1786, "Ġoverleg": 1787, "Ġzover": 1788, "air": 1789, "Ġgebeuren": 1790, "Ġgezin": 1791, "Ġfietsen": 1792, "Ġbeleid": 1793, "Ġuitvoeren": 1794, "ach": 1795, "ica": 1796, "Ġeventueel": 1797, "Ġhouten": 1798, "Ġkilometer": 1799, "Ġgevolgen": 1800, "Ġplannen": 1801, "Ġvrije": 1802, "Ġplanten": 1803, "Ġautomatisch": 1804, "aa": 1805, "Ġbrief": 1806, "its": 1807, "Ġpl": 1808, "Ġorde": 1809, "ĠGa": 1810, "Ġverleden": 1811, "Ġ31": 1812, "Onze": 1813, "Ġgezondheid": 1814, "Ġzult": 1815, "Ġgeile": 1816, "Ġsterke": 1817, "Ġcursus": 1818, "Ġmooiste": 1819, "Ġaldus": 1820, "Ġverkrijgbaar": 1821, "ĠUw": 1822, "Ġgrotere": 1823, "Ġnormaal": 1824, "Ġveranderen": 1825, "Ġscherm": 1826, "Ġgroene": 1827, "ĠVanaf": 1828, "Ġbos": 1829, "',": 1830, "60": 1831, "Ġgevraagd": 1832, "Ġwijk": 1833, "Ġgeloof": 1834, "ĠAlleen": 1835, "onder": 1836, "ĠNieuw": 1837, "Ġgemiddelde": 1838, "Ġtv": 1839, "Mijn": 1840, "ĠStichting": 1841, "Ġ35": 1842, "Ġbijdrage": 1843, "Ġnam": 1844, "Ġbreed": 1845, "Ġkn": 1846, "eten": 1847, "Ġlink": 1848, "Ġvriend": 1849, "Ġtoestemming": 1850, "Ġziekte": 1851, "Ġpapier": 1852, "Ġspelers": 1853, "Ġfl": 1854, "Ġminister": 1855, "ub": 1856, "ĠRaad": 1857, "ĠKijk": 1858, "Ġwaard": 1859, "ĠGroningen": 1860, "Ġtechnische": 1861, "ex": 1862, "Ġeventuele": 1863, "our": 1864, "sche": 1865, "Ġontvangst": 1866, "Ġwarme": 1867, "Ġwebsites": 1868, "Ġjongens": 1869, "Ġvorig": 1870, "Ġstukje": 1871, "Ġgeweldige": 1872, "Ġverbonden": 1873, "oon": 1874, "ĠAr": 1875, "zorg": 1876, "Ġspeel": 1877, "Ġgroepen": 1878, "Ġ2009": 1879, "Ġgebaseerd": 1880, "Ġrondom": 1881, "Ġvermeld": 1882, "iÃ«": 1883, "ry": 1884, "Ġvertelt": 1885, "Ġappartement": 1886, "Ġrechter": 1887, "Ġdankzij": 1888, "Ġhieronder": 1889, "Ġinzicht": 1890, "22": 1891, "water": 1892, "iers": 1893, "Ġbeperkt": 1894, "Ġkorting": 1895, "Ġvolle": 1896, "Ġlive": 1897, "ost": 1898, "iger": 1899, "95": 1900, "Meer": 1901, "Ġgelegenheid": 1902, "ĠDaarna": 1903, "Ġpark": 1904, "th": 1905, "Ġgas": 1906, "Ġeigenaar": 1907, "Ġsnelle": 1908, "Ġgasten": 1909, "ĠNew": 1910, "Ġbesloten": 1911, "Ġcentraal": 1912, "Ġmening": 1913, "raad": 1914, "Ġreizen": 1915, "Ġvergeten": 1916, "Ġmaatregelen": 1917, "Ġvermogen": 1918, "ĠFrankrijk": 1919, "Ġ200": 1920, "80": 1921, "Ġbetaling": 1922, "ĠHe": 1923, "Ġtitel": 1924, "one": 1925, "45": 1926, "Ġdonderdag": 1927, "ich": 1928, "Ġervaringen": 1929, "etje": 1930, "kosten": 1931, ".)": 1932, "Ġbelasting": 1933, "Ġschreef": 1934, "Ġallen": 1935, "ding": 1936, "Ġvlees": 1937, "Ġ!": 1938, "Aan": 1939, "Ġbeelden": 1940, "Ġuitgebreide": 1941, "Ġkamers": 1942, "ĠKlik": 1943, "Ver": 1944, "Ġlage": 1945, "ĠFacebook": 1946, "Ġjong": 1947, "Ġdrinken": 1948, "Ġgemeenten": 1949, "kaart": 1950, "Ġpro": 1951, "Ġ)": 1952, "Ġhonden": 1953, "ben": 1954, "Ġbal": 1955, "Ġbetaald": 1956, "Ġgebouwd": 1957, "-,": 1958, "Ġnoodzakelijk": 1959, "Ġdergelijke": 1960, "Ġmoesten": 1961, "Ġheren": 1962, "school": 1963, "Ġfijne": 1964, "Ġrood": 1965, "stand": 1966, "Ġca": 1967, "dienst": 1968, "Ġwinst": 1969, "Ġorganiseren": 1970, "Ġstil": 1971, "Ġbewust": 1972, "ĠKamer": 1973, "ĠOost": 1974, "Ġhoeveel": 1975, "ĠSint": 1976, "Ġzeg": 1977, "Be": 1978, "Ġged": 1979, "Ġideaal": 1980, "are": 1981, "Ġdikke": 1982, "ĠGrote": 1983, "len": 1984, "Ġbegeleiding": 1985, "Ġ70": 1986, "Ġdatum": 1987, "Ġbescherming": 1988, "stelling": 1989, "Ġonderwerp": 1990, "ĠCl": 1991, "hout": 1992, "Ġvoetbal": 1993, "Ġwerknemers": 1994, "Ġverblijf": 1995, "23": 1996, "Ġgezellige": 1997, "Ġzwaar": 1998, "kamer": 1999, "Ġgesloten": 2000, "www": 2001, "Ġverwachten": 2002, "Ġpraten": 2003, "Ġminimaal": 2004, "ĠTh": 2005, "Ġwinkels": 2006, "Ġvoort": 2007, ".,": 2008, "Ġaanvraag": 2009, "yn": 2010, "Ġgeef": 2011, "Ġterras": 2012, "Ġideale": 2013, "Ġgerust": 2014, "vol": 2015, "Ġhoogste": 2016, "Ġ2008": 2017, "Ġveld": 2018, "Ġkregen": 2019, "Ġgezond": 2020, "lijke": 2021, "her": 2022, "ino": 2023, "70": 2024, "Ġoptie": 2025, "Ġvoordelen": 2026, "AN": 2027, "ĠJa": 2028, "Ġronde": 2029, "ĠCar": 2030, "\\": 2031, "Ġwebshop": 2032, "Ġgroei": 2033, "systeem": 2034, "Ġmuur": 2035, "ment": 2036, "Ġset": 2037, "ron": 2038, "ner": 2039, "Ġnamen": 2040, "[": 2041, "Ġduurzame": 2042, "Ġwoensdag": 2043, "waarde": 2044, "nummer": 2045, "Ġgang": 2046, "Ġgewerkt": 2047, "Ġsteun": 2048, "Ġinterieur": 2049, "Ġstroom": 2050, "Ġroute": 2051, "agen": 2052, "Ġrechtbank": 2053, "Ġraad": 2054, "Ġzichtbaar": 2055, "Ġeiland": 2056, "ette": 2057, "Ġaard": 2058, "winkel": 2059, "Ġvereniging": 2060, "Ġpositie": 2061, "Ġbehulp": 2062, "markt": 2063, "Ġoorlog": 2064, "Ġdiep": 2065, "Ġvooraf": 2066, "Ġdoordat": 2067, "Ġhuur": 2068, "Ġafge": 2069, "fl": 2070, "Ġheet": 2071, "ts": 2072, "Hoe": 2073, "Ġbad": 2074, "90": 2075, "Ġpakken": 2076, "Ġpolitieke": 2077, "Ġrechten": 2078, "Ġscholen": 2079, "iss": 2080, "ruimte": 2081, "Ġ90": 2082, "acht": 2083, "Wil": 2084, "ps": 2085, "Ġcookies": 2086, "Ġwerkgever": 2087, "band": 2088, "werken": 2089, "Ġlastig": 2090, "Ġoverigens": 2091, "anten": 2092, "Tijdens": 2093, "Ġtemperatuur": 2094, "Ġenz": 2095, "prijs": 2096, "Ġbevindt": 2097, "Ġuitge": 2098, "lijn": 2099, "kend": 2100, "Ġinzet": 2101, "Ġhoek": 2102, "gt": 2103, "Ġ?": 2104, "ĠBelgische": 2105, "ium": 2106, "Ġverkocht": 2107, "Ġvoorraad": 2108, "ĠVia": 2109, "Ġachtergrond": 2110, "ling": 2111, "Ġvoedsel": 2112, "ĠFl": 2113, "Ġprivacy": 2114, "ĠSl": 2115, "tes": 2116, "Ġbeweging": 2117, "Ġziekenhuis": 2118, "ellen": 2119, "Ġinwoners": 2120, "ĠAd": 2121, "Ġkarakter": 2122, "ug": 2123, "Ġeet": 2124, "Ġbleef": 2125, "Ġhoeveelheid": 2126, "Ġtegenwoordig": 2127, "Ġwarmte": 2128, "Ġzacht": 2129, "bel": 2130, "Ġro": 2131, "erde": 2132, "Ġmobiele": 2133, "Ġaarde": 2134, "ĠiPhone": 2135, "Ġmodellen": 2136, "Ġ[âĢ¦]": 2137, "Ġmacht": 2138, "ix": 2139, "ĠideeÃ«n": 2140, "ĠFranse": 2141, "Ġtest": 2142, "Ġvervoer": 2143, "Ġleiding": 2144, "deren": 2145, "nen": 2146, "Ġlekkere": 2147, "tijd": 2148, "Ġmorgen": 2149, "Ġstoppen": 2150, "Ġflink": 2151, "Ġbewoners": 2152, "Ġbodem": 2153, "iging": 2154, "ĠMisschien": 2155, "meer": 2156, "Ġerotische": 2157, "ĠNet": 2158, "beleid": 2159, "Ġvroeger": 2160, "Ġkiest": 2161, "Ġdraagt": 2162, "ler": 2163, "ank": 2164, "ĠHer": 2165, "Ġoplossingen": 2166, "Ġfruit": 2167, "Ġwoningen": 2168, "Ġdinsdag": 2169, "Ġbehoefte": 2170, "Ġlevens": 2171, "Ġkern": 2172, "Ġuitstraling": 2173, "ĠprivÃ©": 2174, "vers": 2175, "Ġverschillen": 2176, "Ġalsof": 2177, "Ġwelk": 2178, "Ġ>": 2179, "Ġ45": 2180, "Ġbellen": 2181, "Ġgedeelte": 2182, "Ġgewenste": 2183, "ĠpatiÃ«nten": 2184, "spel": 2185, "vrij": 2186, "Ġoverige": 2187, "Ġmilieu": 2188, "Ġtrein": 2189, "Ġafspraken": 2190, "Ġschoenen": 2191, "Ġpakket": 2192, "res": 2193, "arm": 2194, "Ja": 2195, "ĠPl": 2196, "Ġaanpak": 2197, "Ġwinnen": 2198, "Ġmarketing": 2199, "Ġregering": 2200, "ĠHaar": 2201, "Ġterrein": 2202, "Ġgekocht": 2203, "Ġpolitiek": 2204, "Ġinge": 2205, "etten": 2206, "Ġget": 2207, "Ġmomenteel": 2208, "ĠZoals": 2209, "park": 2210, "Ġuren": 2211, "elingen": 2212, "Ġopenbaar": 2213, "Ġgewicht": 2214, "Ġpositieve": 2215, "ĠKl": 2216, "Ġtieten": 2217, "Ġtiener": 2218, "ĠAlles": 2219, "Ġwellicht": 2220, "=": 2221, "Ġmanieren": 2222, "slag": 2223, "ĠJezus": 2224, "Ġleidt": 2225, "Ġtotale": 2226, "Ġregen": 2227, "Ġstarten": 2228, "erm": 2229, "Ġger": 2230, "Ġgeniet": 2231, "oen": 2232, "75": 2233, "Ġsh": 2234, "Ġoriginele": 2235, "Ġgeb": 2236, "qu": 2237, "huizen": 2238, "Ġindruk": 2239, "Ġaangegeven": 2240, "rol": 2241, "Ġverd": 2242, "Ġaanleiding": 2243, "Ġgarantie": 2244, "Ġwens": 2245, ">": 2246, "ct": 2247, "oot": 2248, "Ġgevestigd": 2249, "ĠDaarbij": 2250, "Ġsn": 2251, "Ġvoeding": 2252, "Ġopdrachtgever": 2253, "ook": 2254, "Ġgeorganiseerd": 2255, "Ġzeven": 2256, "isme": 2257, "Ġoptimaal": 2258, "ust": 2259, "Ġrealiseren": 2260, "Ġmiddelen": 2261, "dat": 2262, "Ġontworpen": 2263, "Ġsluit": 2264, "ĠOnline": 2265, "eg": 2266, "Ġharde": 2267, "Ġtonen": 2268, "Ġbezit": 2269, "Ġontwikkelingen": 2270, "Ġboot": 2271, "Ġkijkt": 2272, "Ġdroog": 2273, "Ġheer": 2274, "Ġvrijwel": 2275, "ong": 2276, "onderzoek": 2277, "IN": 2278, "ius": 2279, "Ġuniek": 2280, "ĠSport": 2281, "Ġmate": 2282, "ick": 2283, "jaar": 2284, "Ġuitsluitend": 2285, "Ġbereikt": 2286, "ore": 2287, "Ġlag": 2288, "Ġ2007": 2289, "Ġsteden": 2290, "Ġonderzoeken": 2291, "Ġcategorie": 2292, "ijk": 2293, "ĠMaak": 2294, "ES": 2295, "bank": 2296, "enten": 2297, "Ġbeschikking": 2298, "Ġderden": 2299, "Ġerbij": 2300, "leden": 2301, "Ġontstaat": 2302, "ĠcreÃ«ren": 2303, "Ġstukken": 2304, "35": 2305, "Ġondernemers": 2306, "Ġprofiel": 2307, "Ġfavoriete": 2308, "Ġbegrijpen": 2309, "Ġhangen": 2310, "Ġstuur": 2311, "Ġonderneming": 2312, "istische": 2313, "du": 2314, "ĠWet": 2315, "aden": 2316, "ive": 2317, "Ġontdekken": 2318, "rie": 2319, "rit": 2320, "Ġontbijt": 2321, "Ġwoonkamer": 2322, "Ġapparaat": 2323, "Ġvoren": 2324, "Ġhiermee": 2325, "Ġgest": 2326, "Ġvergelijken": 2327, "Ġlager": 2328, "Zo": 2329, "iden": 2330, "Ġberg": 2331, "Ġselectie": 2332, "ĠElke": 2333, "Ġtrots": 2334, "Â²": 2335, "Ġonderstaande": 2336, "):": 2337, "az": 2338, "ue": 2339, "ĠBinnen": 2340, "ĠNatuurlijk": 2341, "ĠBel": 2342, "Ġsamenleving": 2343, "ĠMe": 2344, "Ġteken": 2345, "Ġverbinding": 2346, "eel": 2347, "Ġcontract": 2348, "Ġinteressant": 2349, "oord": 2350, "Ġliep": 2351, "Ġtechniek": 2352, "Ġinstallatie": 2353, "sel": 2354, "Ġvocht": 2355, "ĠDenk": 2356, "AL": 2357, "iz": 2358, "ĠZie": 2359, "Ġvoeten": 2360, "Ġeenmaal": 2361, "Ġkwijt": 2362, "Ġhuren": 2363, "Ġjongen": 2364, "igd": 2365, "Ġverzekering": 2366, "ĠQ": 2367, "Ġwaarvoor": 2368, "ile": 2369, "Ġdaarin": 2370, "Ġ500": 2371, "ek": 2372, "ud": 2373, "oel": 2374, "Ġwand": 2375, "Ġse": 2376, "Ġmiddag": 2377, "Ġoptreden": 2378, "ord": 2379, "ĠMen": 2380, "Ġtegenover": 2381, "Ġopge": 2382, "Ġbeneden": 2383, "Ġkeren": 2384, "Ġgezonde": 2385, "Ġvoorzitter": 2386, "Ġfout": 2387, "bed": 2388, "Ġvoorkeur": 2389, "ĠGelukkig": 2390, "Ġra": 2391, "Ġhogere": 2392, "ann": 2393, "ĠTweede": 2394, "icht": 2395, "ass": 2396, "Ġkaarten": 2397, "q": 2398, "ĠWillem": 2399, "Ġma": 2400, "app": 2401, "geld": 2402, "Ġtijden": 2403, "yl": 2404, "stel": 2405, "Ġchat": 2406, "Ġdaarnaast": 2407, "Ġpad": 2408, "Ġafdeling": 2409, "ogen": 2410, "Ġplekken": 2411, "Ġuitstekende": 2412, "hof": 2413, "Ġinstellingen": 2414, "Ġcasino": 2415, "Ġcamping": 2416, "Ġklik": 2417, "ga": 2418, "28": 2419, "Ġrand": 2420, "Ġsector": 2421, "Uit": 2422, "ĠStaten": 2423, "Ġmezelf": 2424, "Ben": 2425, "Ġgeregeld": 2426, "oer": 2427, "Ġnieuwste": 2428, "Ġbuitenland": 2429, "Ġeindelijk": 2430, "Ġbeheer": 2431, "Ġhete": 2432, "Ġcomplete": 2433, "ĠHuis": 2434, "ĠApple": 2435, "Ġdier": 2436, "Ġvriendin": 2437, "deel": 2438, "Ġgespeeld": 2439, "plan": 2440, "Ġaccount": 2441, "Ġnodige": 2442, "AT": 2443, "Ġgebruikte": 2444, "ĠLa": 2445, "Ġverwerkt": 2446, "Ġthee": 2447, "Ġvuur": 2448, "ĠHeeft": 2449, "Ġval": 2450, "Ġsm": 2451, "ĠNieuwe": 2452, "eu": 2453, "ĠBrussel": 2454, "Ġbron": 2455, "Ġdagelijkse": 2456, "ess": 2457, "Ġtrouwens": 2458, "Ġvoornamelijk": 2459, "wijk": 2460, "99": 2461, "ON": 2462, "Ġweb": 2463, "Ġgraden": 2464, "Ġslaapkamer": 2465, "Heb": 2466, "ĠTV": 2467, "Ġochtend": 2468, "Ġvers": 2469, "Ġverloren": 2470, "con": 2471, "Ġpensioen": 2472, "ran": 2473, "Ġgen": 2474, "Ġzware": 2475, "ĠWaarom": 2476, "Ġbak": 2477, "Ġlevering": 2478, "Ġgrens": 2479, "Ġvolwassen": 2480, "ante": 2481, "Ġstoffen": 2482, "ĠCO": 2483, "bij": 2484, "Ġslaap": 2485, "Ġgroeien": 2486, "Ġaangezien": 2487, "Ġzw": 2488, "Ġverkeer": 2489, "Ġgesproken": 2490, "Ġdraaien": 2491, "ett": 2492, "Ġduurt": 2493, "Ġdownloaden": 2494, "aas": 2495, "Ġaanbieden": 2496, "min": 2497, "unt": 2498, "pers": 2499, "ĠTer": 2500, "Ġblauw": 2501, "Ġontzettend": 2502, "ĠSoms": 2503, "etjes": 2504, "ĠPorno": 2505, "Ġtaak": 2506, "uw": 2507, "Ġredelijk": 2508, "Ġwith": 2509, "Ġgast": 2510, "wet": 2511, "Ġredenen": 2512, "baarheid": 2513, "ĠVrouwen": 2514, "Ġaankoop": 2515, "Ġschrijft": 2516, "Ġqua": 2517, "Ġuitleg": 2518, "ĠEU": 2519, "ial": 2520, "Ġsnelheid": 2521, "OR": 2522, "Ze": 2523, "Ġleert": 2524, "Ġgr": 2525, "Ġreacties": 2526, "Ġslapen": 2527, "27": 2528, "ff": 2529, "ors": 2530, "Ġoudere": 2531, "ane": 2532, "Ġdirecteur": 2533, "Ġgoederen": 2534, "oten": 2535, "ologie": 2536, "Ġklassieke": 2537, "Ġondanks": 2538, "Ġtoilet": 2539, "ĠTop": 2540, "Ġgebruiker": 2541, "bedrijven": 2542, "stad": 2543, "rij": 2544, "Ġlengte": 2545, "Ġpositief": 2546, "ocht": 2547, "Ġvolk": 2548, "Ġet": 2549, ".'": 2550, "Ġnauwelijks": 2551, "Hij": 2552, "ĠKom": 2553, "Nu": 2554, "Ġgemiddeld": 2555, "Ġleek": 2556, "Ġelektrische": 2557, "Ġhangt": 2558, "ana": 2559, "Ġviel": 2560, "Ġbudget": 2561, "ĠVlaamse": 2562, "vorm": 2563, "Ġnogal": 2564, "ash": 2565, "leven": 2566, "IT": 2567, "Ġfuncties": 2568, "Ġ2000": 2569, "ĠAm": 2570, "Ġeenvoudige": 2571, "ijd": 2572, "baan": 2573, "ieten": 2574, "Ġart": 2575, "Naast": 2576, "ai": 2577, "Ġsterren": 2578, "Ġescort": 2579, "Ġbang": 2580, "Ġbeschikken": 2581, "eerden": 2582, "Ġkies": 2583, "bo": 2584, "Ġstemmen": 2585, "Alle": 2586, "Ġindividuele": 2587, "oog": 2588, "Ġbetekenis": 2589, "Ġuitstekend": 2590, "ĠMan": 2591, "die": 2592, "ice": 2593, "Ġraden": 2594, "ĠSuper": 2595, "Ġdonker": 2596, "Ġvrijwilligers": 2597, "Ġgeluk": 2598, "Ġgem": 2599, "Ġboom": 2600, "Ġlichte": 2601, "Ġlijken": 2602, "wereld": 2603, "Ġverdachte": 2604, "ĠCon": 2605, "ader": 2606, "Ġnr": 2607, "Ġaangepast": 2608, "Ġeveneens": 2609, "Ġgoud": 2610, "Ġtoestel": 2611, "atief": 2612, "ca": 2613, "cl": 2614, "open": 2615, "Ġsub": 2616, "Ġbrood": 2617, "Ġ2006": 2618, "pel": 2619, "ĠPeter": 2620, "Ġofferte": 2621, "Ġhou": 2622, "hoek": 2623, "Ġrente": 2624, "Ġsites": 2625, "Ġvet": 2626, "Ġgisteren": 2627, "Ġtechnologie": 2628, "Ġbet": 2629, "ĠVooral": 2630, "Ġeconomische": 2631, "ise": 2632, "Ġkont": 2633, "Ġverzorgen": 2634, "Ġmuseum": 2635, "Ġkast": 2636, "Ġregel": 2637, "21": 2638, "Ġwacht": 2639, "Ġbehoorlijk": 2640, "zo": 2641, "eb": 2642, "ijnen": 2643, "Ġsc": 2644, "Ġgewone": 2645, "Ġpand": 2646, "Ġlessen": 2647, "Ġdouche": 2648, "Ġware": 2649, "Ġevenement": 2650, "66": 2651, "Ġnaakt": 2652, "Onder": 2653, "ING": 2654, "Ġontspannen": 2655, "Ġvriendelijk": 2656, "ĠPer": 2657, "Ġgeopend": 2658, "ĠAntwerpen": 2659, "Ġsocial": 2660, "Ġding": 2661, "cm": 2662, "Ġtra": 2663, "inter": 2664, "oek": 2665, "Ġvrijheid": 2666, "Ġvlucht": 2667, "Ġonderhouden": 2668, "Ġstel": 2669, "ĠKan": 2670, "Ġtraditionele": 2671, "vereniging": 2672, "ĠTevens": 2673, "Ġopties": 2674, "und": 2675, "Ġgedachten": 2676, "Ġconcept": 2677, "king": 2678, "ijen": 2679, "Ġhistorische": 2680, "Ġaangesloten": 2681, "Ġleg": 2682, "Ġcom": 2683, "Ġvergoeding": 2684, "IS": 2685, "Ġvullen": 2686, "Ġverwerken": 2687, "Ġall": 2688, "ĠDE": 2689, "Ġzand": 2690, "AM": 2691, "Ġdetails": 2692, "Ġrijk": 2693, "Ġaanvragen": 2694, "Ġsociaal": 2695, "Ġondersteunen": 2696, "Ġaanbiedingen": 2697, "ĠII": 2698, "Ġrapport": 2699, "Ġangst": 2700, "Â°": 2701, "aken": 2702, "Ġbomen": 2703, "ĠNog": 2704, "Ġopenbare": 2705, "Ġdraait": 2706, "Ġcijfers": 2707, "sport": 2708, "Ġverantwoordelijkheid": 2709, "26": 2710, "Ġvastgesteld": 2711, "Ġontwerpen": 2712, "aire": 2713, "Ġgl": 2714, "ĠHoewel": 2715, "Ġvoelde": 2716, "iste": 2717, "Ġcollege": 2718, "Ġaange": 2719, "Ġwegen": 2720, "Ġplant": 2721, "Ġla": 2722, "Ġdeuren": 2723, "Ġverlies": 2724, "Ġgenoemde": 2725, "avond": 2726, "ĠWindows": 2727, "Ġrelatief": 2728, "ĠEngels": 2729, "ars": 2730, "Ġvierde": 2731, "Ġvormt": 2732, "Ġlegt": 2733, "lijst": 2734, "AR": 2735, "Ġuitdaging": 2736, "ĠHierbij": 2737, "Ġeerlijk": 2738, "ikt": 2739, "The": 2740, "kende": 2741, "Ġgelden": 2742, "Ġhierdoor": 2743, "act": 2744, "ole": 2745, "ĠSeks": 2746, "Ġzicht": 2747, "ose": 2748, "ĠOpen": 2749, "Ġsneeuw": 2750, "to": 2751, "Ġstress": 2752, "Ġijs": 2753, "Ġvoel": 2754, "ĠTwee": 2755, "Ġuiterlijk": 2756, "Ġcomfort": 2757, "Ġvoorbeelden": 2758, "Ġoordeel": 2759, "ĠVervolgens": 2760, "ring": 2761, "Ġvisie": 2762, "Ġmedische": 2763, "Ġzachte": 2764, "Ġcomfortabel": 2765, "Ġdaarop": 2766, "Ġco": 2767, "Ġklas": 2768, "Ġuitspraak": 2769, "aard": 2770, "punten": 2771, "ĠSc": 2772, "Ã«n": 2773, "Ġ%": 2774, "val": 2775, "Ġopgericht": 2776, "Ġproef": 2777, "Q": 2778, "Ġzomaar": 2779, "issen": 2780, "Ġinitiatief": 2781, "elle": 2782, "Ġspreekt": 2783, "Ġrekenen": 2784, "Ġgevolgd": 2785, "Ġslechte": 2786, "ĠVrouw": 2787, "rijk": 2788, "Ġcentrale": 2789, "ĠWater": 2790, "ines": 2791, "ara": 2792, "urs": 2793, "Ġbenieuwd": 2794, "Ġnetjes": 2795, "Ġvonden": 2796, "Ġworkshop": 2797, "Ġbier": 2798, "Ġbetaalt": 2799, "stuk": 2800, "Ġnationale": 2801, "Ġverg": 2802, "Over": 2803, "Ġmeet": 2804, "Ġpartners": 2805, "Ġnormale": 2806, "Ġbewijs": 2807, "ĠWerk": 2808, "Ġhopen": 2809, "Ġgebouwen": 2810, "Ġomhoog": 2811, "ĠPaul": 2812, "Ġbevolking": 2813, "Ġhttp": 2814, "Ġcon": 2815, "Ġwedstrijden": 2816, "blad": 2817, "middel": 2818, "Ġbetaal": 2819, "ĠAlgemene": 2820, "Ġbeschreven": 2821, "Ġlunch": 2822, "Ġdirecte": 2823, "Ġkansen": 2824, "Ġveroorzaakt": 2825, "Ġbegrip": 2826, "Ġingezet": 2827, "Ġdate": 2828, "Ġcombineren": 2829, "AS": 2830, "pro": 2831, "ĠHeel": 2832, "Ġonderwerpen": 2833, "heids": 2834, "Ġtoegevoegd": 2835, "Ġopenen": 2836, "Ġverdere": 2837, "29": 2838, "Ġhuizen": 2839, "Ġtal": 2840, "Ġjaarlijks": 2841, "Ġad": 2842, "Ġas": 2843, "Ġkut": 2844, "Ġ75": 2845, "Ġsmartphone": 2846, "Ġalweer": 2847, "bureau": 2848, "gebruik": 2849, "Ġverandering": 2850, "oos": 2851, "Ġgeest": 2852, "ĠBar": 2853, "ijs": 2854, "Ġgeboorte": 2855, "Ġ150": 2856, "Ġtrap": 2857, "rek": 2858, "ĠÂ»": 2859, "ĠHotel": 2860, "ĠEx": 2861, "Ġwaarna": 2862, "Ġbrede": 2863, "ET": 2864, "Ġalbum": 2865, "ĠPar": 2866, "Ġwoont": 2867, "Ġinspiratie": 2868, "ĠGroot": 2869, "Ġlief": 2870, "Ġbeschermen": 2871, "Ġberichten": 2872, "ijden": 2873, "ĠZelf": 2874, "ĠMassage": 2875, "Ġbestand": 2876, "Ġpaard": 2877, "houder": 2878, "Ġinter": 2879, "Ġafbeeldingen": 2880, "Ġinteresse": 2881, "Ġzogenaamde": 2882, "ĠFrans": 2883, "onen": 2884, "Ġdubbel": 2885, "Ġopzichte": 2886, "Ġbereid": 2887, "Ġtelevisie": 2888, "club": 2889, "erv": 2890, "Ġkust": 2891, "Ġdroom": 2892, "Ġshow": 2893, "Ġvoorstellen": 2894, "Ġveilige": 2895, "Ġmelden": 2896, "ĠHelaas": 2897, "ging": 2898, "Ġraken": 2899, "beeld": 2900, "Ġstonden": 2901, "stra": 2902, "ĠArtikel": 2903, "Ġtransport": 2904, "Ġdiscussie": 2905, "Ġmethode": 2906, "tra": 2907, "code": 2908, "ĠGebruik": 2909, "Ġprincipe": 2910, "ire": 2911, "Ġgebieden": 2912, "Ġnood": 2913, "Ġteksten": 2914, "Ġafgesloten": 2915, "bak": 2916, "anen": 2917, "Ġprettig": 2918, "ĠKies": 2919, "Ġadviseren": 2920, "ly": 2921, "Ġgeur": 2922, "aak": 2923, "Ġ300": 2924, "OS": 2925, "ĠvÃ³Ã³r": 2926, "Ġrichten": 2927, "Ġdank": 2928, "ĠSe": 2929, "ĠSinds": 2930, "Ġblad": 2931, "ĠOns": 2932, "Ġmachine": 2933, "ame": 2934, "Volgens": 2935, "Ġru": 2936, "ĠPark": 2937, "Ġbehandeld": 2938, "ph": 2939, "Ġricht": 2940, "ĠEindhoven": 2941, "Ġgep": 2942, "oop": 2943, "Ġteveel": 2944, "Ġgaten": 2945, "Ġslaan": 2946, "elijkheid": 2947, "Ġeruit": 2948, "pagina": 2949, "diensten": 2950, "Ġvolwassenen": 2951, "ool": 2952, "Ġpraktische": 2953, "ode": 2954, "Ġblauwe": 2955, "Ġgeloven": 2956, "ax": 2957, "achtige": 2958, "Ġmiljard": 2959, "oed": 2960, "39": 2961, "Ġgehaald": 2962, "gem": 2963, "Ġhoef": 2964, "Ġwettelijke": 2965, "ouw": 2966, "ĠTen": 2967, "Ġmedewerker": 2968, "Ġabonnement": 2969, "33": 2970, "Ġmelk": 2971, "eltje": 2972, "Ġraam": 2973, "Ġgele": 2974, "organisatie": 2975, "Ġtenzij": 2976, "Ġpopulaire": 2977, "Ġdienstverlening": 2978, "ĠâĢ¢": 2979, "ĠBV": 2980, "Ġlangzaam": 2981, "Ġbehouden": 2982, "ĠUiteraard": 2983, "Ġpassie": 2984, "Ġeconomie": 2985, "Ġtijdje": 2986, "ef": 2987, "att": 2988, "Ġvoldoet": 2989, "Ġat": 2990, "Ġ32": 2991, "niet": 2992, "beheer": 2993, "iteit": 2994, ");": 2995, "Ġgoedkoop": 2996, "Ġmaten": 2997, "ram": 2998, "ĠVerenigde": 2999, "Ġverdieping": 3000, "Ġbloem": 3001, "Ġbewegen": 3002, "Ġeditie": 3003, "Ġleeg": 3004, "Ġsteen": 3005, "Ġklimaat": 3006, "Ġwerkelijk": 3007, "gl": 3008, "Ġspeler": 3009, "Ġlandschap": 3010, "Ġzout": 3011, "Ġklacht": 3012, "Ġgelezen": 3013, "hal": 3014, "ui": 3015, "Ġslaapkamers": 3016, "lo": 3017, "Ġalvast": 3018, "Ġbesteld": 3019, "Ġduidelijke": 3020, "Ġreeks": 3021, "Ġmakkelijker": 3022, "Ġknop": 3023, "Ġspecialist": 3024, "Ġpaarden": 3025, "Ġlul": 3026, "onde": 3027, "Ġtegelijk": 3028, "Ġaanzien": 3029, "eter": 3030, "Ġtoevoegen": 3031, "Ġvrijblijvend": 3032, "Ġluisteren": 3033, "Ġspullen": 3034, "Ġgespecialiseerd": 3035, "Ġharte": 3036, "Ġbeslissing": 3037, "Ġsk": 3038, "Ġbevatten": 3039, "Ġgeweld": 3040, "Ġmanagement": 3041, "ĠWilt": 3042, "Ġklinkt": 3043, "goed": 3044, "Ġabsoluut": 3045, "Ġgame": 3046, "Ġinteressante": 3047, "Ġarts": 3048, "ox": 3049, "olie": 3050, "ees": 3051, "Ġcode": 3052, "Ġ,,": 3053, "ĠLet": 3054, "Ġverf": 3055, "org": 3056, "Ġbedoeling": 3057, "ĠMocht": 3058, "Ġstructuur": 3059, "Ġreageren": 3060, "65": 3061, "Ġstevig": 3062, "wat": 3063, "Ġrestaurants": 3064, "Ġelementen": 3065, "ight": 3066, "Ġgoedkope": 3067, "Ġlogo": 3068, "Ġhoeven": 3069, "Ġth": 3070, "Ġschuld": 3071, "Ġ2005": 3072, "Ġingericht": 3073, "Ġtrouw": 3074, "ĠMaria": 3075, "assen": 3076, "Ġcontent": 3077, "ID": 3078, "ĠVS": 3079, "Hier": 3080, "Ġamateur": 3081, "Ġtrek": 3082, "ĠHoog": 3083, "apt": 3084, "Ġgezocht": 3085, "Ġverdienen": 3086, "naam": 3087, "Ġby": 3088, "ĠUniversiteit": 3089, "Ġrecept": 3090, "Ġverzekerd": 3091, "Ġbestemming": 3092, "Ġradio": 3093, "Ġsimpel": 3094, "ĠDankzij": 3095, "Ġakkoord": 3096, "ĠChina": 3097, "oom": 3098, "igt": 3099, "Ġprobeert": 3100, "Ġneus": 3101, "Ġverslag": 3102, "Ġhalve": 3103, "mans": 3104, "Ġan": 3105, "aanse": 3106, "Ġhoud": 3107, "Ġmomenten": 3108, "Ġduurzaam": 3109, "wel": 3110, "Ġkat": 3111, "Ge": 3112, "Ġvooruit": 3113, "Ġsituaties": 3114, "Ġstichting": 3115, "kers": 3116, "Ġbereikbaar": 3117, "ĠVlaanderen": 3118, "Ġhandige": 3119, "01": 3120, "Ġzaal": 3121, "Ġbalans": 3122, "ĠKn": 3123, "Ġondernemer": 3124, "Ġverklaring": 3125, "2018": 3126, "ages": 3127, "Ġgeh": 3128, "Ġvoorzieningen": 3129, "ĠEuro": 3130, "ĠIN": 3131, "Ġtoegestaan": 3132, "Ġklasse": 3133, "gegevens": 3134, "bal": 3135, "ack": 3136, "Ġfotos": 3137, "Ġverlichting": 3138, "Ġvolgend": 3139, "zer": 3140, "Ġdubbele": 3141, "Ġ36": 3142, "door": 3143, "Ġcontroleren": 3144, "Ġdaadwerkelijk": 3145, "Ġgehoord": 3146, "Ġrechtstreeks": 3147, "Ġlocaties": 3148, "box": 3149, "Ġerin": 3150, "aag": 3151, "ĠIedereen": 3152, "Ġjammer": 3153, "Ġtoont": 3154, "vel": 3155, "Ġverlaten": 3156, "ĠVaak": 3157, "ree": 3158, "ĠArt": 3159, "maar": 3160, "zet": 3161, "Ġdik": 3162, "Ġformulier": 3163, "Ġschip": 3164, "broek": 3165, "Ġblik": 3166, "An": 3167, "ics": 3168, "Ġstation": 3169, "Ġtrekt": 3170, "Ġgew": 3171, "Ġvliegen": 3172, "ĠHolland": 3173, "Ġconsument": 3174, "ĠBuiten": 3175, "Ġplatform": 3176, "Ġineens": 3177, "Ġhelder": 3178, "Ġschaal": 3179, "orm": 3180, "Ġpr": 3181, "Ġwerknemer": 3182, "Ġmaatschappelijke": 3183, "Ġtechnieken": 3184, "lie": 3185, "ĠAll": 3186, "Ġgroeps": 3187, "Ġkeek": 3188, "sn": 3189, "Ġwegens": 3190, "waar": 3191, "Ġafkomstig": 3192, "Ġbracht": 3193, "Holland": 3194, "Ġmaatschappij": 3195, "ĠSpanje": 3196, "ĠLeiden": 3197, "05": 3198, "Ġdoelen": 3199, "ĠKerk": 3200, "Ġkoud": 3201, "vert": 3202, "ĠWelke": 3203, "Ġpak": 3204, "amb": 3205, "aw": 3206, "Ġverjaardag": 3207, "Ġyou": 3208, "Ġtaken": 3209, "Ġregeling": 3210, "100": 3211, "ĠSte": 3212, "Ġenthousiast": 3213, "Ġmaximale": 3214, "Ġspeelde": 3215, "Ġwerkte": 3216, "Ġtoegepast": 3217, "Ġdu": 3218, "Ġburgers": 3219, "Ġeigenschappen": 3220, "mat": 3221, "Ġsystemen": 3222, "Ġpresentatie": 3223, "Ġbinnenkort": 3224, "des": 3225, "ED": 3226, "Ġpresident": 3227, "aad": 3228, "ĠMensen": 3229, "Ġaccessoires": 3230, "kast": 3231, "allen": 3232, "Ġdame": 3233, "omen": 3234, "materiaal": 3235, "cht": 3236, "ĠTra": 3237, "kracht": 3238, "Ġhuwelijk": 3239, "Ġvergelijking": 3240, "Ġevenementen": 3241, "PS": 3242, "br": 3243, "ĠpatiÃ«nt": 3244, "ĠNee": 3245, "Ġberoeps": 3246, "Ġpre": 3247, "Ġverwijderd": 3248, "ari": 3249, "44": 3250, "Ġactiviteit": 3251, "Ġgebeurd": 3252, "Ġschriftelijk": 3253, "Die": 3254, "Sch": 3255, "Ġarm": 3256, "Ġinkomen": 3257, "Ġhierover": 3258, "middelen": 3259, "iele": 3260, "Ġnot": 3261, "Ġwandelen": 3262, "Ġgewonnen": 3263, "31": 3264, "ied": 3265, "ĠHieronder": 3266, "ander": 3267, "Ġvaardigheden": 3268, "ĠDating": 3269, "ĠGer": 3270, "ĠIT": 3271, "dig": 3272, "ater": 3273, "Ġstoel": 3274, "Ġlaptop": 3275, "tal": 3276, "EM": 3277, "Ġingang": 3278, "bar": 3279, "Ġapart": 3280, "Ġbelangen": 3281, "Ġloon": 3282, "Ġvolop": 3283, "Indien": 3284, "Ġ(âĤ¬": 3285, "oort": 3286, "pp": 3287, "Ġregelen": 3288, "Ġoorzaak": 3289, "pot": 3290, "Ġveranderingen": 3291, "staat": 3292, "zel": 3293, "Ã¶": 3294, "Ġgay": 3295, "Ġzelfstandig": 3296, "Ġacties": 3297, "Ġgesch": 3298, "Ġbehalve": 3299, "stof": 3300, "ĠHof": 3301, "feest": 3302, "Ġhaven": 3303, "Ġbenen": 3304, "yt": 3305, "Is": 3306, "Ġrivier": 3307, "Ġkoper": 3308, "Ġfase": 3309, "gers": 3310, "ath": 3311, "Ġkunststof": 3312, "Ġeffecten": 3313, "Ġ2019": 3314, "Ġtelkens": 3315, "Ġnummers": 3316, "Ġtas": 3317, "arts": 3318, "Ġlook": 3319, "ĠInter": 3320, "Ġcl": 3321, "aliteit": 3322, "oven": 3323, "Wilt": 3324, "ain": 3325, "ots": 3326, "machine": 3327, "Ġverzamelen": 3328, "off": 3329, "foto": 3330, "plaatsen": 3331, "ood": 3332, "ĠofficiÃ«le": 3333, "Ġstraks": 3334, "Ġplus": 3335, "Ġpers": 3336, "Ġhield": 3337, "Ġup": 3338, "Ġveranderd": 3339, "Ġverliezen": 3340, "ĠHans": 3341, "Ġreclame": 3342, "Ġprestaties": 3343, "38": 3344, "Ġzakelijke": 3345, "Ġdien": 3346, "vis": 3347, "Ġwerkzaam": 3348, "elaar": 3349, "Ġlandelijke": 3350, "Â®": 3351, "ĠGoed": 3352, "Ġburgemeester": 3353, "Ġexterne": 3354, "och": 3355, "ĠZeker": 3356, "Ġhotels": 3357, "Ġonbe": 3358, "Ġafval": 3359, "ult": 3360, "Vandaag": 3361, "Ġverst": 3362, "verzekering": 3363, "Ġbijdragen": 3364, "ĠNe": 3365, "Ġtoegankelijk": 3366, "ĠLimburg": 3367, "Ġzonne": 3368, "Ġtheater": 3369, "Ġtegelijkertijd": 3370, "reis": 3371, "Ġalsnog": 3372, "Ġstevige": 3373, "ĠST": 3374, "ĠOr": 3375, "Ġboodschap": 3376, "Ġbez": 3377, "oy": 3378, "Ġcadeau": 3379, "Ġstraf": 3380, "loop": 3381, "Ġalcohol": 3382, "ish": 3383, "Ġbrug": 3384, "ity": 3385, "aart": 3386, "Ġwon": 3387, "Ġkoning": 3388, "âĢĵ": 3389, "Ġoven": 3390, "|": 3391, "Ġmode": 3392, "Ġherstel": 3393, "Ġactieve": 3394, "Ġjaarlijkse": 3395, "atieve": 3396, "steen": 3397, "ĠZonder": 3398, "Ġbehoort": 3399, "red": 3400, "ĠMon": 3401, "ark": 3402, "achtig": 3403, "Ġverwerking": 3404, "Ġken": 3405, "Ġkw": 3406, "Ġinrichting": 3407, "Ġ65": 3408, "ĠHiermee": 3409, "Ġnee": 3410, "Ġtesten": 3411, "Ġafbeelding": 3412, "Ġkabel": 3413, "Ġor": 3414, "32": 3415, "Ġgedacht": 3416, "Ġmeiden": 3417, "ĠOude": 3418, "ieke": 3419, "Ġwandeling": 3420, "Ġleest": 3421, "licht": 3422, "Ġbeurt": 3423, "34": 3424, "ock": 3425, "Ġbuik": 3426, "zelf": 3427, "commissie": 3428, "pakket": 3429, "Ġprobeer": 3430, "alt": 3431, "Ġgram": 3432, "ĠAmerika": 3433, "Ġactuele": 3434, "Ġoptimale": 3435, "druk": 3436, "Ġgelegd": 3437, "Ġy": 3438, "Ġdi": 3439, "oppen": 3440, "Ġopgeslagen": 3441, "ider": 3442, "oh": 3443, "Ġsuccesvol": 3444, "48": 3445, "Ġzak": 3446, "ĠLand": 3447, "Ġgerechten": 3448, "ĠNederlanders": 3449, "Ġwereldwijd": 3450, "Ġhandelen": 3451, "Ġfeiten": 3452, "IE": 3453, "Ġtablet": 3454, "ĠItaliÃ«": 3455, "Ġroze": 3456, "da": 3457, "ĠMax": 3458, "Ġaardig": 3459, "Ġaanpassen": 3460, "Ġborsten": 3461, "ĠJohn": 3462, "ĠMuseum": 3463, "Ġbeurs": 3464, "Ġverkrijgen": 3465, "Toen": 3466, "loos": 3467, "ase": 3468, "Ġminstens": 3469, "Ġaluminium": 3470, "Ġwerkelijkheid": 3471, "ras": 3472, "Ġweergegeven": 3473, "ĠZelfs": 3474, "Ġconsumenten": 3475, "ern": 3476, "Ġbedraagt": 3477, "ĠNaar": 3478, "Ġrustige": 3479, "!!!": 3480, "Ġlangere": 3481, "Ġhal": 3482, "ĠingrediÃ«nten": 3483, "36": 3484, "Ġvertrek": 3485, "Ġborst": 3486, "Ġonderweg": 3487, "geb": 3488, "RA": 3489, "Ġgenoten": 3490, "hand": 3491, "ĠSexy": 3492, "Ġgekeken": 3493, "ĠVandaag": 3494, "Ġcirca": 3495, "oet": 3496, "ĠLED": 3497, "anc": 3498, "Ġhoewel": 3499, "inn": 3500, "Ġleerling": 3501, "anden": 3502, "Ġhetgeen": 3503, "appen": 3504, "Ġwilden": 3505, "Ġbev": 3506, "Ġagenda": 3507, "Ġmenu": 3508, "Ġontdekt": 3509, "volle": 3510, "ĠSan": 3511, "Ġaanmerking": 3512, "BO": 3513, "Ġbehoren": 3514, "Ġzagen": 3515, "Ġxxx": 3516, "ats": 3517, "bert": 3518, "proces": 3519, "Ġgestart": 3520, "Ġkar": 3521, "Ġapparatuur": 3522, "che": 3523, "Ġanti": 3524, "ĠVl": 3525, "Ġpar": 3526, "Ġtotdat": 3527, "04": 3528, "Ġexamen": 3529, "ĠHar": 3530, "Ġvideos": 3531, "Heeft": 3532, "Ġpop": 3533, "Ġeffectief": 3534, "Ġgemak": 3535, "abel": 3536, "pte": 3537, "Ġlukt": 3538, "Ġdocumenten": 3539, "ĠMa": 3540, "ĠSP": 3541, "Ġvertelde": 3542, "Ġteams": 3543, "Ġzijde": 3544, "Ġ55": 3545, "ini": 3546, "ance": 3547, "roe": 3548, "Ġinstantie": 3549, "Ġwijzigen": 3550, "Ġhttps": 3551, "Ġspanning": 3552, "Ġbureau": 3553, "Ġstop": 3554, "oes": 3555, "par": 3556, "Ġfinancieel": 3557, "old": 3558, "Ġpopulair": 3559, "Sinds": 3560, "verd": 3561, "Ġvoorstel": 3562, "mogelijkheden": 3563, "ĠSommige": 3564, "Ġrook": 3565, "gang": 3566, "ĠGl": 3567, "Ġmodern": 3568, "Ġbroek": 3569, "Ġaparte": 3570, "Ġschrijf": 3571, "erie": 3572, "Ġverpakking": 3573, "Ġpodium": 3574, "Ġkook": 3575, "ids": 3576, "Ġgesprekken": 3577, "aut": 3578, "Ġlas": 3579, "ĠBijvoorbeeld": 3580, "Ġdocument": 3581, "Ġmat": 3582, "wegen": 3583, "gaan": 3584, "periode": 3585, "erg": 3586, "Ġdans": 3587, "Ġfantastisch": 3588, "Ġfestival": 3589, "Ġorganiseert": 3590, "âĢ¦.": 3591, "amen": 3592, "Ġtwintig": 3593, "Ġrespect": 3594, "Ġbanden": 3595, "ĠGent": 3596, "kerk": 3597, "Ġaspecten": 3598, "Ġbroer": 3599, "producten": 3600, "Ġwakker": 3601, "ĠAir": 3602, "Wie": 3603, "Ġsleutel": 3604, "Ð¸": 3605, "Ġomtrent": 3606, "Ġonlangs": 3607, "ĠPe": 3608, "Ġinzetten": 3609, "Ġ2004": 3610, "Ġzodra": 3611, "Ġspannend": 3612, "Ġbi": 3613, "uin": 3614, "Ġziek": 3615, "Ġdetail": 3616, "ĠBouw": 3617, "ips": 3618, "elf": 3619, "ç": 3620, "ĠItaliaanse": 3621, "DE": 3622, "sex": 3623, "Ġbespreken": 3624, "zak": 3625, "Ã¼": 3626, "stukken": 3627, "ous": 3628, "Ġspecifiek": 3629, "zien": 3630, "olen": 3631, "Ġsteken": 3632, "Ġonmiddellijk": 3633, "Ġindustrie": 3634, "Niet": 3635, "ĠDoe": 3636, "ple": 3637, "Ġar": 3638, "ĠParijs": 3639, "Ġadvertenties": 3640, "å": 3641, "Ġsuiker": 3642, "Ġaanrader": 3643, "elk": 3644, "Ġkanten": 3645, "Ġvervolg": 3646, "Ġlagere": 3647, "IC": 3648, "Ġapparaten": 3649, "ĠICT": 3650, "æ": 3651, "igde": 3652, "Ġkeuzes": 3653, "plein": 3654, "bus": 3655, "Ġgevaar": 3656, "ĠNL": 3657, "veen": 3658, "ĠBritse": 3659, "Ġfree": 3660, "Ġtijdelijk": 3661, "ĠPas": 3662, "ĠRob": 3663, "Ġlieve": 3664, "room": 3665, "Ġbanken": 3666, "regeling": 3667, "Ġvert": 3668, "Ġzekerheid": 3669, "ĠEN": 3670, "Ġafloop": 3671, "ella": 3672, "Ġonver": 3673, "Ġgevel": 3674, "Ġit": 3675, "Ġgebrek": 3676, "09": 3677, "ĠVraag": 3678, "Ġbetekenen": 3679, "inde": 3680, "handel": 3681, "Ġboeren": 3682, "Ġverse": 3683, "ĠVanuit": 3684, "inder": 3685, "Veel": 3686, "Ġmix": 3687, "Ġbergen": 3688, "ĠCom": 3689, "Ġvogels": 3690, "Ġalternatief": 3691, "Ġpassende": 3692, "Ġbusiness": 3693, "ĠBerg": 3694, "ĠUn": 3695, "Ġplaatsvinden": 3696, "Ġvoorkomt": 3697, "iÃ«n": 3698, "Ġgrenzen": 3699, "Ġkruiden": 3700, "ĠBos": 3701, "Ġkleinere": 3702, "Ġbepaalt": 3703, "niveau": 3704, "Ġmar": 3705, "afel": 3706, "Ġprint": 3707, "Ġavonds": 3708, "Ġbedragen": 3709, "informatie": 3710, "âĢ¢": 3711, "Ġmicro": 3712, "Ġcreatieve": 3713, "Ġadvocaat": 3714, "Ġnegatieve": 3715, "OM": 3716, "Ġcommissie": 3717, "get": 3718, "ĠVol": 3719, "ake": 3720, "Ġouderen": 3721, "boeken": 3722, "Ġverdeeld": 3723, "Ġplastic": 3724, "zaal": 3725, "Ġnat": 3726, "Ġantwoorden": 3727, "ente": 3728, "okken": 3729, "Ġomzet": 3730, "Ġonvoldoende": 3731, "Ġbesloot": 3732, "Ġdeden": 3733, "Ġgez": 3734, "ctie": 3735, "Ġinternationaal": 3736, "Ġlamp": 3737, "Ġwijzen": 3738, "Ġpol": 3739, "Ġondertussen": 3740, "Ġhof": 3741, "Ġbeh": 3742, "Ġserieus": 3743, "Ġvoormalige": 3744, "vl": 3745, "85": 3746, "Omdat": 3747, "Ġinstelling": 3748, "Vanaf": 3749, "Ġgeneratie": 3750, "able": 3751, "Ġspoor": 3752, "vak": 3753, "kom": 3754, "Ġcar": 3755, "Re": 3756, "Ġhierin": 3757, "Ġforum": 3758, "06": 3759, "ĠHun": 3760, "port": 3761, "AG": 3762, "ĠGemeente": 3763, "ĠcliÃ«nt": 3764, "Sp": 3765, "Ġdonkere": 3766, "vent": 3767, "ĠSuriname": 3768, "Ġhaalt": 3769, "ĠMark": 3770, "ĠZowel": 3771, "Ġbezwaar": 3772, "37": 3773, "itie": 3774, "Ġkijkje": 3775, "Ġkg": 3776, "Ġuitgerust": 3777, "Ġeer": 3778, "plaat": 3779, "Ġformaat": 3780, "Ġminuut": 3781, "Ġburger": 3782, "Ġverh": 3783, "ĠPC": 3784, "Ġ<": 3785, "Ġscherp": 3786, "OL": 3787, "Ġfantastische": 3788, "Ġhonderd": 3789, "Ġplaat": 3790, "Ġarbeids": 3791, "Ġverstrekt": 3792, "ĠClub": 3793, "ĠHand": 3794, "ĠChristus": 3795, "rom": 3796, "Ġrelaties": 3797, "oll": 3798, "Ġgids": 3799, "Ġwagen": 3800, "Ġbod": 3801, "Ġprofessioneel": 3802, "Ġaandelen": 3803, "innen": 3804, "Ġvoegen": 3805, "ontwikkeling": 3806, "Ġverm": 3807, "Ġbevinden": 3808, "Ġsubsidie": 3809, "Ġvergadering": 3810, "Ġverz": 3811, "ley": 3812, "ĠInternet": 3813, "Ġbeleven": 3814, "Ġboord": 3815, "ille": 3816, "Ġwijzigingen": 3817, "ges": 3818, "Ġnergens": 3819, "Ch": 3820, "RO": 3821, "ĠOnt": 3822, "sb": 3823, "ĠdÃ©": 3824, "merk": 3825, "iep": 3826, "Ġne": 3827, "mp": 3828, "ĠDaarmee": 3829, "Ġverzorgd": 3830, "Zoals": 3831, "Ġaccu": 3832, "Ġinterne": 3833, "ĠYork": 3834, "Ġ38": 3835, "Ġdichtbij": 3836, "Ġwaarden": 3837, "Ġvoert": 3838, "Ġrecente": 3839, "by": 3840, "Ġopslag": 3841, "ĠHem": 3842, "boom": 3843, "Ġfysieke": 3844, "Ġopdrachten": 3845, "ussen": 3846, "ĠGr": 3847, "aam": 3848, "Ġ250": 3849, "Ġgedragen": 3850, "ĠCol": 3851, "Ġtoezicht": 3852, "ĠGro": 3853, "Ġvereist": 3854, "Ġenig": 3855, "Ġlandbouw": 3856, "Ġgras": 3857, "Ġrit": 3858, "Ġgeholpen": 3859, "Ġhypotheek": 3860, "Ġbehandelen": 3861, "EG": 3862, "Ġdoelgroep": 3863, "ux": 3864, "Ġliter": 3865, "Ġkwestie": 3866, "ande": 3867, "uis": 3868, "Ġkoel": 3869, "Ġhoogwaardige": 3870, "Ġverandert": 3871, "Ġkoken": 3872, "55": 3873, "ĠMin": 3874, "ologische": 3875, "beek": 3876, "CH": 3877, "dagen": 3878, "aris": 3879, "Ġbord": 3880, "Ġgeil": 3881, "%.": 3882, "Ġbody": 3883, "Ġbovenstaande": 3884, "Ġopening": 3885, "Ġtrainingen": 3886, "Ġflinke": 3887, "Ġpik": 3888, "Ġmobiel": 3889, "activiteiten": 3890, "voer": 3891, "project": 3892, "uil": 3893, "Ġvieren": 3894, "Ġgeleerd": 3895, "ĠBoek": 3896, "Ġring": 3897, "form": 3898, "opleiding": 3899, "ĠNijmegen": 3900, "Ġduizenden": 3901, "Ġopgesteld": 3902, "Ġwijziging": 3903, "Ġgarage": 3904, "Ġomgaan": 3905, "Ġletterlijk": 3906, "Ġzaten": 3907, "Ġlossen": 3908, "Ġwaarheid": 3909, "Ġworkshops": 3910, "Ġbestel": 3911, "ions": 3912, "erij": 3913, "ĠCo": 3914, "Ġinformeren": 3915, "ĠArnhem": 3916, "Ġsta": 3917, "Ġuitzondering": 3918, "ĠIP": 3919, "model": 3920, "team": 3921, "ĠÐ": 3922, "Ġsporten": 3923, "Ġdollar": 3924, "ĠCommissie": 3925, "Ġveiligheids": 3926, "Ġhandel": 3927, "delen": 3928, "iÃ«le": 3929, "Ġcomplex": 3930, "Ġofficieel": 3931, "08": 3932, "ĠZee": 3933, "ĠKortom": 3934, "Ġbesluiten": 3935, "AD": 3936, "Ġfinale": 3937, "zaken": 3938, "Ġanalyse": 3939, "Ġglazen": 3940, "Ġbetrouwbare": 3941, "Ġgolf": 3942, "Ġnabij": 3943, "Ġ33": 3944, "Ġzuiden": 3945, "Ġkrant": 3946, "Ġemail": 3947, "Ġimpact": 3948, "Ġkenmerken": 3949, "Ġgra": 3950, "ĠBest": 3951, "dijk": 3952, "maker": 3953, "Ġinstalleren": 3954, "ĠcliÃ«nten": 3955, "Ġaanwezigheid": 3956, "Ġsuccesvolle": 3957, "Ġonge": 3958, "Ġraakt": 3959, "Ġoor": 3960, "Ġaanvullende": 3961, "ĠOl": 3962, "Ġgouden": 3963, "Ġdigitaal": 3964, "Ġtarief": 3965, "oss": 3966, "Ġwenst": 3967, "ĠEven": 3968, "Ġaanbieding": 3969, "Ġprocedure": 3970, "ĠMicrosoft": 3971, "Le": 3972, "ĠIsraÃ«l": 3973, "07": 3974, "Ġkaas": 3975, "ĠDon": 3976, "Ġprofessionals": 3977, "maat": 3978, "groepen": 3979, "ote": 3980, "ĠEchter": 3981, "Ġvl": 3982, "reg": 3983, "ĠMidden": 3984, "cent": 3985, "Ġopgebouwd": 3986, "scherm": 3987, "opt": 3988, "Ġploeg": 3989, "Ġmaaltijd": 3990, "ĠEerste": 3991, "functie": 3992, "zoals": 3993, "Ġaansluiting": 3994, "!)": 3995, "Ġ..": 3996, "eltjes": 3997, "Ġvreemd": 3998, "Ġhoofdstuk": 3999, "49": 4000, "ĠEngelse": 4001, "kamp": 4002, "Ġpan": 4003, "Ġdr": 4004, "Ġmaal": 4005, "Ġfactuur": 4006, "ĠHD": 4007, "aus": 4008, "ient": 4009, "ift": 4010, "Ġdel": 4011, "Ġkruis": 4012, "Ġkoude": 4013, "mon": 4014, "Ġvelen": 4015, "uc": 4016, "Ġlaatst": 4017, "Ġhouding": 4018, "Ġ48": 4019, "ique": 4020, "Ġ2003": 4021, "Ġ1000": 4022, "Ġbeoordeling": 4023, "Ġ06": 4024, "schappen": 4025, "ikken": 4026, "Ġnoch": 4027, "wagen": 4028, "orp": 4029, "AP": 4030, "Ġblijf": 4031, "Ġslachtoffer": 4032, "ĠDr": 4033, "ĠCor": 4034, "Ġconcert": 4035, "ime": 4036, "Ġleverancier": 4037, "Ġramen": 4038, "ĠBru": 4039, "Ġvoorbereiding": 4040, "Ġmissen": 4041, "adres": 4042, "gend": 4043, "02": 4044, "Ġbegeleiden": 4045, "Ġtelefoonnummer": 4046, "Ġ400": 4047, "Ġlosse": 4048, "Ġmelding": 4049, "bet": 4050, "Ġgames": 4051, "Ġster": 4052, "Ġtegenstelling": 4053, "Ġschilder": 4054, "Ġinterview": 4055, "datum": 4056, "ĠFoto": 4057, "ĠTerwijl": 4058, "weer": 4059, "Of": 4060, "Ġverbetering": 4061, "ĠMac": 4062, "gev": 4063, "ĠJong": 4064, "ress": 4065, "Ġgemeenschap": 4066, "Ġgeheugen": 4067, "Ġvoldaan": 4068, "Ġherstellen": 4069, "ĠTom": 4070, "Ġverschijnen": 4071, "ĠAb": 4072, "Ġfunctioneren": 4073, "ung": 4074, "Ġvrouwelijke": 4075, "Pro": 4076, "Ġleger": 4077, "pad": 4078, "Ġbeen": 4079, "kleding": 4080, "Ġtheorie": 4081, "Dan": 4082, "woord": 4083, "ĠZaken": 4084, "Ġverplichtingen": 4085, "Ġbekeken": 4086, "Ġverkeerde": 4087, "elden": 4088, "ĠTwitter": 4089, "wer": 4090, "Ġrollen": 4091, "Ġfocus": 4092, "Ġber": 4093, "Ġrijdt": 4094, "Ġfan": 4095, "Ġbevestigd": 4096, "Ġlagen": 4097, "Ġalsmede": 4098, "ĠMedia": 4099, "ysteem": 4100, "enen": 4101, "Ġtwijfel": 4102, "auto": 4103, "achten": 4104, "ano": 4105, "asten": 4106, "Ġbeperking": 4107, "Ġspannende": 4108, "Ġqu": 4109, "belasting": 4110, "ielen": 4111, "ĠSchool": 4112, "Ġnieuwsbrief": 4113, "Ġaccommodatie": 4114, "Ġkleiner": 4115, "Ġoma": 4116, "Ġlijnen": 4117, "ĠCD": 4118, "hop": 4119, "Ġcomfortabele": 4120, "Ġ@": 4121, "Ã¯": 4122, "Ġonmogelijk": 4123, "Ġverhouding": 4124, "Ġmiddels": 4125, "è": 4126, "Ġnoemt": 4127, "Ġoorspronkelijke": 4128, "ĠAndroid": 4129, "Ġbeslist": 4130, "Ġgezamenlijk": 4131, "Ġbestanden": 4132, "Ġversch": 4133, "ola": 4134, "del": 4135, "entie": 4136, "Ġcontacten": 4137, "Ġzorgvuldig": 4138, "cties": 4139, "ora": 4140, "Ġseconden": 4141, "Ġoverlijden": 4142, "eek": 4143, "Ã¤": 4144, "Ġverb": 4145, "Ġontvang": 4146, "Ġreparatie": 4147, "anne": 4148, "kens": 4149, "dere": 4150, "zw": 4151, "Ġgev": 4152, "Ġzwangerschap": 4153, "Ġadministratie": 4154, "NL": 4155, "gebouw": 4156, "Ġvandaan": 4157, "Ġoudste": 4158, "Ġgemaakte": 4159, "Ġant": 4160, "ĠEuropees": 4161, "Ġfactoren": 4162, "kant": 4163, "03": 4164, "zaak": 4165, "Ġhonderden": 4166, "Ġbeschikbare": 4167, "Ġhigh": 4168, "Ġporn": 4169, "ĠSamsung": 4170, "Ġverkeerd": 4171, "Ã¡": 4172, "Ġprive": 4173, "Ġeigendom": 4174, "orten": 4175, "Ġheden": 4176, "ĠCentrum": 4177, "ĠZoek": 4178, "Ġzolang": 4179, "Ġtarieven": 4180, "Ġaansprakelijk": 4181, "Ġind": 4182, "nis": 4183, "akken": 4184, "stroom": 4185, "Ġgeleid": 4186, "str": 4187, "Ġklikken": 4188, "mailadres": 4189, "Ġstaal": 4190, "Ġarbeid": 4191, "Ġwandel": 4192, "sector": 4193, "Ġgrootte": 4194, "Ġverschijnt": 4195, "Daarnaast": 4196, "zijn": 4197, "Ġevenals": 4198, "Ġtelt": 4199, "Ġsprak": 4200, "elling": 4201, "Ġtent": 4202, "Ġschrijver": 4203, "ser": 4204, "Ġidentiteit": 4205, "Ġstage": 4206, "OP": 4207, "Ġmaakten": 4208, "500": 4209, "Ġbezorgen": 4210, "ald": 4211, "ĠRed": 4212, "schade": 4213, "Ġste": 4214, "Ġvilla": 4215, "ĠGroen": 4216, "Ģ": 4217, "ĠFrank": 4218, "Ġstimuleren": 4219, "ager": 4220, "Ġculturele": 4221, "47": 4222, "Ġbezocht": 4223, "aro": 4224, "ĠBosch": 4225, "ĠDesign": 4226, "Ġtip": 4227, "organisaties": 4228, "rem": 4229, "film": 4230, "Ġtoekomstige": 4231, "Ġie": 4232, "haar": 4233, "eed": 4234, "laag": 4235, "Ġdrukken": 4236, "ĠMag": 4237, "Ġrelevante": 4238, "Ġhandels": 4239, "Ġvoorstelling": 4240, "Ġel": 4241, "ala": 4242, "Ġbeantwoorden": 4243, "ĠBr": 4244, "bi": 4245, "Ġingesteld": 4246, "46": 4247, "Ġinzake": 4248, "zaam": 4249, "Ġkoelkast": 4250, "Ġvariant": 4251, "Ġbesparen": 4252, "Ġhemel": 4253, "Ġpremie": 4254, "rot": 4255, "Ġwerkdagen": 4256, "orn": 4257, "Ġverl": 4258, "Ġbuitenlandse": 4259, "loze": 4260, "Ġbeslag": 4261, "Ġprocessen": 4262, "Ġbewaren": 4263, "Ġbas": 4264, "Ġstrak": 4265, "ĠBank": 4266, "Ġfouten": 4267, "rop": 4268, "ĠMy": 4269, "Ġkatten": 4270, "ction": 4271, "ĠQu": 4272, "Ġ37": 4273, "kaarten": 4274, "Ġverw": 4275, "ĠService": 4276, "Ġvliegtuig": 4277, "Ġgoedkoper": 4278, "ĠErotische": 4279, "Ġtempo": 4280, "ĠÃł": 4281, "Ġgeschikte": 4282, "Ġverwachting": 4283, "Ġbesteed": 4284, "Ġstudent": 4285, "ĠâĢĶ": 4286, "Ġontmoeten": 4287, "ris": 4288, "ĠRijn": 4289, "Ġbek": 4290, "rum": 4291, "ret": 4292, "Ġbeschouwd": 4293, "ĠNadat": 4294, "line": 4295, "Ġstenen": 4296, "eur": 4297, "Ġtalent": 4298, "wijze": 4299, "let": 4300, "Ġeentje": 4301, "rak": 4302, "Ġversterken": 4303, "Ġmochten": 4304, "ĠBlack": 4305, "oken": 4306, "Ġhierboven": 4307, "Ġbv": 4308, "Ġbatterij": 4309, "ĠUiteindelijk": 4310, "Ġfris": 4311, "Ġtocht": 4312, "Ġgepubliceerd": 4313, "kwaliteit": 4314, "wand": 4315, "ĠEngeland": 4316, "ĠChinese": 4317, "Ġpot": 4318, "Ġuiterst": 4319, "woning": 4320, "la": 4321, "88": 4322, "Ġcrisis": 4323, "Ġkatoen": 4324, "Ġherkennen": 4325, "Ġhoorde": 4326, "IG": 4327, "Ġ34": 4328, "Ġverhogen": 4329, "sters": 4330, "bron": 4331, "Ġzwem": 4332, "istisch": 4333, "Ġam": 4334, "Ġtelefonisch": 4335, "Ġtrainer": 4336, "Ġonderscheiden": 4337, "staande": 4338, "ĠHaarlem": 4339, "ĠPlus": 4340, "Ġbewezen": 4341, "Ġvergunning": 4342, "rik": 4343, "Ġscherpe": 4344, "Ġstreven": 4345, "week": 4346, "ĠWas": 4347, "stellen": 4348, "Ġkrachtige": 4349, "ĠStaat": 4350, "Ġsamengesteld": 4351, "ĠDaardoor": 4352, "Ġopvang": 4353, "ĠEÃ©n": 4354, "Ġverboden": 4355, "Ġverk": 4356, "Ġnegen": 4357, "Ġherfst": 4358, "Ġbeton": 4359, "Ġgeraakt": 4360, "Ġvissen": 4361, "zicht": 4362, "Ġinnovatie": 4363, "].": 4364, "ĠâĨĴ": 4365, "ĠMer": 4366, "ĠBTW": 4367, "Ġleveranciers": 4368, "wit": 4369, "Ġkap": 4370, "Ġapps": 4371, "Ġplat": 4372, "ĠOud": 4373, "ĠGods": 4374, "Ġbehoeve": 4375, "Ġaanleg": 4376, "Ġbesproken": 4377, "Ġaansprakelijkheid": 4378, "AC": 4379, "splan": 4380, "Ġoefenen": 4381, "Ġmilf": 4382, "uy": 4383, "Ġspiegel": 4384, "Ġbepalingen": 4385, "Ġgrijs": 4386, "Ġuitkering": 4387, "kn": 4388, "Ġnamens": 4389, "OT": 4390, "Ġmeldt": 4391, "iaal": 4392, "Ġstatus": 4393, "Ġlijf": 4394, "ĠSpaanse": 4395, "Ġac": 4396, "Ġaankomst": 4397, "Ġgegeten": 4398, "post": 4399, "Ã¨": 4400, "zijde": 4401, "Ġspeelgoed": 4402, "Ġwetenschap": 4403, "Ġbedankt": 4404, "IP": 4405, "Ġblijken": 4406, "ĠHeer": 4407, "Ġernstige": 4408, "Ġbehalen": 4409, "Ġzingen": 4410, "Ġint": 4411, "Ġvertrekken": 4412, "Ġgeslacht": 4413, "ĠCollege": 4414, "Ġtijde": 4415, "ĠStad": 4416, "visie": 4417, "advies": 4418, "Ġtoon": 4419, "maal": 4420, "IL": 4421, "Ġblijkbaar": 4422, "Ġtenminste": 4423, "Ġafscheid": 4424, "Ġdo": 4425, "Ġgevoelens": 4426, "Ġbesteden": 4427, "Ġdiner": 4428, "Ġcoach": 4429, "ĠOndanks": 4430, "ĠMaas": 4431, "Ġduren": 4432, "Ġgroeit": 4433, "Ġcent": 4434, "Ġdroge": 4435, "ĠMaastricht": 4436, "ild": 4437, "rand": 4438, "ĠHome": 4439, "Ġcompetitie": 4440, "Ġ120": 4441, "actie": 4442, "komen": 4443, "Ġhobby": 4444, "Ġermee": 4445, "Ġzwemmen": 4446, "vrouw": 4447, "Ġton": 4448, "ĠNou": 4449, "houders": 4450, "Af": 4451, "Ġuitzending": 4452, "ĠWit": 4453, "Ġaangebracht": 4454, "Ġtrok": 4455, "ĠDrie": 4456, "Ġpraktisch": 4457, "IJ": 4458, "Ġhuisarts": 4459, "Ġappartementen": 4460, "Ġmon": 4461, "Ġnoorden": 4462, "Ġpatroon": 4463, "bord": 4464, "Ġinstrument": 4465, "Ġkle": 4466, "ities": 4467, "dorp": 4468, "Ġdeels": 4469, "Ġstrategie": 4470, "US": 4471, "wedstrijd": 4472, "Ġkunstenaars": 4473, "Ġzilver": 4474, "Ġgroenten": 4475, "genoten": 4476, "Ġtekenen": 4477, "Ġbedenken": 4478, "Ġontmoet": 4479, "Ġvrolijk": 4480, "Ġzuid": 4481, "industrie": 4482, "ï¿½": 4483, "Ġeraan": 4484, "Ġvoorjaar": 4485, "Ġbronnen": 4486, "Ġkoers": 4487, "Ġveelal": 4488, "ĠPrijs": 4489, "Ġreg": 4490, "Ġkutje": 4491, "Ġtoepassingen": 4492, "Ġbedacht": 4493, "ĠTilburg": 4494, "ĠContact": 4495, "angen": 4496, "Ġverklaard": 4497, "ĠPh": 4498, "gr": 4499, "Ġnorm": 4500, "ĠDag": 4501, "kk": 4502, "gest": 4503, "Ġproduceren": 4504, "ton": 4505, "Ġadvertentie": 4506, "Ġministerie": 4507, "Ġligging": 4508, "ĠHiervoor": 4509, "dit": 4510, "Ġtrainen": 4511, "Ġplanning": 4512, "sbe": 4513, "Ġboerderij": 4514, "Ġun": 4515, "Ġpublieke": 4516, "Waar": 4517, "akt": 4518, "ĠReg": 4519, "Ġaangeven": 4520, "Ġrem": 4521, "Ġbesch": 4522, "ĠAndere": 4523, "Ġgeheim": 4524, "Ġ2002": 4525, "Ġtentoonstelling": 4526, "Ġstads": 4527, "Ġmetalen": 4528, "Ġvriendelijke": 4529, "Ġhel": 4530, "grond": 4531, "Ġvastgelegd": 4532, "Ġverricht": 4533, "Ġgebleven": 4534, "ĠGeef": 4535, "Ġsupermarkt": 4536, "ĠUSB": 4537, "Ġfilmpje": 4538, "vrije": 4539, "Ġmaximum": 4540, "Ġbeoordelen": 4541, "onden": 4542, "Ġverschenen": 4543, "gebieden": 4544, "leg": 4545, "ĠSm": 4546, "Ġgedachte": 4547, "Ġbru": 4548, "VO": 4549, "Ġklopt": 4550, "wij": 4551, "Ġfrisse": 4552, "ĠPost": 4553, "onk": 4554, "Ġhoofdstad": 4555, "do": 4556, "Ġmini": 4557, "ba": 4558, "rat": 4559, "VA": 4560, "ĠBed": 4561, "ric": 4562, "Ġwebcam": 4563, "Ġgewenst": 4564, "Ġdegelijk": 4565, "ĠApp": 4566, "ail": 4567, "Ġvergroten": 4568, "Ġernstig": 4569, "Ġtechnisch": 4570, "Ġtraject": 4571, "ģ": 4572, "Bent": 4573, "Ġmenselijke": 4574, "ijt": 4575, "Ġconclusie": 4576, "Ġgevuld": 4577, "Ġregelgeving": 4578, "Ġontbreken": 4579, "Ġbot": 4580, "kel": 4581, "é": 4582, ".[": 4583, "beelden": 4584, "Ġnaakte": 4585, "Ġdichter": 4586, "ĠTijd": 4587, "Ġ2001": 4588, "Ġdromen": 4589, "Ġkwaad": 4590, "Ġvoortdurend": 4591, "Ġmeten": 4592, "Ġbeschermd": 4593, "Ġspecialisten": 4594, "Ġtre": 4595, "Ġaansluiten": 4596, "leider": 4597, "Ġauteur": 4598, "Ġtekort": 4599, "°": 4600, "Ġdec": 4601, "Ġopzet": 4602, "Ġvanzelf": 4603, "ĠEerst": 4604, "Ġdertig": 4605, "Ġleef": 4606, "ĠEcht": 4607, "Ġverrichten": 4608, "Ġstelde": 4609, "ĠElk": 4610, "78": 4611, "Ġupdate": 4612, "ĠSw": 4613, "Ġkanker": 4614, "Ġduurzaamheid": 4615, "ĠEm": 4616, "ĠBent": 4617, "Ġverminderen": 4618, "ira": 4619, "ary": 4620, "Ġziel": 4621, "Ġaut": 4622, "Ġzodanig": 4623, "gels": 4624, "Ġstudio": 4625, "Ġvoertuig": 4626, "bad": 4627, "Ġoefeningen": 4628, "Ġgeldig": 4629, "Ġonderhouds": 4630, "Ġsingle": 4631, "Ġbenodigde": 4632, "UR": 4633, "ĠMal": 4634, "schoenen": 4635, "systemen": 4636, "ĠCre": 4637, "Ļ": 4638, "Ġbijeenkomst": 4639, "ctor": 4640, "Ġinkomsten": 4641, "Ġwild": 4642, "gedrag": 4643, "Ġdeelname": 4644, "Ġverzameld": 4645, "Ġverdwijnen": 4646, "Ġisolatie": 4647, "Ġkabinet": 4648, "ĠWeb": 4649, "va": 4650, "stoel": 4651, "Ġopleidingen": 4652, "ams": 4653, "Ġstuks": 4654, "Ġgetoond": 4655, "itt": 4656, "overeenkomst": 4657, "Ġinnovatieve": 4658, "Ġcampagne": 4659, "yp": 4660, "ĠAnt": 4661, "ham": 4662, "Ġoperatie": 4663, "Ġverwachtingen": 4664, "fonds": 4665, "Ġnader": 4666, "Ġdiepe": 4667, "Ġleukste": 4668, "Ġregistratie": 4669, "Ġnieuwbouw": 4670, "ĠVereniging": 4671, "Ã«": 4672, "ĠDoordat": 4673, "ĠMil": 4674, "ĠKinder": 4675, "Ġverstandig": 4676, "Ġbox": 4677, "Ġboodschappen": 4678, "Ġpresenteren": 4679, "ull": 4680, "ĠBart": 4681, "elende": 4682, "Ġsamenwerken": 4683, "Ġdraad": 4684, "ĠKleur": 4685, "Ġvul": 4686, "Ġmake": 4687, "Ġrijke": 4688, "stellingen": 4689, "Ġkwart": 4690, "AB": 4691, "Ġgewend": 4692, "Ġdraag": 4693, "Ġgecombineerd": 4694, "Ġgestuurd": 4695, "Net": 4696, "Ġmeid": 4697, "Ġbeiden": 4698, "Ġmeegenomen": 4699, "ĠcarriÃ¨re": 4700, "Ġexclusief": 4701, "Ġkritiek": 4702, "laan": 4703, "di": 4704, "ĠZwolle": 4705, "Ġzulke": 4706, "Ġnl": 4707, "ĠRusland": 4708, "ĠOP": 4709, "ĠPiet": 4710, "Ġjarenlang": 4711, "Ġgebeurde": 4712, "Ġverdwenen": 4713, "Ġtwaalf": 4714, "Ġaandeel": 4715, "ĠBreda": 4716, "boot": 4717, "station": 4718, "ĠLonden": 4719, "Ġfilmpjes": 4720, "Ġjurk": 4721, "za": 4722, "Ġgeregistreerd": 4723, "ĠOnderwijs": 4724, "Ġnauw": 4725, "Ġminimum": 4726, "Ġarmen": 4727, "ĠGoede": 4728, "ical": 4729, "Tot": 4730, "Ġdomein": 4731, "Ġverteld": 4732, "Ġ;": 4733, "vaart": 4734, "Ġovertuigd": 4735, "ĠZeer": 4736, "ł": 4737, "mb": 4738, "Ġkoopt": 4739, "Ġwinnaar": 4740, "Ġoranje": 4741, "inen": 4742, "ave": 4743, "elend": 4744, "ãĤ": 4745, "vakantie": 4746, "Ġges": 4747, "Ġ$": 4748, "Ġofwel": 4749, "Ġdegene": 4750, "aai": 4751, "RE": 4752, "aarde": 4753, "regels": 4754, "Ġinvullen": 4755, "Ġkrediet": 4756, "Ġavontuur": 4757, "auw": 4758, "CT": 4759, "illen": 4760, "Ġpc": 4761, "akk": 4762, "dam": 4763, "ĠKe": 4764, "Ġkilo": 4765, "Ġachteraf": 4766, "76": 4767, "vragen": 4768, "ĠHa": 4769, "Ġkandidaat": 4770, "Â»": 4771, "Ġreguliere": 4772, "Ġfeestje": 4773, "Ġtijdelijke": 4774, "Ġback": 4775, "ĠPieter": 4776, "Ġroman": 4777, "ĠVAN": 4778, "Ġminste": 4779, "mar": 4780, "ĠSal": 4781, "Ġgereden": 4782, "Ġnon": 4783, "ĠWereld": 4784, "Ġvaren": 4785, "âĤ¬": 4786, "Ġluchthaven": 4787, "Ġnederland": 4788, "Ġondernemen": 4789, "Ġjuridische": 4790, "Ġcontinu": 4791, "Ġaller": 4792, "icus": 4793, "Ġspellen": 4794, "voorwaarden": 4795, "ĠgeÃ¯nteresseerd": 4796, "Ġinvesteren": 4797, "houden": 4798, "Ġleeft": 4799, "ouwen": 4800, "Ġeerdere": 4801, "Ġcd": 4802, "Ġwonder": 4803, "Ġpraat": 4804, "ĠUnie": 4805, "Ġschijf": 4806, "zij": 4807, "Ġberoemde": 4808, "Ġtijdig": 4809, "Ġoppervlakte": 4810, "ka": 4811, "Ġaangewezen": 4812, "oud": 4813, "ĠNatuur": 4814, "ike": 4815, "Ġbegrepen": 4816, "Ġwederom": 4817, "vraag": 4818, "brief": 4819, "Ġvolgde": 4820, "Ġmod": 4821, "Ġondersteunt": 4822, "Ġmits": 4823, "Ġcorrect": 4824, "ĠCity": 4825, "kte": 4826, "Ġverdient": 4827, "ama": 4828, "Ġregionale": 4829, "Ġkasteel": 4830, "ete": 4831, "brug": 4832, "Ġkwartaal": 4833, "Ġextreem": 4834, "plant": 4835, "Ġbeperkte": 4836, "uz": 4837, "Ġbediening": 4838, "ĠLekker": 4839, "Ġsterker": 4840, "ĠBet": 4841, "Ġres": 4842, "Ġslim": 4843, "Ġgekoppeld": 4844, "Ġkaartje": 4845, "Ġschepen": 4846, "Hieronder": 4847, "Ġovereengekomen": 4848, "Ġaanzienlijk": 4849, "ĠKunst": 4850, "Ġcapaciteit": 4851, "ott": 4852, "ĠHoge": 4853, "Ġwezen": 4854, "Ġbehoeften": 4855, "Ġverstaan": 4856, "ĠWorld": 4857, "vo": 4858, "Ġjas": 4859, "Ġgebeurtenissen": 4860, "Verder": 4861, "oze": 4862, "ĠIS": 4863, "ĠJaar": 4864, "ĠTim": 4865, "Â": 4866, "ĠHart": 4867, "ĠPol": 4868, "Ġpassend": 4869, "Ġopbouw": 4870, "ĠOranje": 4871, "Ġdaartoe": 4872, "Ġzette": 4873, "oep": 4874, "ĠDavid": 4875, "Ġgerecht": 4876, "Ġbetrouwbaar": 4877, "Ġbeveiliging": 4878, "Ġ42": 4879, "atten": 4880, "Ġverzorging": 4881, "Ġgerealiseerd": 4882, "Ġwetgeving": 4883, "Ġmachines": 4884, "Ġtreden": 4885, "Ġtevoren": 4886, "ĠFC": 4887, "Ġconcurrentie": 4888, "Ġomvat": 4889, "Ġprestatie": 4890, "Ġrijst": 4891, "staan": 4892, "Ġtoeristen": 4893, "42": 4894, "ãĥ": 4895, "ĠInmiddels": 4896, "Ġtientallen": 4897, "Ġaantrekkelijk": 4898, "ĠiPad": 4899, "Ġuitbreiding": 4900, "200": 4901, "Ġverlopen": 4902, "Ġrecepten": 4903, "go": 4904, "Ġlening": 4905, "Ġterm": 4906, "Maak": 4907, "Ġgesp": 4908, "Ġoverheids": 4909, "kop": 4910, "Ġflexibel": 4911, "Ġbrowser": 4912, "Ġexpertise": 4913, "Ġonderzoekers": 4914, "ĠDelft": 4915, ",\"": 4916, "ĠSk": 4917, "Ġobject": 4918, "Ġschitterende": 4919, "racht": 4920, "Ī": 4921, "gew": 4922, "Ġwees": 4923, "Ġbalkon": 4924, "Ġgestelde": 4925, "Ġzonnepanelen": 4926, "ĠFriesland": 4927, "Ġschoonheid": 4928, "ĠBeide": 4929, "service": 4930, "Ġgere": 4931, "geen": 4932, "Ġmist": 4933, "Ġachterkant": 4934, "gemaakt": 4935, "ĠVind": 4936, "Ġslachtoffers": 4937, "hem": 4938, "Ġgeproduceerd": 4939, "Ġvreemde": 4940, "pje": 4941, "Ġkwaliteits": 4942, "Ġverhuur": 4943, "Ġpuur": 4944, "ĠAlbert": 4945, "ĠBeste": 4946, "ĠNo": 4947, "Ġveroorzaken": 4948, "Ġstro": 4949, "ĠBas": 4950, "Ġvogel": 4951, "olle": 4952, "shop": 4953, "bon": 4954, "Ġbijbehorende": 4955, "management": 4956, "Ġafgesproken": 4957, "Ġgeprobeerd": 4958, "Ġbijv": 4959, "Ġwaaraan": 4960, "ĠMooie": 4961, "the": 4962, "LE": 4963, "Ġmoe": 4964, "ĠCentraal": 4965, "Ġinf": 4966, "¯": 4967, "Ġ39": 4968, "Ġfun": 4969, "Ġvoorop": 4970, "hulp": 4971, "Ġgezinnen": 4972, "Ġtand": 4973, "Ġbanen": 4974, "Ġshop": 4975, "ĠBo": 4976, "Ġdownload": 4977, "Ġvoorzichtig": 4978, "Ġbiologische": 4979, "Ĵ": 4980, "Ġdoorgaans": 4981, "Ġgegarandeerd": 4982, "ape": 4983, "Ġplafond": 4984, "Ġzus": 4985, "alisatie": 4986, "etter": 4987, "Ġdieet": 4988, "43": 4989, "Ġliteratuur": 4990, "ici": 4991, "Ġchocolade": 4992, "Ġbol": 4993, "ĠHR": 4994, "Ġbestuurder": 4995, "Ġdossier": 4996, "lopen": 4997, "ĵ": 4998, "Ġvoorlopig": 4999, "Ġverbinden": 5000, "ico": 5001, "Ġmuren": 5002, "Ġhierop": 5003, "ĠIedere": 5004, "Ġkip": 5005, "Ĳ": 5006, "Ġbewaard": 5007, "Ġgeslaagd": 5008, "Ġgaranderen": 5009, "Ġspieren": 5010, "Ġwijst": 5011, "anders": 5012, "ĠLeuk": 5013, "Ġopgelost": 5014, "Ð°": 5015, "atoren": 5016, "ipp": 5017, "Ġnek": 5018, "Ġleverbaar": 5019, "zone": 5020, "bs": 5021, "Ġinst": 5022, "Ġbeperken": 5023, "Ġerf": 5024, "Ġreview": 5025, "Ġmalen": 5026, "Ġbekijk": 5027, "Ġafgewerkt": 5028, "ĠcommerciÃ«le": 5029, "ima": 5030, "aste": 5031, "oem": 5032, "car": 5033, "Ġoplossen": 5034, "Ġkunstenaar": 5035, "ĠMont": 5036, "Ġgeel": 5037, "slagen": 5038, "Lees": 5039, "Ġverkiezingen": 5040, "Ġbelangstelling": 5041, "Ġim": 5042, "Ġontslag": 5043, "ĠSam": 5044, "Ġverborgen": 5045, "ĠAs": 5046, "ĠAut": 5047, "gericht": 5048, "ĠZw": 5049, "stijl": 5050, "ĠOne": 5051, "iro": 5052, "onnen": 5053, "Ðµ": 5054, "Ġtoets": 5055, "ory": 5056, "ĠNationale": 5057, "Ġgef": 5058, "ĠZwarte": 5059, "erse": 5060, "ieve": 5061, "omm": 5062, "bos": 5063, "Ġbeleids": 5064, "Ġblok": 5065, "Ġingediend": 5066, "pas": 5067, "matig": 5068, "genoot": 5069, "Ġopmerkingen": 5070, "Ġgauw": 5071, "Ġprof": 5072, "Ġburen": 5073, "Daar": 5074, "Â´": 5075, "artikelen": 5076, "ĠAc": 5077, "Ġbehandelingen": 5078, "Ġonderzocht": 5079, "problemen": 5080, "Ġnormen": 5081, "Ġplaatje": 5082, "Ġverscheen": 5083, "Ġparkeren": 5084, "bestand": 5085, "ĠEscort": 5086, "Ġbakken": 5087, "Ġdeelnemen": 5088, "oper": 5089, "Ġemoties": 5090, "ĠGen": 5091, "Ġvingers": 5092, "Ġomvang": 5093, "way": 5094, "Ġverlenen": 5095, "IM": 5096, "Ġmeerderheid": 5097, "eest": 5098, "ged": 5099, "Laat": 5100, "Ġfles": 5101, "Ġverspreid": 5102, "Ġtijdstip": 5103, "ĠInformatie": 5104, "Ġboekje": 5105, "Ġplaatse": 5106, "ĠVrij": 5107, "ĠHoofd": 5108, "¨": 5109, "rijke": 5110, "ĠGo": 5111, "opp": 5112, "elaars": 5113, "kw": 5114, "Ġschoen": 5115, "ign": 5116, "Ġzoektocht": 5117, "aald": 5118, "Ġonafhankelijk": 5119, "Ġwaaruit": 5120, "ĠGroep": 5121, "Ġrendement": 5122, "ĠPr": 5123, "Ġbeg": 5124, "oth": 5125, "med": 5126, "Ġlesbische": 5127, "Ġdoek": 5128, "test": 5129, "Ġdagje": 5130, "Ġbranche": 5131, "ĠBijbel": 5132, "Dus": 5133, "Ġanale": 5134, "Ġinzichten": 5135, "Kl": 5136, "Ġgedeeltelijk": 5137, "Ġzitting": 5138, "ĠGreen": 5139, "Ġbestond": 5140, "ĠCV": 5141, "Ġbeschrijving": 5142, "Ġlokaal": 5143, "77": 5144, "Ġfraaie": 5145, "ads": 5146, "Ġvestiging": 5147, "Ġongeluk": 5148, "į": 5149, "makers": 5150, "mes": 5151, "68": 5152, "ĠBusiness": 5153, "Ġhaast": 5154, "gevallen": 5155, "maken": 5156, "urt": 5157, "ĠZodra": 5158, "!âĢĿ": 5159, "Ġonafhankelijke": 5160, "Ġvoorkomende": 5161, "Ġvijfde": 5162, "Ġstreek": 5163, "uizen": 5164, "Ġplaten": 5165, "Ġverkregen": 5166, "ace": 5167, "Ġzakken": 5168, "Ġtraditie": 5169, "ĠWereldoorlog": 5170, "Ġhals": 5171, "rechten": 5172, "ĠKinderen": 5173, "ĠPvdA": 5174, "Ġstukjes": 5175, "ĠSn": 5176, "Ġaangifte": 5177, "ÃŃ": 5178, "EC": 5179, "ym": 5180, "Ġbibliotheek": 5181, "Ġtoepassen": 5182, "ĠLeg": 5183, "alis": 5184, "kleur": 5185, "ute": 5186, "ĠFree": 5187, "Ġvuil": 5188, "Ġfaciliteiten": 5189, "Ġrecent": 5190, "Ġvrede": 5191, "Ġafwerking": 5192, "ĠAuto": 5193, "Ġbereik": 5194, "stoffen": 5195, "Ġvoedings": 5196, "ĠAss": 5197, "Ġtrend": 5198, "Ġsporen": 5199, "ĠWK": 5200, "Ġzoiets": 5201, "Ġmisbruik": 5202, "ĠDam": 5203, "Ġaansluit": 5204, "Ġkindje": 5205, "Ġverzonden": 5206, "ĠDu": 5207, "ĠHenk": 5208, "lamp": 5209, "vloer": 5210, "dom": 5211, "ringen": 5212, "Ġverloop": 5213, "Ġschouder": 5214, "Ġdoeleinden": 5215, "Ġdiploma": 5216, "Ġlandelijk": 5217, "?âĢĿ": 5218, "Nog": 5219, "Ġslimme": 5220, "Ġinvestering": 5221, "Ġschriftelijke": 5222, "lang": 5223, "ĠMooi": 5224, "Ġverv": 5225, "fase": 5226, "à¸": 5227, "ĠRussische": 5228, "dy": 5229, "Ġexclusieve": 5230, "Ġwisten": 5231, "ĠVideo": 5232, "Ġwint": 5233, "Ġwetenschappelijke": 5234, "Ġgenaamd": 5235, "Ġopent": 5236, "ĥ": 5237, "Ġheldere": 5238, "Ġpeper": 5239, "Ġbruin": 5240, "Ġaanvulling": 5241, "Ġstrakke": 5242, "ĠStel": 5243, "Ġgod": 5244, "Ġha": 5245, "Ġgroente": 5246, "ĠNS": 5247, "Ġbelast": 5248, "ffen": 5249, "ĠgeÃ¯n": 5250, "Ġzul": 5251, "ĠFor": 5252, "Ġrace": 5253, "fer": 5254, "lijnen": 5255, "ĳ": 5256, "Ġhoreca": 5257, "Ġpe": 5258, "Ġframe": 5259, "Ġverzorgt": 5260, "Ġverblijven": 5261, "top": 5262, "Ġbrandweer": 5263, "Ġlot": 5264, "IV": 5265, "zuur": 5266, "Ġspoedig": 5267, "Ġelders": 5268, "Ġwerkgevers": 5269, "Ġrot": 5270, "Ġtaart": 5271, "ĠTour": 5272, "Ġmissie": 5273, "omp": 5274, "instellingen": 5275, "Ĥ": 5276, "sver": 5277, "Ġsol": 5278, "Ġserver": 5279, "Ġnoord": 5280, "MA": 5281, "dering": 5282, "Ġproeven": 5283, "Ġconform": 5284, "use": 5285, "nu": 5286, "Ġdrankje": 5287, "ĠBoven": 5288, "Ġverplichting": 5289, "Ġbevestiging": 5290, "seks": 5291, "Ġkomst": 5292, "ĠInternational": 5293, "ĠVlaams": 5294, "ĠJohan": 5295, "Ġstoere": 5296, "Uw": 5297, "gar": 5298, "Via": 5299, "pr": 5300, "Ġcam": 5301, "Ġorigineel": 5302, "Ġhaal": 5303, "Ġdrukke": 5304, "ĠAantal": 5305, "leiding": 5306, "ĠJij": 5307, "koop": 5308, "zig": 5309, "alm": 5310, "ĠKoninkrijk": 5311, "Ġontmoeting": 5312, "Nee": 5313, "Ġaflevering": 5314, "ļ": 5315, "Ġinch": 5316, "Ġzoet": 5317, "Ġaanbieders": 5318, "vast": 5319, ".....": 5320, "Ġingeschreven": 5321, "ĠGeb": 5322, "Ġmama": 5323, "Ġhandleiding": 5324, "Ġopstellen": 5325, "Ġvoordelig": 5326, "ĠLeer": 5327, "Ġaanmelden": 5328, "Ġenthousiaste": 5329, "±": 5330, "Ġ00": 5331, "Ġmetaal": 5332, "oorten": 5333, "ura": 5334, "ĠMinister": 5335, "Ar": 5336, "lessen": 5337, "Ġerkend": 5338, "Ġlogisch": 5339, "41": 5340, "ĠAmsterdamse": 5341, "Ġpart": 5342, "Ġgrotendeels": 5343, "ĠGu": 5344, "Ġinbegrepen": 5345, "Ġmedicijnen": 5346, "ĠBi": 5347, "ĠGeile": 5348, "Ġonderaan": 5349, "ĠWar": 5350, "Ġpoging": 5351, "verkeer": 5352, "mers": 5353, "Ġgelukt": 5354, "ī": 5355, "Ġmeedoen": 5356, "ĠTurkije": 5357, "Ġbreedte": 5358, "Ġophalen": 5359, "Ġdefinitief": 5360, "Ġlijden": 5361, "Ġonderzoeks": 5362, "Ġconstructie": 5363, "Ġverzet": 5364, "Ġgevangen": 5365, "Ġvinger": 5366, "Ġaanbrengen": 5367, "Bl": 5368, "Ġinstellen": 5369, "Ġklok": 5370, "ita": 5371, "Ġroepen": 5372, "ĠHol": 5373, "Brabant": 5374, "spl": 5375, "SP": 5376, "Ġklim": 5377, "mand": 5378, "amer": 5379, "Ġdestijds": 5380, "Ġparkeer": 5381, "Ġkopje": 5382, "¡": 5383, "eloos": 5384, ".:": 5385, "Ġab": 5386, "Ġreken": 5387, "Ġverstand": 5388, "ikte": 5389, "vallen": 5390, "Ġkamp": 5391, "Ġverstrekken": 5392, "Ġarchitectuur": 5393, "ĠGra": 5394, "ĠDel": 5395, "Ġvoorgaande": 5396, "ĠKerst": 5397, "Ġverzending": 5398, "Ġlente": 5399, "ement": 5400, "vormen": 5401, "ĠBron": 5402, "gens": 5403, "2017": 5404, "ĠPlaats": 5405, "prijzen": 5406, "Ġdaarover": 5407, "Ġbetaalde": 5408, "Ġsalaris": 5409, "Ġschaduw": 5410, "Ġconcrete": 5411, "Ġoren": 5412, "Ġpass": 5413, "ada": 5414, "ĠZeeland": 5415, "Ġgezamenlijke": 5416, "aliseren": 5417, "Ġmaatwerk": 5418, "Ġtel": 5419, "uss": 5420, "Ġklus": 5421, "ble": 5422, "ieken": 5423, "Ġvacatures": 5424, "Ġgitaar": 5425, "Ġsimpele": 5426, "ĠBol": 5427, "Ġvoeg": 5428, "iale": 5429, "Ġitems": 5430, "Ġuitkomst": 5431, "Ġaangenaam": 5432, "km": 5433, "Ġvijftig": 5434, "Ġgro": 5435, "Ġgroe": 5436, "Ġmeester": 5437, "Ġhot": 5438, "tt": 5439, "Ġstraten": 5440, "On": 5441, "Ġ44": 5442, "Ġaanwezige": 5443, "iner": 5444, "Ġopname": 5445, "gaat": 5446, "voet": 5447, "ĠAchter": 5448, "Ġopt": 5449, "ĠVVD": 5450, "Ġbevestigen": 5451, "Ġmoeilijke": 5452, "ias": 5453, "Ġsur": 5454, "ĠAnders": 5455, "Ġpercentage": 5456, "verlichting": 5457, "rein": 5458, "-)": 5459, "Ġkapot": 5460, "Ġnatte": 5461, "dr": 5462, "Ġwijnen": 5463, "Hoewel": 5464, "Ġafgerond": 5465, "Ġ95": 5466, "Ġvoer": 5467, "Ġwapen": 5468, "Ġmeubels": 5469, "ĠHendrik": 5470, "ĠJohannes": 5471, "Ġlig": 5472, "Ġmontage": 5473, "Ġdom": 5474, "ķ": 5475, "Ġvanavond": 5476, "Ġmanager": 5477, "Nederland": 5478, "mond": 5479, "Ġdrugs": 5480, "ĠBre": 5481, "Ġdocent": 5482, "kap": 5483, "ĠAmersfoort": 5484, "stein": 5485, "Ġelektriciteit": 5486, "Ġslaat": 5487, "velden": 5488, "Ġoorsprong": 5489, "schot": 5490, "Ġdis": 5491, "Ġarchitect": 5492, "Ġverre": 5493, "BS": 5494, "ĠKar": 5495, "Ġuitgenodigd": 5496, "ĠAt": 5497, "Samen": 5498, "ange": 5499, "ĠNot": 5500, "Ġgenot": 5501, "Ł": 5502, "Ġvluchten": 5503, "Natuurlijk": 5504, "ĠJapan": 5505, "Ġspier": 5506, "uf": 5507, "uele": 5508, "Ġtro": 5509, "ĠGar": 5510, "Ġcre": 5511, "middag": 5512, "veren": 5513, "set": 5514, "Ġstopt": 5515, "ĠRijk": 5516, "Ġdoden": 5517, "Ġbr": 5518, "Ġessentieel": 5519, "Ġvastgoed": 5520, "ĠNieuws": 5521, "aff": 5522, "ervaring": 5523, "Ġhuisje": 5524, "Ġhomo": 5525, "Ġbelangrijker": 5526, "Ġsoepel": 5527, "Ġmax": 5528, "ĠJapanse": 5529, "EK": 5530, "Ġretour": 5531, "Ġafsluiten": 5532, "Ġzelfde": 5533, "Ġlezer": 5534, "Ġfabriek": 5535, "Ġstam": 5536, "ĠThuis": 5537, "bijvoorbeeld": 5538, "voorzitter": 5539, "Ġbew": 5540, "ľ": 5541, "Ġlevensduur": 5542, "Ġout": 5543, "vermogen": 5544, "Ġletter": 5545, "Ġlachen": 5546, "Ġvolg": 5547, "ĠVul": 5548, "Ġgij": 5549, "Ġhumor": 5550, "Ġelektronische": 5551, "utt": 5552, "Ġ600": 5553, "Ġred": 5554, "Ġgewijzigd": 5555, "Ġruimtes": 5556, "dus": 5557, "ĠVis": 5558, "Ġinschrijving": 5559, "Ġgehoor": 5560, "Ġadem": 5561, "Ġaanvang": 5562, "Ġleider": 5563, "Ġstoelen": 5564, "antie": 5565, "oi": 5566, "Ġovereenstemming": 5567, "Ġdefinitie": 5568, "rad": 5569, "leer": 5570, "enk": 5571, "Ľ": 5572, "Ġsowieso": 5573, "Ġgecontroleerd": 5574, "UN": 5575, "versie": 5576, "pol": 5577, "ĠTro": 5578, "Ġzijnde": 5579, "wiel": 5580, "],": 5581, "Ġuiteenlopende": 5582, "hel": 5583, "lees": 5584, "Ġschiet": 5585, "Ġsnap": 5586, "bers": 5587, "Ġaantrekkelijke": 5588, "Ġgraf": 5589, "ene": 5590, "ĠBrabant": 5591, "gro": 5592, "ants": 5593, "69": 5594, "ĠAfrika": 5595, "ooi": 5596, "Ġpen": 5597, "ĠPat": 5598, "gende": 5599, "ĠHel": 5600, "Ġfiguur": 5601, "Ġapplicatie": 5602, "ona": 5603, "ĠDeel": 5604, "Ġduik": 5605, "Ġtube": 5606, "Ġduizend": 5607, "ologisch": 5608, "Ġuniversiteit": 5609, "Ġknie": 5610, "Ġpromotie": 5611, "ĠTuin": 5612, "ografie": 5613, "Ġgetrouwd": 5614, "Ġpublicatie": 5615, "Ġbonus": 5616, "Ŀ": 5617, "Ġperspectief": 5618, "Ġvierkante": 5619, "ĠZou": 5620, "ĠDi": 5621, "muziek": 5622, "Ġdatingsite": 5623, "Ġtoetsen": 5624, "partij": 5625, "Ġoff": 5626, "ĠMartin": 5627, "ĠKleine": 5628, "º": 5629, "Ġgemeenteraad": 5630, "Ġkandidaten": 5631, "mel": 5632, "Ġvermoeden": 5633, "Ġgepresenteerd": 5634, ".-": 5635, "Ġarbeidsmarkt": 5636, "Ġsteek": 5637, "Ġvervanging": 5638, "gevoel": 5639, "ĠWim": 5640, "ĠBra": 5641, "ĠÃ©cht": 5642, "Ġschoonmaak": 5643, "Ġplaatst": 5644, "ĠAjax": 5645, "Ġrenovatie": 5646, "alle": 5647, "woorden": 5648, "ĠTussen": 5649, "Ex": 5650, "ĠPop": 5651, "ĠStar": 5652, "Ġhom": 5653, "67": 5654, "onderwijs": 5655, "Ġlampen": 5656, "Ġcommuniceren": 5657, "werking": 5658, "gerichte": 5659, "Ġmuzikale": 5660, "Ġgevaarlijk": 5661, "Ġ09": 5662, "Ġkwalitatief": 5663, "Ġbro": 5664, "Ġstrip": 5665, "Ġcontext": 5666, "ites": 5667, "Ġcreatief": 5668, "Ġvlieg": 5669, "Ġhaalde": 5670, "onie": 5671, "bescherming": 5672, "Ġoverwinning": 5673, "Ġcursussen": 5674, "deur": 5675, "Ġoppervlak": 5676, "Ġerger": 5677, "ijl": 5678, "Ġoproep": 5679, "sprogramma": 5680, "Ġbezoeker": 5681, "Ġspringen": 5682, "Ġvluchtelingen": 5683, "Ġdocenten": 5684, "Ġplaatselijke": 5685, "Ġgelopen": 5686, "Ġweerstand": 5687, "Ġontwikkelde": 5688, "²": 5689, "Ġdekking": 5690, "Ġkrachten": 5691, "Ġmaatschappelijk": 5692, "Ġinv": 5693, "Ġgebleken": 5694, "AK": 5695, "Ġgezelschap": 5696, "ĠBestuur": 5697, "oul": 5698, "ĠMed": 5699, "rib": 5700, "Ġstijlvolle": 5701, "ĠManagement": 5702, "Ġgetest": 5703, "ĠZwart": 5704, "hoofd": 5705, "Ġwisselen": 5706, "ĠJeugd": 5707, "Ġgat": 5708, "oloog": 5709, "ware": 5710, "reden": 5711, "aaf": 5712, "Ġsche": 5713, "que": 5714, "Mar": 5715, "GB": 5716, "Ġschakelen": 5717, "Ġcel": 5718, "Ġscore": 5719, "ikk": 5720, "ĠcafÃ©": 5721, "Ġwetenschappelijk": 5722, "MS": 5723, "Ġallebei": 5724, "Ġmiljoenen": 5725, "ĠFilm": 5726, "Ġbaas": 5727, "Ġhang": 5728, "ĠEd": 5729, "Ġbevorderen": 5730, "Ġtoren": 5731, "Ġmeenemen": 5732, "Ġdoorheen": 5733, "video": 5734, "Ġmooier": 5735, "Ġbewijzen": 5736, "Ġtanden": 5737, "ĠRond": 5738, "`": 5739, "Ġdoos": 5740, "Ġdoch": 5741, "Ġtekeningen": 5742, "ĠIndia": 5743, "aler": 5744, "Ġvoorwaarde": 5745, "Ġverwarming": 5746, "Ġcomplexe": 5747, "Ġem": 5748, "#": 5749, "Ġzelden": 5750, "ese": 5751, "iets": 5752, "Ġbevoegd": 5753, "ssen": 5754, "Ġondersteund": 5755, "ĠKoning": 5756, "geschiedenis": 5757, "mann": 5758, "Ġabsolute": 5759, "ĠRes": 5760, "Ġglad": 5761, "Ġtrainings": 5762, "ĠTw": 5763, "Ġzorgde": 5764, "Elke": 5765, "aanbod": 5766, "bergen": 5767, "rijden": 5768, "Ġwassen": 5769, "Ġvanzelfsprekend": 5770, "Ġschijnt": 5771, "Ġbedoelde": 5772, "ih": 5773, "Ġpijpen": 5774, "kunde": 5775, "ĠNaam": 5776, "Ġroept": 5777, "ĠMeestal": 5778, "ĠComp": 5779, "hoven": 5780, "Ġbeheren": 5781, "ĠToe": 5782, "illa": 5783, "Ġbeoordeeld": 5784, "Ġsu": 5785, "Ã³": 5786, "ificatie": 5787, "ĠNeuken": 5788, "Waarom": 5789, "Ġverkennen": 5790, "96": 5791, "Ġselecteren": 5792, "ueel": 5793, "oelen": 5794, "ochten": 5795, "Ġlaagste": 5796, "platen": 5797, "Ĺ": 5798, "Ġtweedehands": 5799, "Ġdoelstellingen": 5800, "Ġbijlage": 5801, "Ġnetwerken": 5802, "UT": 5803, "ĠBer": 5804, "Ð": 5805, "Ġvergeet": 5806, "ĠindustriÃ«le": 5807, "Ġaanval": 5808, "kundige": 5809, "ippen": 5810, "oeren": 5811, "Ġ85": 5812, "Ons": 5813, "ĠTegen": 5814, "Ġgevormd": 5815, "ĠInd": 5816, "aker": 5817, "installatie": 5818, "Ġmr": 5819, "Ġgevoerd": 5820, "Ġeffectieve": 5821, "Ġdol": 5822, "Ġvlot": 5823, "verlies": 5824, "back": 5825, "Ġschieten": 5826, "Ġondernemingen": 5827, "Ġplekje": 5828, "Ġnachts": 5829, "Ġfilter": 5830, "Ġafmetingen": 5831, "Ġmedisch": 5832, "Į": 5833, "Ġnegatief": 5834, "Ġbedden": 5835, "Ġopeens": 5836, "Ġgaven": 5837, "Ġdebat": 5838, "ĠTeam": 5839, "Ġ{": 5840, "meester": 5841, "Ġaanschaf": 5842, "Ġintern": 5843, "\":": 5844, "Ġverkoper": 5845, "Ġgepland": 5846, "Ġgetrokken": 5847, "Ġgezondheids": 5848, "Ġwettelijk": 5849, "ith": 5850, "fiets": 5851, "Î": 5852, "kle": 5853, "ces": 5854, "ĠRec": 5855, "Ġshirt": 5856, "Ġwelzijn": 5857, "ister": 5858, "Ġfull": 5859, "gever": 5860, "Ġcreativiteit": 5861, "Ġvloeren": 5862, "bes": 5863, "Ġinspireren": 5864, "Ġbereiden": 5865, "eth": 5866, "Ġtennis": 5867, "Ġsauna": 5868, "§": 5869, "ĠLive": 5870, "isc": 5871, "iaanse": 5872, "Ġontspanning": 5873, "Ġopleveren": 5874, "Ġhandelingen": 5875, "Ġph": 5876, "eder": 5877, "bedrag": 5878, "Ġsier": 5879, "doen": 5880, "yc": 5881, "Ġspelletjes": 5882, "Ġherinneringen": 5883, "Ġinitiatieven": 5884, "kunst": 5885, "akte": 5886, "Ġvlag": 5887, "ĠSchiphol": 5888, "Ġhorloge": 5889, "Ġgedeeld": 5890, "aring": 5891, "nemer": 5892, "uik": 5893, "Ġanaal": 5894, "Ġfabrikant": 5895, "derd": 5896, "behandeling": 5897, "shirt": 5898, "Ġuitgebracht": 5899, "cy": 5900, "zakken": 5901, "aling": 5902, "Ġvoertuigen": 5903, "Ġtegemoet": 5904, "Ġtenslotte": 5905, "ĠPort": 5906, "Ġmevrouw": 5907, "Ġtour": 5908, "Ġdaaraan": 5909, "Ġleuker": 5910, "hy": 5911, "Ġgeboden": 5912, "Ġconditie": 5913, "Ġbossen": 5914, "ĠAlgemeen": 5915, "Ġkerken": 5916, "Ġachterzijde": 5917, "aria": 5918, "Ġke": 5919, "aans": 5920, "Ġmoed": 5921, "ichten": 5922, "manager": 5923, "Ġonderscheid": 5924, "Ġeieren": 5925, "ucht": 5926, "festival": 5927, "Ġrec": 5928, "Ġadviezen": 5929, "Ġgooien": 5930, "vorming": 5931, "Ġlever": 5932, "Ġvroege": 5933, "ĠLog": 5934, "Ġketting": 5935, "Goed": 5936, "iem": 5937, "%)": 5938, "Ġdeskundige": 5939, "Ġbeperkingen": 5940, "ĠBert": 5941, "ÑĢ": 5942, "Ġverzendkosten": 5943, "ĠRadio": 5944, "no": 5945, "Ġuitgangspunt": 5946, "Ġseksuele": 5947, "gez": 5948, "ãģ": 5949, ",...": 5950, "Ġaziatische": 5951, "Ġmatch": 5952, "eller": 5953, "schil": 5954, "formulier": 5955, "rug": 5956, "92": 5957, "Ġonderling": 5958, "Ġroken": 5959, "eringen": 5960, "uch": 5961, "Ġaanpassingen": 5962, "Ġbesp": 5963, "Ġfit": 5964, "Ġfeite": 5965, "Ġversturen": 5966, "Ġredden": 5967, "Ġformule": 5968, "Ġmaag": 5969, "zon": 5970, "Ġvlakbij": 5971, "zame": 5972, "Ġsingles": 5973, "Ġtrends": 5974, "Ġsamenstelling": 5975, "Ġbetrokkenheid": 5976, "Ġ:)": 5977, "Ġvakantiehuis": 5978, "Ġ05": 5979, "Ġwerkwijze": 5980, "Ġbladeren": 5981, "ĠBrand": 5982, "Ġ46": 5983, "tens": 5984, "name": 5985, "Ġopgegeven": 5986, "rag": 5987, "mo": 5988, "Ġuitermate": 5989, "Ġvel": 5990, "ĠefficiÃ«nt": 5991, "ĠGeest": 5992, "ĭ": 5993, "Ġlinker": 5994, ",âĢĿ": 5995, "Ġstelling": 5996, "Ġschat": 5997, "schip": 5998, "west": 5999, "Ġmilitaire": 6000, "ĠEnergie": 6001, "Ġdeelnemer": 6002, "ĠIdeaal": 6003, "VV": 6004, "ĠCam": 6005, "Ġmoord": 6006, "Ġbeschrijft": 6007, "ĠEUR": 6008, "Ġlezers": 6009, "Ġgec": 6010, "Ġdrukte": 6011, "Ġverlangen": 6012, "Ġparticulieren": 6013, "ome": 6014, "Ġenigszins": 6015, "ĠwÃ©l": 6016, "?âĢĻ": 6017, "sluiting": 6018, "Ġvitamine": 6019, "Ġprobeerde": 6020, "ĠAnna": 6021, "Ġsyn": 6022, "Ġadviseur": 6023, "Ġerover": 6024, "pjes": 6025, "Ġinvulling": 6026, "schrift": 6027, "Ġbegeleid": 6028, "Ġbezienswaardigheden": 6029, "ĠGroup": 6030, "igend": 6031, "¤": 6032, "Ġfeedback": 6033, "Ġexpert": 6034, "Ġmy": 6035, "Ġtherapie": 6036, "alisme": 6037, "ĠHigh": 6038, "Ġarchief": 6039, "Ġmotivatie": 6040, "Ġsportieve": 6041, "speler": 6042, "Ġlichamelijke": 6043, "besluit": 6044, "raak": 6045, "Ġberekend": 6046, "methode": 6047, "Ġdiens": 6048, "Ġact": 6049, "ĠAv": 6050, "Ġ43": 6051, "Ġverkeers": 6052, "Ġtaxi": 6053, "Ġsieraden": 6054, "Ġpijpbeurt": 6055, "ating": 6056, "gra": 6057, "sw": 6058, "Ġnajaar": 6059, "ipt": 6060, "poort": 6061, "98": 6062, "Ġvaart": 6063, "aagd": 6064, "ĠAlmere": 6065, "ĠHeerlijk": 6066, "ĠTo": 6067, "Ġmouwen": 6068, "Afgelopen": 6069, "ĠCal": 6070, "ament": 6071, "ĠMaster": 6072, "Ġontwikkelt": 6073, "Ġvrolijke": 6074, "Ġkanaal": 6075, "Ġbedienen": 6076, "Ġtalloze": 6077, "pak": 6078, "Jan": 6079, "ĠDaarvoor": 6080, "Ġovergenomen": 6081, "inden": 6082, "Geen": 6083, "Ġbtw": 6084, "Ġuitgegeven": 6085, "Ġraakte": 6086, "dheid": 6087, "ĠOpdrachtgever": 6088, "ERS": 6089, "Ġkapitaal": 6090, "72": 6091, "Ġmuis": 6092, "Ġjury": 6093, "ĠLes": 6094, "cellen": 6095, "verhaal": 6096, "Ġnogmaals": 6097, "essen": 6098, "log": 6099, "Ġongetwijfeld": 6100, "Ġlog": 6101, "2016": 6102, "İ": 6103, "Ġverleend": 6104, "daagse": 6105, "ĠDOC": 6106, "ato": 6107, "Ġass": 6108, "Ġvangen": 6109, "ĠVoeg": 6110, "iber": 6111, "Ġgezag": 6112, "Ġstandpunt": 6113, "Ġschermen": 6114, "netwerk": 6115, "ĠGrand": 6116, "oude": 6117, "Ġverkoopt": 6118, "ĠVier": 6119, "Ġversterkt": 6120, "ĠProject": 6121, "aakt": 6122, "ĠBig": 6123, "Ġ1999": 6124, "Ġwebwinkel": 6125, "Ġkrachtig": 6126, "ĠWal": 6127, "Ġvacature": 6128, "heer": 6129, "ĠIII": 6130, "Ġschone": 6131, "Ġzaad": 6132, "Ġeenheid": 6133, "Ġvermijden": 6134, "ı": 6135, "Ġstoom": 6136, "klasse": 6137, "alk": 6138, "werkzaamheden": 6139, "blok": 6140, "ieel": 6141, "ĠGalaxy": 6142, "97": 6143, "Ġdraai": 6144, "¹": 6145, "enn": 6146, "houd": 6147, "Ġhersenen": 6148, "Ġbuis": 6149, "Ġverzameling": 6150, "¾": 6151, "Ġgoedkoopste": 6152, "gaande": 6153, "}": 6154, "Ġcomputers": 6155, "Ġverhoogd": 6156, "ĠCap": 6157, "Ġreinigen": 6158, "ĠMel": 6159, "Ġonbekende": 6160, "Ġjarenlange": 6161, "Ġfinish": 6162, "Ġ01": 6163, "Ġgeestelijke": 6164, "ning": 6165, "ollen": 6166, "Ġdansen": 6167, "Ġultieme": 6168, "beurs": 6169, "verhalen": 6170, "64": 6171, "ĠBon": 6172, "Ġaangenomen": 6173, "ĠAg": 6174, "Ġbo": 6175, "rac": 6176, "ĠLater": 6177, "IA": 6178, "Ġschilderij": 6179, "Ġpapieren": 6180, "ĠRen": 6181, "Ġhanteren": 6182, "Ġconstant": 6183, "zend": 6184, "Ġberekenen": 6185, "Ġstranden": 6186, "Ġaanslag": 6187, "cel": 6188, "Ġstalen": 6189, "Ġtalenten": 6190, "rap": 6191, "ĠStart": 6192, "war": 6193, "Ġcentimeter": 6194, "ations": 6195, "une": 6196, "Ġdiepte": 6197, "rim": 6198, "Ġinstrumenten": 6199, "Ġtabel": 6200, "Ġovergang": 6201, "Ġklantenservice": 6202, "Ġklap": 6203, "Ġwasmachine": 6204, "ĠWeer": 6205, "58": 6206, "ĠTurkse": 6207, "Ġhaha": 6208, "Ġbewustzijn": 6209, "Ġreageert": 6210, "Ġpoort": 6211, "dan": 6212, "ĠAp": 6213, "ĠÂ": 6214, "Ġmust": 6215, "geven": 6216, "jaren": 6217, "Ġgetroffen": 6218, "OC": 6219, "ijst": 6220, "Ġbeslissingen": 6221, "Ġalternatieve": 6222, "Ġsimpelweg": 6223, "ĠSil": 6224, "Ġharen": 6225, "Ġmassa": 6226, "Ġtoelichting": 6227, "Ġaudio": 6228, "ĠThomas": 6229, "Ġcum": 6230, "machines": 6231, "ĠJo": 6232, "Ġport": 6233, "Ġwor": 6234, "uck": 6235, "Ġwachtwoord": 6236, "Ġtegenstander": 6237, "ĠVader": 6238, "Ġopgezet": 6239, "reken": 6240, "ĠMat": 6241, "rekening": 6242, "ĠLicht": 6243, "inken": 6244, "Ġenthousiasme": 6245, "Ġtool": 6246, "Ġverzoeken": 6247, "ios": 6248, "Ġvide": 6249, "Ġdirectie": 6250, "Ġverplaatsen": 6251, "mee": 6252, "jarig": 6253, "Ġvordering": 6254, "Ġverloopt": 6255, "ĠAangezien": 6256, "Ġverliefd": 6257, "Ġcontactformulier": 6258, "reek": 6259, "Ġpure": 6260, "Ġontstond": 6261, "irt": 6262, "Ġuitgave": 6263, "¥": 6264, "´": 6265, "jurk": 6266, "Ġtoege": 6267, "oden": 6268, "ĠErg": 6269, "Ġartiesten": 6270, "ĠBeg": 6271, "Ġoutfit": 6272, "arn": 6273, "Ġbezorgd": 6274, "ĠMaat": 6275, "Ġliedjes": 6276, "itter": 6277, "Ġscoren": 6278, "Ġlift": 6279, "Ġkoppel": 6280, "Ġide": 6281, "ĠDes": 6282, "Ġvoorbereid": 6283, "Ġnadeel": 6284, "Ġsoep": 6285, "ya": 6286, "Ġuitdagingen": 6287, "âĢĳ": 6288, "lem": 6289, "Ġzwanger": 6290, "Ġautomatische": 6291, "ĠÃ": 6292, "Ġopbrengst": 6293, "Ġkende": 6294, "Ġuitgesproken": 6295, "ĠIJ": 6296, "Ġfans": 6297, "Ġgede": 6298, "Ġlippen": 6299, "Ga": 6300, "Ġbenadering": 6301, "Ð¾": 6302, "Ġopdrachtgevers": 6303, "Ġletters": 6304, "Ġbestemd": 6305, "Ġbegrijp": 6306, "Ġorder": 6307, "otte": 6308, "Ġschilderijen": 6309, "contact": 6310, "Ġeeuwen": 6311, "Ġbovenop": 6312, "Ġherinnering": 6313, "zetten": 6314, "urg": 6315, "Ġ`": 6316, "was": 6317, "Ġongeacht": 6318, "Ġnachten": 6319, "Ġwou": 6320, "³": 6321, "Ġdun": 6322, "Ġbehoud": 6323, "zing": 6324, "stenen": 6325, "locatie": 6326, "Ġfront": 6327, "kantoor": 6328, "ĠcategorieÃ«n": 6329, "Ġzeil": 6330, "techniek": 6331, "Ġfotografie": 6332, "Ġcontactgegevens": 6333, "ches": 6334, "nes": 6335, "Ġdure": 6336, "Ġvolume": 6337, "Ġweliswaar": 6338, "uro": 6339, "Ġreed": 6340, "Ġvertrokken": 6341, "Ġhar": 6342, "Ġkeus": 6343, "Ġhedendaagse": 6344, "ĠZet": 6345, "regel": 6346, "Ġverzekerde": 6347, "brand": 6348, "ado": 6349, "ĠLeeuwarden": 6350, "Ġopvallend": 6351, "projecten": 6352, "ĠTrump": 6353, "¿": 6354, "ĠRem": 6355, "zee": 6356, "Ġpat": 6357, "erden": 6358, "??": 6359, "Ġafgestemd": 6360, "Ġgemakkelijker": 6361, "Ġingeschakeld": 6362, "Ġreceptie": 6363, "ĠâĢĿ": 6364, "ving": 6365, "ĠDoel": 6366, "ĠBE": 6367, "Ġingevuld": 6368, "Ġkids": 6369, "ĠDijk": 6370, "ĠWoon": 6371, "Ġwin": 6372, "nog": 6373, "ĠBestel": 6374, "Ġeindigt": 6375, "ĠDJ": 6376, "Ġbestuurders": 6377, "rische": 6378, "dem": 6379, "atte": 6380, "ħ": 6381, "kken": 6382, "{": 6383, "gd": 6384, "ĠðŁĻĤ": 6385, "plicht": 6386, "Ġsim": 6387, "Ġverwijzen": 6388, "Ġovereen": 6389, "Ġboete": 6390, "ĩ": 6391, "ĠMichael": 6392, "orte": 6393, "verklaring": 6394, "duur": 6395, "oeg": 6396, "ĠRome": 6397, "print": 6398, "Ġple": 6399, "Ġeilanden": 6400, "lid": 6401, "banden": 6402, "sproces": 6403, "ĠChat": 6404, "apparatuur": 6405, "Ġschulden": 6406, "Ġplaatjes": 6407, "Ġmannelijke": 6408, "Ġtalen": 6409, "erings": 6410, "Ġkranten": 6411, "oost": 6412, "Ġwijken": 6413, "Ġconcentratie": 6414, "Ġelement": 6415, "¬": 6416, "Ġtoevallig": 6417, "Ġaanv": 6418, "ertje": 6419, "ĠStuur": 6420, "ĠAC": 6421, "ĠLeuven": 6422, "Ġkussen": 6423, "Ġ47": 6424, "Ġtijdschrift": 6425, "Ġtegels": 6426, "oof": 6427, "Ġconflict": 6428, "uff": 6429, "Ġexact": 6430, "Ġrespectievelijk": 6431, "lex": 6432, "Ġstuurt": 6433, "Ġvolks": 6434, "Ġredelijke": 6435, "ĠHoud": 6436, "ĠInstagram": 6437, "Ġverrassing": 6438, "ĠDrenthe": 6439, "Ġaanwijzingen": 6440, "haven": 6441, "wagens": 6442, "Ġsmaken": 6443, "ĠApeldoorn": 6444, "Ġaangevuld": 6445, "Ġdiversiteit": 6446, "ĠBoer": 6447, "erst": 6448, "Ġcons": 6449, "ĠTele": 6450, "Ġsfeervolle": 6451, "Ġlabel": 6452, "inten": 6453, "ĠLang": 6454, "Ġnadruk": 6455, "oenen": 6456, "Ġincl": 6457, "Zijn": 6458, "ĠMarc": 6459, "mende": 6460, "Ġare": 6461, "ĠPS": 6462, "Ġcloud": 6463, "Ġverenigingen": 6464, "Ġfinanciering": 6465, "56": 6466, "Ġmes": 6467, "Ġap": 6468, "ĠVers": 6469, "Ġbeleving": 6470, "Ġtreedt": 6471, "nieuw": 6472, "Ġ52": 6473, "ĠMinisterie": 6474, "ĠHou": 6475, "ball": 6476, "Ġ08": 6477, "Ġexemplaar": 6478, "Ġgeluids": 6479, "oei": 6480, "ĠOostenrijk": 6481, "Ġgemeld": 6482, "Ġ1998": 6483, "woningen": 6484, "Ġreserveren": 6485, "asc": 6486, "Ġschuur": 6487, "sy": 6488, "Ġindienen": 6489, "hoe": 6490, "positie": 6491, "Ġsignaal": 6492, "ĠProbeer": 6493, "ruk": 6494, "ĠSmart": 6495, "Ġzelfstandige": 6496, "ĠAM": 6497, "mijn": 6498, "Ġmo": 6499, "59": 6500, "Ġdorpje": 6501, "ĠKoop": 6502, "Ġ41": 6503, "Ġshemale": 6504, "glas": 6505, "Ġzang": 6506, "stelsel": 6507, "Ġgeselecteerd": 6508, "ata": 6509, "iva": 6510, "Ġ64": 6511, "inst": 6512, "ĠKw": 6513, "Ġverbeterd": 6514, "86": 6515, "Ġontbreekt": 6516, "ĠBerlijn": 6517, "Pl": 6518, "ĠGelderland": 6519, "ĠBeach": 6520, "ect": 6521, "komt": 6522, "Ġreizigers": 6523, "Ġ[...]": 6524, "Ġvervelend": 6525, "eem": 6526, "entje": 6527, "waarden": 6528, "Ġobjecten": 6529, "fotos": 6530, "Ġgescheiden": 6531, "inger": 6532, "ĠKat": 6533, "Ġevenwicht": 6534, "Ġlenen": 6535, "Ġspuit": 6536, "Ġintensief": 6537, "Ġspaar": 6538, "best": 6539, "tuin": 6540, "raf": 6541, "ĠLuc": 6542, "ida": 6543, "ĠTrans": 6544, "Ġinvesteringen": 6545, "hi": 6546, "vi": 6547, "date": 6548, "£": 6549, "?)": 6550, "Ġdeelt": 6551, "Ġindrukwekkende": 6552, "Ġrichtlijnen": 6553, "zonder": 6554, "Ġdorps": 6555, "Ġgemeten": 6556, "Ġgebonden": 6557, "Ġdegenen": 6558, "Ġovereenkomsten": 6559, "hen": 6560, "okt": 6561, "Ġgeneukt": 6562, "Ġongeval": 6563, "Ġaccepteren": 6564, "Ġflexibele": 6565, "Ġschilderen": 6566, "Ad": 6567, "uim": 6568, "Ġstilte": 6569, "Ġwesten": 6570, "ĠJammer": 6571, "Ġinfrastructuur": 6572, "schaps": 6573, "ĠGroene": 6574, "ĠMarkt": 6575, "ua": 6576, "Ġprofiteren": 6577, "intje": 6578, "web": 6579, "Ġladen": 6580, "Ġjacht": 6581, "lement": 6582, "Ġtax": 6583, "Ġletten": 6584, "Ġbedrijfsleven": 6585, "Ġzakelijk": 6586, "Ġuitgaven": 6587, "atische": 6588, "ĠWitte": 6589, "Ġda": 6590, "Ġdrank": 6591, "Ġoffertes": 6592, "Ġlat": 6593, "ĠGewoon": 6594, "serie": 6595, "Ġmoeders": 6596, "Ġvoorheen": 6597, "Ġboter": 6598, "Ġsloten": 6599, "Ġwifi": 6600, "Ġvermelding": 6601, "aap": 6602, "Ġnadenken": 6603, "Ġvervaardigd": 6604, "ĠHu": 6605, "Ġindividueel": 6606, "ĠAD": 6607, "ĠVal": 6608, "raa": 6609, "Ġoosten": 6610, "iff": 6611, "Ġmore": 6612, "Ġtellen": 6613, "Ġrechte": 6614, "Ġgrijze": 6615, "ĠHeren": 6616, "Toch": 6617, "ĠNationaal": 6618, "ĠCultuur": 6619, "Ġuurtje": 6620, "Ġbinnenkant": 6621, "sland": 6622, "ĠEnkele": 6623, "Ġgedwongen": 6624, "ĠJacob": 6625, "Ġuitslag": 6626, "ĠWordt": 6627, "ĠKN": 6628, "sem": 6629, "2015": 6630, "klachten": 6631, "ijns": 6632, "hoogte": 6633, "Ġvergelijkbaar": 6634, "cul": 6635, "Ġpomp": 6636, "planten": 6637, "Gebruik": 6638, "Ġ49": 6639, "ĠEigenlijk": 6640, "Ġgeleverde": 6641, "Ġitem": 6642, "Ġomschreven": 6643, "Ġlong": 6644, "Ġverklaren": 6645, "Ġtime": 6646, "Ġjongere": 6647, "ĠFre": 6648, "ĠPagina": 6649, "Ġsymbool": 6650, "ĠInhoud": 6651, "Ġthat": 6652, "ĠDuits": 6653, "Ġbruiloft": 6654, "ĠMuziek": 6655, "Ġappel": 6656, "atuur": 6657, "Ġgestopt": 6658, "Ġtemperaturen": 6659, "horst": 6660, "Ġtoestand": 6661, "Ġcertificaat": 6662, "houdt": 6663, "Ġcou": 6664, "akers": 6665, "Ġbeveiligd": 6666, "Ġentree": 6667, "ĠRobert": 6668, "voorziening": 6669, "Ġtong": 6670, "igingen": 6671, "chen": 6672, "pert": 6673, "ĠRo": 6674, "Ã": 6675, "Ġled": 6676, "Ġwaarover": 6677, "Ġstudies": 6678, "Ġslagen": 6679, "ĠExtra": 6680, "ky": 6681, "Ġadministratieve": 6682, "stal": 6683, "Ten": 6684, "Ġaangelegd": 6685, "Ġelf": 6686, "ionele": 6687, "Ġvoorkant": 6688, "ĠKeuken": 6689, "Ġleidde": 6690, "Ġliepen": 6691, "ppen": 6692, "Ġgemeentelijke": 6693, "aster": 6694, "ĠIets": 6695, "Ġ180": 6696, "ĠPlay": 6697, "matige": 6698, "Ġkopie": 6699, "ĠDutch": 6700, "inkt": 6701, "Ġexperts": 6702, "73": 6703, "uiten": 6704, "Ĩ": 6705, "Ġbrandstof": 6706, "inc": 6707, "vin": 6708, "Ġmed": 6709, "Ġmaan": 6710, "Ñĥ": 6711, "Ġpasvorm": 6712, "Ġzekere": 6713, "ĠPower": 6714, "iat": 6715, "spraak": 6716, "wacht": 6717, "Ġglimlach": 6718, "Ġparticuliere": 6719, "ochtend": 6720, "Ġboos": 6721, "Ġbetalings": 6722, "papier": 6723, "Ġcamper": 6724, "Ġinschrijven": 6725, "eens": 6726, "Ġonbekend": 6727, "Let": 6728, "Ġnauwkeurig": 6729, "Ķ": 6730, "ĠMo": 6731, "iken": 6732, "Ġyour": 6733, "ĠGriekse": 6734, "Ġgelijke": 6735, "ĠGeert": 6736, "Ġmoeilijker": 6737, "anger": 6738, "Ġkampioen": 6739, "Ġuiteen": 6740, "ition": 6741, "Ġmeubel": 6742, "Ġgevaarlijke": 6743, "Ġbeslissen": 6744, "Ġrelevant": 6745, "bladen": 6746, "Ġkwaliteiten": 6747, "Ġhol": 6748, "Ġaanb": 6749, "Ġopvallende": 6750, "aaien": 6751, "Ġtran": 6752, "Ġbeschikbaarheid": 6753, "Ġverdwijnt": 6754, "kundig": 6755, "Ġovereenkomstig": 6756, "ilm": 6757, "¦": 6758, "bezoek": 6759, "ĠEigen": 6760, "Ġalarm": 6761, "ators": 6762, "Ġnoodzaak": 6763, "Ġmolen": 6764, "Ġvertaling": 6765, "Ġinstallaties": 6766, "rent": 6767, "Ġtrappen": 6768, "Ġsessie": 6769, "ĠHen": 6770, "ĠKlein": 6771, "lucht": 6772, "Ġmunt": 6773, "79": 6774, "ĠgeÃ¯nstalleerd": 6775, "Ġbasisschool": 6776, "ĠRode": 6777, "ĠSE": 6778, "heen": 6779, "voering": 6780, "aj": 6781, "fin": 6782, "chter": 6783, "Ġjongste": 6784, "ĠProf": 6785, "ioneel": 6786, "rok": 6787, "Ġfamil": 6788, "ĠUWV": 6789, "Ġauthentieke": 6790, "werkers": 6791, "row": 6792, "Ġintroductie": 6793, "ĠMad": 6794, "Ġmodule": 6795, "Ġscenario": 6796, "Ġtoestellen": 6797, "Ġislam": 6798, "atiet": 6799, "Ġreviews": 6800, "Ġmap": 6801, "Ġverdriet": 6802, "ĠBro": 6803, "ĠGeniet": 6804, "spelen": 6805, "Ġzonde": 6806, "Ġbig": 6807, "kamers": 6808, "wijzen": 6809, "Ġlieten": 6810, "Ġevent": 6811, "afels": 6812, "houding": 6813, "eef": 6814, "Ġrubriek": 6815, "basis": 6816, "Ġtrip": 6817, "Ġvergroot": 6818, "ĺ": 6819, "ilt": 6820, "ups": 6821, "ĠRon": 6822, "Ġdisc": 6823, "gids": 6824, "Ġhonger": 6825, "bericht": 6826, "tre": 6827, "gele": 6828, "Misschien": 6829, "eland": 6830, "Ġredactie": 6831, "Ġafd": 6832, "ĠFestival": 6833, "Ġso": 6834, "Ġvergeleken": 6835, "Ġdesbetreffende": 6836, "seizoen": 6837, "nieuws": 6838, "ule": 6839, "keuze": 6840, "Ġonderstaand": 6841, "gas": 6842, "Ġfactor": 6843, "uwe": 6844, "IK": 6845, "productie": 6846, "ĠSinterklaas": 6847, "Ġverzenden": 6848, "Ġnoten": 6849, "museum": 6850, "oef": 6851, "ĠLange": 6852, "board": 6853, "itten": 6854, "ĠYou": 6855, "ĠDames": 6856, "Ġcriteria": 6857, "gek": 6858, "BA": 6859, "71": 6860, "book": 6861, "bewijs": 6862, "Ġfantasie": 6863, "ĠJack": 6864, "Ġkr": 6865, "Ġloopafstand": 6866, "Ħ": 6867, "TE": 6868, "Ġtoernooi": 6869, "Ġmeegemaakt": 6870, "asse": 6871, "52": 6872, "Ġstorm": 6873, "Ġclubs": 6874, "Ġerkende": 6875, "naar": 6876, "blog": 6877, "Ġspreek": 6878, "wee": 6879, "ĠNV": 6880, "Ġspoed": 6881, "ENT": 6882, "Ġverhuizen": 6883, "cor": 6884, "specialist": 6885, "ĠHout": 6886, "Ġbegroting": 6887, "Ġmerkt": 6888, "Ġparkeerplaats": 6889, "Ġ800": 6890, "Ã¢": 6891, "Ġbestellingen": 6892, "ĠHam": 6893, "ush": 6894, "Ġbreng": 6895, "Ġoorspronkelijk": 6896, "Ġwaardevolle": 6897, "arch": 6898, "Ġbewerken": 6899, "Ġbenoemd": 6900, "Ġpolitici": 6901, "Ġuitgelegd": 6902, "uif": 6903, "oft": 6904, "annen": 6905, "Ġindex": 6906, "house": 6907, "Ġfiscale": 6908, "ĠSol": 6909, "motor": 6910, "Ġherinneren": 6911, "Ġlege": 6912, "Ġonszelf": 6913, "Ġverzekeraar": 6914, "menu": 6915, "Ġfysiek": 6916, "urk": 6917, "DEN": 6918, "uid": 6919, "Ġnuttig": 6920, "Te": 6921, "Ġtrouwde": 6922, "pop": 6923, "¸": 6924, "ĠGeschikt": 6925, "Ġbegrijpt": 6926, "Ġbehaald": 6927, "Ġyoga": 6928, "54": 6929, "AND": 6930, "Ġduurder": 6931, "Ġrock": 6932, "Ġjarige": 6933, "Ġinstructies": 6934, "Ġlatere": 6935, "Ġrealiteit": 6936, "vest": 6937, "Ġrel": 6938, "ĠPhilips": 6939, "Ġtreft": 6940, "Ġkoor": 6941, "Ġlezing": 6942, "Ġvormgeving": 6943, "Ġcomp": 6944, "Ġdiagnose": 6945, "Ġvergoed": 6946, "ĠKort": 6947, "Ä": 6948, "Ġgemeenschappelijke": 6949, "stop": 6950, "ĠpotentiÃ«le": 6951, "Ġverrassend": 6952, "ozen": 6953, "ratie": 6954, "fabriek": 6955, "89": 6956, "slaan": 6957, "Ġsom": 6958, "Twee": 6959, "Ġinkt": 6960, "Ġstijging": 6961, "Ġrijbewijs": 6962, "Ġoorzaken": 6963, "Ġschooljaar": 6964, "Ġvoortaan": 6965, "arten": 6966, "Ġfotograaf": 6967, "afdeling": 6968, "iere": 6969, "igende": 6970, "Ġstaande": 6971, "Ġvergelijk": 6972, "Ġpoly": 6973, "Ġei": 6974, "anda": 6975, "ateur": 6976, "Ġhierna": 6977, "Ġmass": 6978, "OD": 6979, "Ġvoorwerpen": 6980, "Ġuiterste": 6981, "Ġperceel": 6982, "Ġwal": 6983, "Ġbewegingen": 6984, "Ġtreffen": 6985, "ŀ": 6986, "Ġgevoelig": 6987, "Ġartsen": 6988, "Binnen": 6989, "Ġdoelstelling": 6990, "Helaas": 6991, "bestuur": 6992, "roep": 6993, "Ġintegratie": 6994, "ÑĤ": 6995, "Ġgezondheidszorg": 6996, "Ġwennen": 6997, "iment": 6998, "Ø§": 6999, "Ġtrendy": 7000, "structuur": 7001, "oorde": 7002, "Ġstijgen": 7003, "imp": 7004, "uts": 7005, "ĠBa": 7006, "Ġdieper": 7007, "Ġdek": 7008, "Ġwaardering": 7009, "Ġkocht": 7010, "Ġvoortgezet": 7011, "84": 7012, "Ġhaak": 7013, "Ġbehoudt": 7014, "Ġbruine": 7015, "oets": 7016, "ĠÂ«": 7017, "Ġbeschermt": 7018, "Ġeigenaren": 7019, "Ġvoorzijde": 7020, "Ġoverheden": 7021, "gegaan": 7022, "Ġaangekomen": 7023, "82": 7024, "Ġcv": 7025, "Ġtoneel": 7026, "reizen": 7027, "gesch": 7028, "rig": 7029, "apparaat": 7030, "ros": 7031, "Ġverbruik": 7032, "ĠDirk": 7033, "Ġacc": 7034, "banen": 7035, "Ġbleven": 7036, "Ġketen": 7037, "nam": 7038, "Ġoverdag": 7039, "jo": 7040, "Neem": 7041, "ated": 7042, "Ġoverdracht": 7043, "AAR": 7044, "ĠSy": 7045, "ĠDordrecht": 7046, "Ġwetten": 7047, "bomen": 7048, "«": 7049, "jaars": 7050, "Ġhy": 7051, "74": 7052, "iding": 7053, "Ġgroeiende": 7054, "ĠJean": 7055, "Ġmarkten": 7056, "Ġham": 7057, "verf": 7058, "son": 7059, "Ġapplicaties": 7060, "Ġtak": 7061, "ates": 7062, "ela": 7063, "Ġkippen": 7064, "merken": 7065, "Ġuitnodiging": 7066, "Sh": 7067, "Ġdorpen": 7068, "Ġgarant": 7069, "Ġgedicht": 7070, "Ġgebruiks": 7071, "ĠSim": 7072, "rekken": 7073, "Ġkloppen": 7074, "Ġdisplay": 7075, "Ġvijftien": 7076, "kan": 7077, "Ġbrieven": 7078, "Ġvijand": 7079, "ĠUS": 7080, "Ġvakken": 7081, "opl": 7082, "Ġloopbaan": 7083, "werker": 7084, "Ġmedium": 7085, "Ġpenis": 7086, "ĠDownload": 7087, "Sl": 7088, "ĠâĢĭâĢĭ": 7089, "Ġgereedschap": 7090, "anna": 7091, "Ġspecificaties": 7092, "Ġlegde": 7093, "Ġmel": 7094, "oeken": 7095, "Ġve": 7096, "part": 7097, "Ġgezorgd": 7098, "beurt": 7099, "zin": 7100, "fen": 7101, "chten": 7102, "Ġdunne": 7103, "Ġscheiding": 7104, "Ġondergrond": 7105, "Ġwer": 7106, "Ġlak": 7107, "Ġvergader": 7108, "rist": 7109, "uurt": 7110, "Ġvliegveld": 7111, "ĠBasis": 7112, "ĠBob": 7113, "ª": 7114, "Ġrijpe": 7115, "ĠKen": 7116, "Ġtoegekend": 7117, "Ġfeestdagen": 7118, "igers": 7119, "ĠAnne": 7120, "Ġdarm": 7121, "doel": 7122, "ĠOntdek": 7123, "Ġstud": 7124, "OV": 7125, "Ġkilometers": 7126, "Ġkritisch": 7127, "ĠMor": 7128, "ĠgeÃ¯nspireerd": 7129, "Ġnest": 7130, "Ġgunstig": 7131, "derde": 7132, "ĠSnel": 7133, "ĠVerd": 7134, "Ġsal": 7135, "ĠTon": 7136, "¢": 7137, "Ġprettige": 7138, "Ġkoos": 7139, "Ġplaatsgevonden": 7140, "ĠGerrit": 7141, "ĠRom": 7142, "wijzer": 7143, "Ġerfgoed": 7144, "Ġdwars": 7145, "2014": 7146, "Ġopzetten": 7147, "Ġdokter": 7148, "Ġbedoel": 7149, "gde": 7150, "Ġlidmaatschap": 7151, "oest": 7152, "sens": 7153, "analyse": 7154, "Ġzestig": 7155, "Ġvrucht": 7156, "Ġuitvoer": 7157, "zi": 7158, "Ġuitdrukkelijk": 7159, "Ġoverleven": 7160, "Ġuitvaart": 7161, "ize": 7162, "ĠBrugge": 7163, "UL": 7164, "53": 7165, "ĠJeroen": 7166, "Ġvoorziet": 7167, "ĠSur": 7168, "Ġpatronen": 7169, "Ġdurven": 7170, "tot": 7171, "Å": 7172, "94": 7173, "Ġmaatregel": 7174, "AF": 7175, "Ġrits": 7176, "ĠWeet": 7177, "vens": 7178, "OO": 7179, "Ġopmerking": 7180, "·": 7181, "Iedereen": 7182, "Ġrijtje": 7183, "Ġgevoelige": 7184, "Ġbril": 7185, "Ġgebeurtenis": 7186, "plek": 7187, "Ġbinnenstad": 7188, "Ġarmoede": 7189, "dek": 7190, "Ġ56": 7191, "idt": 7192, "camera": 7193, "Ġduurde": 7194, "ĠWebsite": 7195, "Ġverrast": 7196, "Ġgedreven": 7197, "acties": 7198, "Ġjob": 7199, "Ġknoop": 7200, "ĠGet": 7201, "Ġvertrouwde": 7202, "ĠVER": 7203, "Ġzom": 7204, "ĠCenter": 7205, "87": 7206, "schema": 7207, "Ġschadevergoeding": 7208, "ays": 7209, "uut": 7210, "rec": 7211, "Ġchauffeur": 7212, "Ġchristelijke": 7213, "Ġverzekeringen": 7214, "ĠEind": 7215, "Ġraar": 7216, "Ġopv": 7217, "EE": 7218, "ello": 7219, "Ġgreep": 7220, "Ġleraar": 7221, "pat": 7222, "Ġminimale": 7223, "bre": 7224, "Ġkleurrijke": 7225, "Ġbescheiden": 7226, "ures": 7227, "Ġtieners": 7228, "Ġbeschadigd": 7229, "Ġstabiel": 7230, "ĠCDA": 7231, "aks": 7232, "Ġtoevoeging": 7233, "fit": 7234, "Ġuitspraken": 7235, "Ġplaatsing": 7236, "waren": 7237, "Ġhoeveelheden": 7238, "Ġtr": 7239, "oopt": 7240, "ĠMol": 7241, "Ġoost": 7242, "EP": 7243, "Ġtuinen": 7244, "Ġinkoop": 7245, "aats": 7246, "Ġindicatie": 7247, "Ġgrip": 7248, "herapie": 7249, "Nadat": 7250, "ĠOnderzoek": 7251, "ĠBay": 7252, "Ġbezoekt": 7253, "vet": 7254, "Ġhuurder": 7255, "gesteld": 7256, "Ġparlement": 7257, "Ġdoorgaan": 7258, "ko": 7259, "hol": 7260, "stoelen": 7261, "Ġdatabase": 7262, "Ġverantwoord": 7263, "ĠZweden": 7264, "El": 7265, "rend": 7266, "onn": 7267, "Ġplay": 7268, "roll": 7269, "Mocht": 7270, "omgeving": 7271, "Ġschoot": 7272, "¶": 7273, "Ġweder": 7274, "morgen": 7275, "Ġgeg": 7276, "Ġlach": 7277, "zetting": 7278, "Ġnov": 7279, "waard": 7280, "Ġir": 7281, "Ġvoorsprong": 7282, "Ġgeliefde": 7283, "ossen": 7284, "Ġgedichten": 7285, "Ġverliest": 7286, "Ġmenselijk": 7287, "partijen": 7288, "Ġjustitie": 7289, "Ġvoorafgaand": 7290, "Ġbreken": 7291, "ĠbeÃ¯nvloeden": 7292, "Ġgoedgekeurd": 7293, "Ġsaus": 7294, "Ġgekleurde": 7295, "Ġverpakt": 7296, "ĠðŁĺī": 7297, "ouch": 7298, "Ġonthouden": 7299, "oofd": 7300, "ĠHy": 7301, "Ġpsych": 7302, "Ġzoo": 7303, "''": 7304, "Ġaanvallen": 7305, "vriendelijk": 7306, "ĠDruk": 7307, "Ġliefhebbers": 7308, "Ġopgave": 7309, "ĠAlkmaar": 7310, "Ġbele": 7311, "aven": 7312, "Ġsymptomen": 7313, "ronde": 7314, "ĠDank": 7315, "Ġboer": 7316, "Ġfavoriet": 7317, "63": 7318, "Ġwethouder": 7319, "Ġ99": 7320, "Ġair": 7321, "Ġstuderen": 7322, "Ġgulden": 7323, "massage": 7324, "Ġhersen": 7325, "zoek": 7326, "?!": 7327, "51": 7328, "product": 7329, "Ġtypisch": 7330, "ĠIeder": 7331, "Ġtank": 7332, "CO": 7333, "ĠEnschede": 7334, "©": 7335, "Ġvolgorde": 7336, "ĠHierin": 7337, "Ġfunctionaliteit": 7338, "Ġgeboekt": 7339, "lin": 7340, "har": 7341, "Ġzuiver": 7342, "gesprek": 7343, "ii": 7344, "ĠBal": 7345, "Ġaanbevolen": 7346, "Ġoptimaliseren": 7347, "Ġbied": 7348, "Ġkoppelen": 7349, "ummer": 7350, "som": 7351, "TV": 7352, "Ġbovenste": 7353, "ho": 7354, "Ġbetaalbare": 7355, "halen": 7356, "ĠGriekenland": 7357, "Ġambitie": 7358, "mus": 7359, "Ġvoormalig": 7360, "Ġvarianten": 7361, "ĠPrins": 7362, "ĠInstituut": 7363, "kennis": 7364, "eep": 7365, "rale": 7366, "Ġzoete": 7367, "Ġstaats": 7368, "Ġopslaan": 7369, "ĠBad": 7370, "overzicht": 7371, "Ġsterven": 7372, "62": 7373, "Ġshowroom": 7374, "ĠHerman": 7375, "platform": 7376, "Ġaanpassing": 7377, "ulatie": 7378, "ĠTotaal": 7379, "Ġplaatsvindt": 7380, "»": 7381, "ĠBarcelona": 7382, "83": 7383, "rel": 7384, "Ġgrappig": 7385, "ĠBlue": 7386, "Ġbeker": 7387, "Ġlied": 7388, "ĠSony": 7389, "Ġwoonde": 7390, "ĠSociale": 7391, "reet": 7392, "meter": 7393, "Heel": 7394, "Ġsteunen": 7395, "okk": 7396, "Ġmaaltijden": 7397, "Ġkanalen": 7398, "Ġinteractieve": 7399, "ĠAltijd": 7400, "Ġgoedkeuring": 7401, "ĠOoster": 7402, "aarden": 7403, "elings": 7404, "Ġballen": 7405, "Ġherkenbaar": 7406, "Ġdw": 7407, "ĠTwente": 7408, "anken": 7409, "hard": 7410, "×": 7411, "ual": 7412, "olog": 7413, "Ġras": 7414, "ĠStandaard": 7415, "Ġstal": 7416, "Ġschouders": 7417, "ĠCanada": 7418, "Ġauteurs": 7419, "centra": 7420, "achter": 7421, "jas": 7422, "Ġamper": 7423, "Ġduiven": 7424, "ĠStudio": 7425, "raag": 7426, "93": 7427, "Ġexemplaren": 7428, "Ġtw": 7429, "ĠVert": 7430, "Ġlet": 7431, "oods": 7432, "Ġinspirerende": 7433, "SC": 7434, "hoog": 7435, "Ġfel": 7436, "Ġbbw": 7437, "Ġcellen": 7438, "ullen": 7439, "fe": 7440, "ĠAdvies": 7441, "verb": 7442, "57": 7443, "ampen": 7444, "iot": 7445, "Ġdon": 7446, "ĠFun": 7447, "Ġleerkrachten": 7448, "Ġchemische": 7449, "Ġgetuigen": 7450, "Ġwerkdag": 7451, "Ġzuur": 7452, "Ġcombineert": 7453, "Ġtermen": 7454, "Ġaspect": 7455, "Ãª": 7456, "Ġsloot": 7457, "Ãĥ": 7458, "ĠJans": 7459, "ĠJustitie": 7460, "bond": 7461, "Ġontdek": 7462, "VS": 7463, "aakte": 7464, "Ġplein": 7465, "ĠMateriaal": 7466, "Ġjubileum": 7467, "Ð½": 7468, "Ġhoogtepunt": 7469, "ĠPR": 7470, "Ġuitgewerkt": 7471, "ony": 7472, "Ġboel": 7473, "Afrika": 7474, "Ġspijt": 7475, "Ġcan": 7476, "Ġnotaris": 7477, "ĠAnn": 7478, "ye": 7479, "ĠGraag": 7480, "TC": 7481, "Ġemotionele": 7482, "Ġleraren": 7483, "zy": 7484, "Ġml": 7485, "Ġtextiel": 7486, "ĠHard": 7487, "iaan": 7488, "Ġbra": 7489, "Ġeconomisch": 7490, "ĠIV": 7491, "Ġbeveiligings": 7492, "ĠAfhankelijk": 7493, "Ġtools": 7494, "oto": 7495, "ĠRock": 7496, "ep": 7497, "coach": 7498, "Ġheilige": 7499, "Ġzanger": 7500, "Ġalthans": 7501, "ĠBor": 7502, "Ġaangename": 7503, "ĠHollandse": 7504, "press": 7505, "Ġvervallen": 7506, "iviteit": 7507, "Ġextreme": 7508, "ervice": 7509, "Ġrecreatie": 7510, "âĢĶ": 7511, "knop": 7512, "Ġnadere": 7513, "Ġcoaching": 7514, "Ġdecoratie": 7515, "Ġcur": 7516, "Ġpiano": 7517, "Ġbuitenkant": 7518, "ĠPorn": 7519, "Ġren": 7520, "Ġveertig": 7521, "ĠHP": 7522, "Ġtram": 7523, "<": 7524, "?\"": 7525, "imm": 7526, "Ġtypische": 7527, "Ġspot": 7528, "Ġdaarentegen": 7529, "Ġopkomst": 7530, "Ġmer": 7531, "Ġwoonplaats": 7532, "Ġlaad": 7533, "ester": 7534, "Ġgeacht": 7535, "hor": 7536, "Ġvermelden": 7537, "boven": 7538, "ĠHal": 7539, "Ġhelp": 7540, "rouw": 7541, "Ġbijeenkomsten": 7542, "Ġbon": 7543, "cursus": 7544, "iller": 7545, "Ġlopende": 7546, "Ġaanbieder": 7547, "ĠDirect": 7548, "BC": 7549, "Ġpeil": 7550, "ĠMannen": 7551, "ctief": 7552, "Ġwapens": 7553, "Ġerachter": 7554, "Ġhardware": 7555, "Ġbre": 7556, "Ġzilveren": 7557, "ertjes": 7558, "ĠJos": 7559, "ĠRos": 7560, "ĠWol": 7561, "ĠChrist": 7562, "tu": 7563, "Ġrubber": 7564, "rond": 7565, "ĠInleiding": 7566, "Ġnationaal": 7567, "ĠBergen": 7568, "Ġtassen": 7569, "rab": 7570, "Ġ54": 7571, "ield": 7572, "Ġjazz": 7573, "MC": 7574, "Ġform": 7575, "wedstrijden": 7576, "apen": 7577, "gere": 7578, "elder": 7579, "ĠMeld": 7580, "beweging": 7581, "Ġmatras": 7582, "ope": 7583, "aarten": 7584, "Ġzolder": 7585, "Ġoefening": 7586, "Ġnut": 7587, "bor": 7588, "Ġnaartoe": 7589, "Ġverschillend": 7590, "cher": 7591, "gratis": 7592, "mens": 7593, "ref": 7594, "Ġ1997": 7595, "ĠTel": 7596, "procedure": 7597, "ĠStap": 7598, "Ġbarbecue": 7599, "Ġzwak": 7600, "ĠKoninklijke": 7601, "Ġgestaan": 7602, "Ġmassages": 7603, "Ġverrassen": 7604, "Ġoper": 7605, "ĠMaarten": 7606, "ĠVerb": 7607, "Ġvliegt": 7608, "grens": 7609, "Ġschitterend": 7610, "Ġtegel": 7611, "ĠGal": 7612, "Ġwiel": 7613, "Ġprofielen": 7614, "!\"": 7615, "Ġtoenemende": 7616, "Ġsommigen": 7617, "kker": 7618, "Ġziekenhuizen": 7619, "Ġgemist": 7620, "Ġindeling": 7621, "Ġtoename": 7622, "Ġsenioren": 7623, "ĠGerard": 7624, "Ġcont": 7625, "ouder": 7626, "ĠMc": 7627, "SM": 7628, "Ġpolyester": 7629, "dragen": 7630, "Ġanalyseren": 7631, "win": 7632, "ĠCas": 7633, "Ġtypen": 7634, "Ġuitb": 7635, "ĠVandaar": 7636, "kering": 7637, "Ġwol": 7638, "Ġevaluatie": 7639, "Mensen": 7640, "Ġnieuwsgierig": 7641, "ĠAS": 7642, "oms": 7643, "Ġlens": 7644, "ĠMede": 7645, "olf": 7646, "Ġzonnige": 7647, "Ġoplopen": 7648, "Ġverschuldigd": 7649, "ĠOpt": 7650, "µ": 7651, "Ġkelder": 7652, "Ð»": 7653, "Ġpizza": 7654, "Ġgezelligheid": 7655, "Ġbovenaan": 7656, "Ġcard": 7657, "Ġdankbaar": 7658, "Zorg": 7659, "Ġpubliceren": 7660, "Ġsmalle": 7661, "Ġhit": 7662, "voeding": 7663, "ĠYouTube": 7664, "Ñģ": 7665, "ĠKing": 7666, "raal": 7667, "rollen": 7668, "rode": 7669, "Ġdefinitieve": 7670, "tr": 7671, "gedeelte": 7672, "Ġdrink": 7673, "bit": 7674, "zers": 7675, "Ġvertrekt": 7676, "ĠGel": 7677, "Ġvaststellen": 7678, "Ġuiteindelijke": 7679, "Ġbegraven": 7680, "hou": 7681, "ĠTerug": 7682, "Ġdealer": 7683, "Ġfrom": 7684, "ĠKennis": 7685, "aaid": 7686, "Ġaandoening": 7687, "eelt": 7688, "rapport": 7689, "stap": 7690, "Ġfraai": 7691, "Ġoplevert": 7692, "Ġvruchten": 7693, "bin": 7694, "Ġbegane": 7695, "Ġtekening": 7696, "81": 7697, "Ġveroordeeld": 7698, "ĠGed": 7699, "slot": 7700, "Ġsj": 7701, "Ġmusea": 7702, "Ġkool": 7703, "Ġvriendinnen": 7704, "eeuw": 7705, "Ġpauze": 7706, "TA": 7707, "veiligheid": 7708, "Ń": 7709, "ĠVerg": 7710, "aand": 7711, "Ġraadplegen": 7712, "ĠWer": 7713, "ĠTegenwoordig": 7714, "Ġaangekondigd": 7715, "Ġdergelijk": 7716, "Ġfitness": 7717, "ĠLen": 7718, "-/": 7719, "tegen": 7720, "Ġhistorisch": 7721, "stijd": 7722, "Ġsnijden": 7723, "UM": 7724, "brengen": 7725, "Ġbepaling": 7726, "ĠLu": 7727, "hr": 7728, "ĠDa": 7729, "ystemen": 7730, "Ġnoodzakelijke": 7731, "Ġstr": 7732, "¼": 7733, "Ġkwartier": 7734, "Ġflexibiliteit": 7735, "ĠLeague": 7736, "vlees": 7737, "orde": 7738, "Ġhaard": 7739, "Ġkam": 7740, "Ġleverde": 7741, "Ġgrondslag": 7742, "ĠDieren": 7743, "ĠGolf": 7744, "Ġ1995": 7745, "Ġerkenning": 7746, "ĠKap": 7747, "Ġopa": 7748, "kanker": 7749, "Ġblonde": 7750, "Hallo": 7751, "Ø": 7752, "Ġklikt": 7753, "ĠErik": 7754, "ĠOffice": 7755, "Ġschema": 7756, "order": 7757, "veel": 7758, "groei": 7759, "Ġmonteren": 7760, "Ġintensieve": 7761, "Ġgeconfronteerd": 7762, "ĠAustraliÃ«": 7763, "Ġbeschrijven": 7764, "Ġoptredens": 7765, "Ġhoopt": 7766, "Ġregistreren": 7767, "Ġsoft": 7768, "Ġprocedures": 7769, "91": 7770, "ĠBureau": 7771, "ĠSun": 7772, "vervoer": 7773, "Ġknap": 7774, "Ġversies": 7775, "Ġklassiek": 7776, "Ġgebakken": 7777, "Ġrecord": 7778, "ĠKruis": 7779, "ĠMoet": 7780, "outen": 7781, "Ġgelaten": 7782, "roepen": 7783, "Ġminst": 7784, "gezet": 7785, "Ġwielen": 7786, "Ġvergelijkbare": 7787, "maak": 7788, "huur": 7789, "Ġhd": 7790, "TS": 7791, "ĠDom": 7792, "Ġ51": 7793, "ork": 7794, "Ġvereiste": 7795, "Ġverklaart": 7796, "Ġvee": 7797, "Ġplakken": 7798, "Ġvoorafgaande": 7799, "Ġkozijnen": 7800, "Ġkeur": 7801, "Ġfeesten": 7802, "eft": 7803, "ĠMot": 7804, "Ġvest": 7805, "sing": 7806, "Ġkinderopvang": 7807, "aller": 7808, "Ġgezeten": 7809, "groot": 7810, "apos": 7811, "Ġvelden": 7812, "ĠvariÃ«ren": 7813, "ĠVeen": 7814, "Ġzelfgemaakte": 7815, "geving": 7816, "Ġhopelijk": 7817, "Ġprotest": 7818, "Ġopgehaald": 7819, "Ġnederlandse": 7820, "time": 7821, "Ġbagage": 7822, "®": 7823, "denk": 7824, "Ġverspreiden": 7825, "Ġserieuze": 7826, "Ġduiken": 7827, "Ġwereldwijde": 7828, "ĠVN": 7829, "arte": 7830, "Ġweleens": 7831, "denken": 7832, "route": 7833, "Ġkennelijk": 7834, "ruit": 7835, "Ġadressen": 7836, "rus": 7837, "Ġret": 7838, "Home": 7839, "Ġharder": 7840, "Ġkleren": 7841, ",,": 7842, "ĠKwaliteit": 7843, "ĠAB": 7844, "Ġoverzichtelijk": 7845, "Ġ03": 7846, "ĠVel": 7847, "Ġkeel": 7848, "Ĭ": 7849, "ontwerp": 7850, "Ġvertalen": 7851, "Ġtickets": 7852, "Ġtafels": 7853, "Ġindividu": 7854, "Kijk": 7855, "oning": 7856, "hoorn": 7857, "erland": 7858, "Ġgrondstoffen": 7859, "Ġbond": 7860, "put": 7861, "uld": 7862, "Ġvertaald": 7863, "verl": 7864, "Ġveren": 7865, "oeden": 7866, "ema": 7867, "account": 7868, "Ġkosteloos": 7869, "ijf": 7870, "din": 7871, "for": 7872, "Ġdanken": 7873, "films": 7874, "vat": 7875, "Ġvoorschriften": 7876, "ĠLos": 7877, "Ġpersoonlijkheid": 7878, "mis": 7879, "Ġwerkplek": 7880, "Ġcommentaar": 7881, "Ġzijkant": 7882, "Naar": 7883, "ĠWester": 7884, "ilen": 7885, "nieuwe": 7886, "gebonden": 7887, "ĠLam": 7888, "bie": 7889, "vergadering": 7890, "ero": 7891, "ĠKees": 7892, "Ġkantoren": 7893, "Ġwerkelijke": 7894, "VB": 7895, "Ġescorts": 7896, "bb": 7897, "Ġmijzelf": 7898, "gangen": 7899, "Ġeerlijke": 7900, "Ġreist": 7901, "Ġoprichting": 7902, "omb": 7903, "Ġuitgezonden": 7904, "rip": 7905, "unch": 7906, "ĠBijna": 7907, "Ġuitgaan": 7908, "steun": 7909, "Ġbelastingen": 7910, "Ġschot": 7911, "Ġlijstje": 7912, "Ġvent": 7913, "inge": 7914, "verm": 7915, "ĠWijn": 7916, "ĠWiFi": 7917, "Ġaanschaffen": 7918, "Welkom": 7919, "itair": 7920, "aalde": 7921, "iks": 7922, "Ġlangdurige": 7923, "Ġsign": 7924, "Ġbijbel": 7925, "raat": 7926, "lands": 7927, "ĠCat": 7928, "Ġrichtlijn": 7929, "Ġgo": 7930, "iter": 7931, "Ġbranden": 7932, "Ġgeldende": 7933, "ĠCamp": 7934, "61": 7935, "Ġcompacte": 7936, "Ġingebouwde": 7937, "Ġintussen": 7938, "maatschappij": 7939, "Ġingevoerd": 7940, "DS": 7941, "!âĢĻ": 7942, "Ġgemonteerd": 7943, "Ġpakte": 7944, "namen": 7945, "Bekijk": 7946, "Ġopzoek": 7947, "Ġwest": 7948, "ĠMus": 7949, "lee": 7950, "Ġrepareren": 7951, "Ġmand": 7952, "Ġonderkant": 7953, "Ġreligieuze": 7954, "Ġcookie": 7955, "Ġbijstand": 7956, "Ġtrio": 7957, "ades": 7958, "Ġkraan": 7959, "Ġachternaam": 7960, "Ġbijeen": 7961, "Ġ1996": 7962, "show": 7963, "hotel": 7964, "AV": 7965, "ĠVries": 7966, "Ġtomaten": 7967, "ude": 7968, "itaire": 7969, "Ġzuurstof": 7970, "ruim": 7971, "staand": 7972, "Th": 7973, "macht": 7974, "ĠBW": 7975, "Geplaatst": 7976, "Soms": 7977, "Ġopgeleverd": 7978, "Ġdeal": 7979, "Ġsnij": 7980, "Ġtoer": 7981, "ĠLeven": 7982, "Ġwetenschappers": 7983, "scholen": 7984, "Ġernaar": 7985, "ĠBelastingdienst": 7986, "Ġverzekeren": 7987, "Ġone": 7988, "Ġlasten": 7989, "Ġpet": 7990, "Ġspring": 7991, "Per": 7992, "ĠSchrijf": 7993, "ĠVOOR": 7994, "wezen": 7995, "Ġdemocratie": 7996, "Ġmot": 7997, "oeder": 7998, "Ġaangetoond": 7999, "ĠBezoek": 8000, "Ġneukt": 8001, "Ġwekelijks": 8002, "Ġupdates": 8003, "uig": 8004, "Ġgezins": 8005, "iver": 8006, "Ġdalen": 8007, "Ġpakt": 8008, "Ġzone": 8009, "ĠgeÃ«": 8010, "ĠJuist": 8011, "onne": 8012, "Ġvonnis": 8013, "ĠKim": 8014, "Ġplotseling": 8015, "ĠVoorwaarden": 8016, "Ġvintage": 8017, "Ġgebroken": 8018, "Ġvaststelling": 8019, "ĠVen": 8020, "Ġberekening": 8021, "iseerd": 8022, "zeker": 8023, "Ġbloot": 8024, "Ġaannemer": 8025, "kasten": 8026, "vlak": 8027, "ĠRecht": 8028, "PC": 8029, "Ġinspectie": 8030, "Ġgedoopt": 8031, "oster": 8032, "ll": 8033, "Ġduo": 8034, "Ġalsook": 8035, "Ġbehaalde": 8036, "Ġtoegevoegde": 8037, "ĠKlant": 8038, "Ġeiken": 8039, "ril": 8040, "site": 8041, "Ont": 8042, "heim": 8043, "ĠSaint": 8044, "Ġmeld": 8045, "ĠBedankt": 8046, "Ġverwijst": 8047, "2013": 8048, "Ġwastafel": 8049, "Ġresolutie": 8050, "Ġtrans": 8051, "ĠISO": 8052, "Ġbeantwoord": 8053, "Ġcap": 8054, "Ġbuit": 8055, "Ġroutes": 8056, "NA": 8057, "verkoop": 8058, "Ġpersonages": 8059, "Ġbestrijden": 8060, "Ġkoffer": 8061, "ĠAssen": 8062, "activiteit": 8063, "Ġuitkomt": 8064, "pos": 8065, "Ã©e": 8066, "Even": 8067, "Ġlukken": 8068, "kar": 8069, "Ġheuvel": 8070, "ĠNational": 8071, "Ġmedicatie": 8072, "ital": 8073, "Ġ53": 8074, "nr": 8075, "Ġgronden": 8076, "sd": 8077, "igings": 8078, "han": 8079, "Com": 8080, "ĠZwitserland": 8081, "Ġvennootschap": 8082, "Ġvoorbereiden": 8083, "Ġlichaams": 8084, "ĠNiets": 8085, "Ġduidelijkheid": 8086, "Ġoefen": 8087, "ije": 8088, "Ġsectoren": 8089, "Ġomschrijving": 8090, "LA": 8091, "oeld": 8092, "ĠPolen": 8093, "ĠMS": 8094, "Ġopbouwen": 8095, "Ġinteractie": 8096, "Ġmotoren": 8097, "Ġaangepaste": 8098, "Ġverplichte": 8099, "uze": 8100, "Ġaangehouden": 8101, "Ġpasta": 8102, "ĠJonge": 8103, "bestanden": 8104, "Ġramp": 8105, "He": 8106, "Ġ2020": 8107, "orf": 8108, "kanaal": 8109, "ĠSelecteer": 8110, "ĠWord": 8111, "Ġdeeg": 8112, "ray": 8113, "bestendig": 8114, "SS": 8115, "ae": 8116, "Ġcheck": 8117, "Ġgevangenis": 8118, "Zij": 8119, "Ġstijgt": 8120, "Ġnagenoeg": 8121, "ĠRam": 8122, "not": 8123, "Ġsecretaris": 8124, "ials": 8125, "ove": 8126, "Ġvestigingen": 8127, "ĠBegin": 8128, "Ġderhalve": 8129, "Ġonderlinge": 8130, "Ġsterkte": 8131, "ĠDNA": 8132, "ĠHouse": 8133, "Con": 8134, "Ġadvocaten": 8135, "ieven": 8136, "Ġdialoog": 8137, "ĠCornelis": 8138, "Ġbestuurs": 8139, "ilde": 8140, "ĠPan": 8141, "Ġbundel": 8142, "ziekte": 8143, "Ġlicentie": 8144, "ĠKle": 8145, "ĠBody": 8146, "ĠBesluit": 8147, "bakken": 8148, "borg": 8149, "Wel": 8150, "ĠVakantie": 8151, "Ġwaarderen": 8152, "Ġuitleggen": 8153, "FC": 8154, "Ġgepaard": 8155, "Ġvoorgesteld": 8156, "Ġcijfer": 8157, "Ġgetuige": 8158, "Ġhieraan": 8159, "Ġmg": 8160, "Ġanderzijds": 8161, "pass": 8162, "Ġpil": 8163, "oring": 8164, "Ġoverlast": 8165, "ĠSpeel": 8166, "Inter": 8167, "keten": 8168, "Zelf": 8169, "Ġontving": 8170, "landen": 8171, "Nou": 8172, "Ġgeavanceerde": 8173, "ĠGeld": 8174, "Ġoverleed": 8175, "Ġverloor": 8176, "gekomen": 8177, "Ġwaarborgen": 8178, "Ġinform": 8179, "ĠDVD": 8180, "ĠBehalve": 8181, "complex": 8182, "Bel": 8183, "Ġwanden": 8184, "Ġdaaruit": 8185, "Ġzocht": 8186, "Ġopleidings": 8187, "bloem": 8188, "Ġpap": 8189, "Ġfin": 8190, "Ġ;-)": 8191, "iders": 8192, "urn": 8193, "Ġ02": 8194, "Ġroer": 8195, "\":\"": 8196, "ĠOverijssel": 8197, "Ġbehandel": 8198, "iÃ«rs": 8199, "Ġbekendste": 8200, "Ġklooster": 8201, "Ġkoeien": 8202, "ĠIJssel": 8203, "Ġborden": 8204, "ĠDatum": 8205, "Ġcontrast": 8206, "Fl": 8207, "cultuur": 8208, "ĠType": 8209, "laat": 8210, "ĠLight": 8211, "Ġinspanning": 8212, "Ġoftewel": 8213, "Ġdiefstal": 8214, "LO": 8215, "ĠEP": 8216, "Ġvijver": 8217, "rest": 8218, "Ġaankomen": 8219, "groen": 8220, "akker": 8221, "ific": 8222, "Ġverstuurd": 8223, "Ġopvolger": 8224, "ĠMart": 8225, "vormige": 8226, "Beste": 8227, "Ġhecht": 8228, "Ġverwijzing": 8229, "Ġkeurig": 8230, "rijp": 8231, "centrale": 8232, "oun": 8233, "Ġlevende": 8234, "Ġ:-)": 8235, "ulp": 8236, "ĠÜ": 8237, "how": 8238, "ĠKPN": 8239, "Ġbetrokkenen": 8240, "Ste": 8241, "orie": 8242, "Ġpremier": 8243, "Ġ110": 8244, "Ġgebruikelijke": 8245, "ĠWees": 8246, "Ġrun": 8247, "Mooie": 8248, "Ġzeep": 8249, "entjes": 8250, "alisering": 8251, "Ġwijs": 8252, "speel": 8253, "Ġpakketten": 8254, "ĠMr": 8255, "Ġvenster": 8256, ",âĢĻ": 8257, "Ġaangeeft": 8258, "pan": 8259, "Ġstaart": 8260, "verslag": 8261, "zaamheid": 8262, "Ġromantische": 8263, "enter": 8264, "porno": 8265, "Ġjonger": 8266, "ito": 8267, "Ġkaartjes": 8268, "leiders": 8269, "ĠPortugal": 8270, "rood": 8271, "ĠWinter": 8272, "ĠOS": 8273, "Ġmonument": 8274, "Ġgeslagen": 8275, "ĠFin": 8276, "Ġhinder": 8277, "Ġlangdurig": 8278, "unde": 8279, "Ġpsychische": 8280, "Ġhuwelijks": 8281, "Ġopvoeding": 8282, "Ġondergaan": 8283, "Ġdecennia": 8284, "ula": 8285, "nie": 8286, "ĠHarry": 8287, "Ġinbouw": 8288, "Ġverzuim": 8289, "ĠDis": 8290, "ĠHad": 8291, "Ġopgelegd": 8292, "Me": 8293, "verh": 8294, "Ġrusten": 8295, "ologen": 8296, "Ġtherm": 8297, "mend": 8298, "BE": 8299, "voordeel": 8300, "Ġ1994": 8301, "nem": 8302, "ĠWeek": 8303, "elementen": 8304, "Ġovertuigen": 8305, "ĠgecreÃ«erd": 8306, "Ġimplementatie": 8307, "uitkering": 8308, "Ġconcreet": 8309, "eken": 8310, "Ġfilosofie": 8311, "Ġgewaardeerd": 8312, "Ġgoeie": 8313, "tekening": 8314, "Ġleerkracht": 8315, "ĠVeiligheid": 8316, "SL": 8317, "Ġped": 8318, "ĠDeventer": 8319, "Ġgespecialiseerde": 8320, "Ġdoorgeven": 8321, "Ġnadelen": 8322, "ĠWh": 8323, "ĠRVS": 8324, "Ġcover": 8325, "Ġnoemde": 8326, "ĠOndertussen": 8327, "Ġmest": 8328, "Ġpublicaties": 8329, "Ġstiekem": 8330, "Ġtoeristische": 8331, "ores": 8332, "ally": 8333, "Ġag": 8334, "Ġgym": 8335, "streek": 8336, "Ġspuiten": 8337, "Ġhouder": 8338, "Ġcol": 8339, "isen": 8340, "Ġverhuis": 8341, "ĠJoden": 8342, "Ġtouch": 8343, "Ġknoflook": 8344, "Ġkou": 8345, "ĠBaby": 8346, "plannen": 8347, "ĠPet": 8348, "Ġmal": 8349, "Ġgeschil": 8350, "Ġgroeide": 8351, "ĠJouw": 8352, "Ġser": 8353, "Online": 8354, "Ġvertel": 8355, "online": 8356, "ĠPrivacy": 8357, "Ġbedanken": 8358, "Ġlust": 8359, "Ġuzelf": 8360, "bev": 8361, "Ġtelefoons": 8362, "oede": 8363, "Ġomslag": 8364, "Ġbadkamers": 8365, "â": 8366, "Ġmaster": 8367, "Ġpower": 8368, "led": 8369, "RC": 8370, "Ġkroon": 8371, "mensen": 8372, "ney": 8373, "Ġvroegere": 8374, "Ġhistorie": 8375, "Ġzesde": 8376, "Ġmailen": 8377, "ĠAmateur": 8378, "Ġgebeld": 8379, "Ġsamenhang": 8380, "ĠOverigens": 8381, "ĠManager": 8382, "Ġchronische": 8383, "Ġbocht": 8384, "Ġgecertificeerd": 8385, "ĠcreÃ«ert": 8386, "Vlaanderen": 8387, "ĸ": 8388, "Ġaanpakken": 8389, "Ġgrondig": 8390, "ĠIemand": 8391, "plezier": 8392, "Un": 8393, "risch": 8394, "vrouwen": 8395, "ĠRij": 8396, "rix": 8397, "Ġhome": 8398, "stromen": 8399, "Ġ140": 8400, "Ġdem": 8401, "Ġluister": 8402, "Ġ07": 8403, "ĠFe": 8404, "Ġinsecten": 8405, "type": 8406, "kijken": 8407, "Ġend": 8408, "ĠTru": 8409, "Hand": 8410, "ĠVerm": 8411, "Ġstemming": 8412, "ĠCasino": 8413, "Ġsexdate": 8414, "capaciteit": 8415, "Ġinvoering": 8416, "Ġlood": 8417, "ĠSite": 8418, "aur": 8419, "Ġintens": 8420, "ĠSj": 8421, "Ġhoning": 8422, "winkels": 8423, "doek": 8424, "Ġverzekerings": 8425, "ĠXL": 8426, "Ġvariatie": 8427, "Ġfil": 8428, "Ġparty": 8429, "ĠMolen": 8430, "Ġrots": 8431, "ĠFab": 8432, "Ġwinkelen": 8433, "Ġbetaalbaar": 8434, "Ġontwikkelings": 8435, "ulde": 8436, "amm": 8437, "rust": 8438, "Ġkalk": 8439, "contract": 8440, "artikel": 8441, "Ġfacebook": 8442, "orden": 8443, "Ġpassagiers": 8444, "graven": 8445, "Ġvriendschap": 8446, "Ġuitkomen": 8447, "Ġaanraking": 8448, "Ġnoem": 8449, "technologie": 8450, "Ġopst": 8451, "ming": 8452, "Uitslag": 8453, "Ġdiameter": 8454, "Ġwh": 8455, "Ġvermogens": 8456, "ml": 8457, "Ġertoe": 8458, "Ġaangetroffen": 8459, "Ġbio": 8460, "Ġfot": 8461, "afstand": 8462, "ĠKon": 8463, "ĠPen": 8464, "richting": 8465, "key": 8466, "Ġniveaus": 8467, "iser": 8468, "bodem": 8469, "Ġblogs": 8470, "Ġreglement": 8471, "Ġprivate": 8472, "Ġschaffen": 8473, "Ġprinter": 8474, "Ġovername": 8475, "Ġgaaf": 8476, "ĠOvereenkomst": 8477, "Ġeiwit": 8478, "Ġaldaar": 8479, "Ġambtenaren": 8480, "Ġingerichte": 8481, "Ġverrassende": 8482, "Ġgene": 8483, "Ġregie": 8484, "ĠNIET": 8485, "uwen": 8486, "Ġgetekend": 8487, "ey": 8488, "Ġdatingsites": 8489, "Ġaankopen": 8490, "Ġbesef": 8491, "Ġsupport": 8492, "nacht": 8493, "Ġfamilies": 8494, "register": 8495, "wind": 8496, "Ġschuim": 8497, "Ġvertrouwd": 8498, "ĠOh": 8499, "Ġgekl": 8500, "Ġafzonderlijke": 8501, "Ġstapel": 8502, "ĠTouch": 8503, "Ġmiddelbare": 8504, "Ġventilatie": 8505, "Ġbetrouwbaarheid": 8506, "ĠSu": 8507, "Ġriep": 8508, "ĠEt": 8509, "Ġmededeling": 8510, "ny": 8511, "sels": 8512, "Ġgewezen": 8513, "Ġoverl": 8514, "esse": 8515, "Ġinnerlijke": 8516, "II": 8517, "Ġticket": 8518, "hart": 8519, "Ondanks": 8520, "ĠNederlander": 8521, "TO": 8522, "oma": 8523, "ĠBu": 8524, "aming": 8525, "Ġversl": 8526, "ĠTor": 8527, "Ġschrijvers": 8528, "Ġmoslims": 8529, "ĠzÃ³": 8530, "krachten": 8531, "atis": 8532, "ĠLaten": 8533, "Ġseries": 8534, "ĠGem": 8535, "dien": 8536, "Ġbetrekken": 8537, "Ġomgezet": 8538, "Ġstadje": 8539, "Ġcomponenten": 8540, "ĠMij": 8541, "Ġdijk": 8542, "Cl": 8543, "Ġgeroepen": 8544, "ĠAlex": 8545, "Ġsperma": 8546, "Ġ''": 8547, "Ġhulpmiddelen": 8548, "Ġinzage": 8549, "been": 8550, "work": 8551, "bedden": 8552, "Ġreserve": 8553, "ves": 8554, "IR": 8555, "Ġmobiliteit": 8556, "Ġuitbreiden": 8557, "ĠProduct": 8558, "Ġbehulpzaam": 8559, "oeien": 8560, "ict": 8561, "ĠPal": 8562, "Ġreligie": 8563, "Ġschakel": 8564, "Ġtoegelaten": 8565, "Ġmineralen": 8566, "nel": 8567, "Ġpoeder": 8568, "Ġwissel": 8569, "cijfers": 8570, "schrijven": 8571, "Ġhersteld": 8572, "Ġ1990": 8573, "Vol": 8574, "grote": 8575, "Ġgeduld": 8576, "Ġeindigde": 8577, "Ġchatten": 8578, "Ġvr": 8579, "iete": 8580, "Ġkraam": 8581, "Ġfunctionele": 8582, "ĠSC": 8583, "Ġprofessional": 8584, "Ġ130": 8585, "Ġfotograferen": 8586, "las": 8587, "Ġkleinste": 8588, "own": 8589, "wen": 8590, "Ġzake": 8591, "aagde": 8592, "Ġkre": 8593, "lingen": 8594, "ĠVergelijk": 8595, "Ġram": 8596, "Ġcontrol": 8597, "lampen": 8598, "Ġdocumentaire": 8599, "Ġmeneer": 8600, "Ġpapa": 8601, "Ġsignalen": 8602, "Ġ).": 8603, "Ġonduidelijk": 8604, "CHT": 8605, "Ġverdeling": 8606, "Ġafgenomen": 8607, "Ġuitgesloten": 8608, "Ġcirkel": 8609, "vriendelijke": 8610, "Ġvertegenwoordigd": 8611, "Ġcase": 8612, "Tra": 8613, "Ġ57": 8614, "Ġspre": 8615, "ĠCheck": 8616, "Ġ58": 8617, "kabel": 8618, "ĠVak": 8619, "Ġvertraging": 8620, "ĠShop": 8621, "gent": 8622, "Ġgelooft": 8623, "Ġsollicitatie": 8624, "ĠJames": 8625, "Ġpaal": 8626, "uist": 8627, "Ġnul": 8628, "mannen": 8629, "Ġrealisatie": 8630, "jan": 8631, "ĠBall": 8632, "Ġhitte": 8633, "Ġtint": 8634, "ĠRichard": 8635, "ower": 8636, "Ġaft": 8637, "duizend": 8638, "Ġeng": 8639, "tem": 8640, "ĠAk": 8641, "reerd": 8642, "ĠZal": 8643, "Zie": 8644, "Ġvolkomen": 8645, "uten": 8646, "ĠTheater": 8647, "schen": 8648, "ichting": 8649, "ĠSyn": 8650, "oorden": 8651, "Ġsms": 8652, "cer": 8653, "Kom": 8654, "Ġklassen": 8655, "Alles": 8656, "ĠHeilige": 8657, "Ġverbindingen": 8658, "ales": 8659, "Ġgerechtigd": 8660, "Ġscala": 8661, "Ġsteekt": 8662, "ĠWijk": 8663, "Ġcondoom": 8664, "Ġsmart": 8665, "ÑĮ": 8666, "Ġbevalling": 8667, "orst": 8668, "Ġzelfvertrouwen": 8669, "Ġseconde": 8670, "zit": 8671, "Ġbenaderen": 8672, "Ġaanleggen": 8673, "itu": 8674, "Ġaangaan": 8675, "Ġnagels": 8676, "Oh": 8677, "Ġpreventie": 8678, "Ġfood": 8679, "Ġexperiment": 8680, "Ġanderhalf": 8681, "Ġmast": 8682, "Ġdurf": 8683, "Ġalternatieven": 8684, "Ġdeskundigen": 8685, "Ġweergave": 8686, "Ġhoer": 8687, "2012": 8688, "Ġstijlvol": 8689, "begeleiding": 8690, "ĠBelg": 8691, "collectie": 8692, "ĠLouis": 8693, "Vanuit": 8694, "ĠHBO": 8695, "ĠSocial": 8696, "Ġgeneraties": 8697, "Ġshoppen": 8698, "Ġgeluiden": 8699, "Ġverdediging": 8700, "Ġgraad": 8701, "Ġomstreeks": 8702, "Ġsluiting": 8703, "pand": 8704, "DA": 8705, "ĠessentiÃ«le": 8706, "ĠMini": 8707, "raden": 8708, "ĠBMW": 8709, "aver": 8710, "gelopen": 8711, "oplossingen": 8712, "stro": 8713, "West": 8714, "inus": 8715, "Ġ04": 8716, "isse": 8717, "Ġmeerwaarde": 8718, "Ġbewonderen": 8719, "ĠHopelijk": 8720, "teken": 8721, "Ġschapen": 8722, "Ġkortingen": 8723, "Ġkritische": 8724, "atisch": 8725, "Ġpoten": 8726, "SE": 8727, "less": 8728, "Ġ360": 8729, "idd": 8730, "!.": 8731, "Ġnodigen": 8732, "uilen": 8733, "Ġsolo": 8734, "ĠMilieu": 8735, "Ġgetal": 8736, "Ġwerkplaats": 8737, "Ġdaten": 8738, "Ġonderste": 8739, "Ġgelet": 8740, "Ġelektrisch": 8741, "ggen": 8742, "Ġtrouwen": 8743, "Ġgebruikelijk": 8744, "ĠcrÃ¨me": 8745, "aya": 8746, "Ġwoordvoerder": 8747, "Ġbeleggings": 8748, "mot": 8749, "ĠRoo": 8750, "essie": 8751, "ĠRomeinse": 8752, "BB": 8753, "Ġontvanger": 8754, "ĠIt": 8755, "Ġaanvankelijk": 8756, "dro": 8757, "Ġaanraden": 8758, "kleuren": 8759, "Ġcongres": 8760, "ĠAV": 8761, "aud": 8762, "rijs": 8763, "Ġdynamische": 8764, "Ġverzorgde": 8765, "Ġdiabetes": 8766, "Ġimport": 8767, "Ġgemeen": 8768, "Ġargument": 8769, "Ġwerkende": 8770, "Ġdro": 8771, "Ġruimtelijke": 8772, "ĠMogelijk": 8773, "Ġrondje": 8774, "ĠSchoon": 8775, "maakt": 8776, "Ġachteruit": 8777, "ĠVerk": 8778, "Ġafst": 8779, "Ġmaandelijks": 8780, "iche": 8781, "Ġuitgeb": 8782, "Ġeene": 8783, "ĠDate": 8784, "Ġgeneesmiddelen": 8785, "Ġfiguren": 8786, "Ġspits": 8787, "itel": 8788, "Ġhaken": 8789, "Ġglans": 8790, "Ġvrees": 8791, "Ġkasten": 8792, "Ġcontracten": 8793, "ĠIm": 8794, "ĠWeg": 8795, "Ġtoegenomen": 8796, "Ġvoorziening": 8797, "ĠbacteriÃ«n": 8798, "Ġ72": 8799, "profiel": 8800, "ĠHilversum": 8801, "risico": 8802, "Ġlading": 8803, "px": 8804, "want": 8805, "Ġins": 8806, "Ġgevierd": 8807, "Ġij": 8808, "studie": 8809, "leen": 8810, "ĠDienst": 8811, "lijsten": 8812, "ĠON": 8813, "ĠDuitsers": 8814, "Ġebony": 8815, "gehalte": 8816, "Ġochtends": 8817, "Ġgemotiveerd": 8818, "Ġplots": 8819, "Ġzuigen": 8820, "nemers": 8821, "dra": 8822, "Ġverschilt": 8823, "EU": 8824, "Ġverhoogde": 8825, "Ġfonds": 8826, "reekt": 8827, "Ġraak": 8828, "Ġtyp": 8829, "ĠHoorn": 8830, "ĠHot": 8831, "Ġdeksel": 8832, "Ġslap": 8833, "Ġmilie": 8834, "Ġinvoeren": 8835, "Ġschuldig": 8836, "Ġalvorens": 8837, "spanning": 8838, "Ġplak": 8839, "Ġstempel": 8840, "Ġroom": 8841, "ĠKamp": 8842, "Ġkal": 8843, "Ġstrenge": 8844, "Ã©s": 8845, "eet": 8846, "Ġhoogleraar": 8847, "ĠBur": 8848, "stem": 8849, "Ġeenvoudiger": 8850, "iam": 8851, "vlucht": 8852, "Â©": 8853, "Ġlate": 8854, "ĠHebben": 8855, "ĠNiemand": 8856, "Ġrondleiding": 8857, "bol": 8858, "Ġheleboel": 8859, "echt": 8860, "terrein": 8861, "ments": 8862, "Ġbiologisch": 8863, "Ġnette": 8864, "Ġ700": 8865, "ĠbeÃ¯nvloed": 8866, "Ġafvoer": 8867, "buiten": 8868, "ĠKru": 8869, "ness": 8870, "Ü": 8871, "GA": 8872, "Ġpanelen": 8873, "Ġactueel": 8874, "Ġfirma": 8875, "data": 8876, "300": 8877, "Ġamsterdam": 8878, "spelers": 8879, "ĠDaarin": 8880, "elijks": 8881, "ĠLife": 8882, "izen": 8883, "Ġgedrukt": 8884, "oepen": 8885, "adviseur": 8886, "Ġsteeg": 8887, "Ġkoff": 8888, "ld": 8889, "slid": 8890, "partner": 8891, "Ġinrichten": 8892, "ĠRa": 8893, "ĠBenelux": 8894, "ĠHoeveel": 8895, "opdracht": 8896, "IO": 8897, "ĠWaarschijnlijk": 8898, "Ðº": 8899, "zoeken": 8900, "raam": 8901, "bere": 8902, "Ġimp": 8903, "matische": 8904, "Ġsloeg": 8905, "ĠZon": 8906, "Ġplaneet": 8907, "uurde": 8908, "ĠState": 8909, "Ġjan": 8910, "ype": 8911, "itief": 8912, "Ġcor": 8913, "Ġstijlen": 8914, "Ġverderop": 8915, "nest": 8916, "Ġpresent": 8917, "Ġpresenteert": 8918, "Ġsalade": 8919, "Ġstrategische": 8920, "ĠPink": 8921, "kwam": 8922, "Ġbewerkt": 8923, "Ġgewassen": 8924, "Ġkunstwerk": 8925, "Ġorgel": 8926, "ika": 8927, "Ġopgeven": 8928, "VD": 8929, "ĠÎ": 8930, "Ġberoepen": 8931, "Ġfraude": 8932, "Ġportret": 8933, "Ġservices": 8934, "Ġdebuut": 8935, "Ġadviseert": 8936, "wol": 8937, "Ġstabiliteit": 8938, "Ġvandaar": 8939, "Zuid": 8940, "Ġweigeren": 8941, "Ġdraadloze": 8942, "verg": 8943, "ides": 8944, "Ġ125": 8945, "Ġslotte": 8946, "geval": 8947, "ĠCan": 8948, "Ġtransparant": 8949, "adel": 8950, "voorzieningen": 8951, "Ġmagazine": 8952, "Ġleerde": 8953, "Ġplank": 8954, "Ġbroers": 8955, "Ġschatten": 8956, "Ġ1992": 8957, "Amerika": 8958, "gemaakte": 8959, "ĠIC": 8960, "ĠDay": 8961, "Ter": 8962, "reerde": 8963, "ĠMarcel": 8964, "Ġgestolen": 8965, "Ġleiders": 8966, "arium": 8967, "ĠSer": 8968, "EV": 8969, "ĠMercedes": 8970, "Ġ66": 8971, "Ġ--": 8972, "ĠVanwege": 8973, "Ġhyp": 8974, "Ġdrogen": 8975, "ns": 8976, "Ġopenings": 8977, "Ġschoonmaken": 8978, "Ġeiwitten": 8979, "Ġfeitelijk": 8980, "ĠWonen": 8981, "ĠWellicht": 8982, "Ġgener": 8983, "ĠUp": 8984, "Ġijzer": 8985, "Super": 8986, "wa": 8987, "Ġkenteken": 8988, "view": 8989, "Ġstimuleert": 8990, "iler": 8991, "uigen": 8992, "Ġplaatsje": 8993, "Ġhaat": 8994, "aalt": 8995, "modellen": 8996, "Ġbehang": 8997, "Ġfractie": 8998, "ones": 8999, "Ġbetrokkene": 9000, "Ġjuridisch": 9001, "Ġgevecht": 9002, "pa": 9003, "Ġsoldaten": 9004, "Ġjegens": 9005, "Ġpaspoort": 9006, "Ġfolder": 9007, "Ġkoppeling": 9008, "isolatie": 9009, "aliteiten": 9010, "staal": 9011, "ido": 9012, "Ġflessen": 9013, "Ġdivers": 9014, "ĠChe": 9015, "riet": 9016, "liefhebbers": 9017, "BR": 9018, "Ġelkaars": 9019, "wijs": 9020, "Ġsamenstellen": 9021, "Ġschijn": 9022, "Nieuw": 9023, "mal": 9024, "abl": 9025, "Ġarrest": 9026, "ping": 9027, "Ġautoriteiten": 9028, "ĠgeÃ¯nformeerd": 9029, "Ġgereed": 9030, "Ġvechten": 9031, "Ġopende": 9032, "Ġaanmaken": 9033, "Ġvernieuwde": 9034, "Ġkenbaar": 9035, "Ġdoc": 9036, "ibr": 9037, "ĠGPS": 9038, "Ġzonnetje": 9039, "ĠBelgisch": 9040, "Ġcircuit": 9041, "Ġverhoging": 9042, "oemd": 9043, "Ġboog": 9044, "Ġfenomeen": 9045, "ĠAziatische": 9046, "ils": 9047, "medewerker": 9048, "stelde": 9049, "Ġbrochure": 9050, "Ġmult": 9051, "Ġtrainers": 9052, "ĠMarketing": 9053, "Ġbatterijen": 9054, "Ġblind": 9055, "onderdelen": 9056, "Ġkalender": 9057, "Dankzij": 9058, "Ġverlagen": 9059, "IF": 9060, "tv": 9061, "ĠSimon": 9062, "Ġnew": 9063, "heffing": 9064, "meisje": 9065, "Ġbespaart": 9066, "Ġeindeloos": 9067, "oda": 9068, "ĠPlan": 9069, "Ġaanstaande": 9070, "verse": 9071, "Ġexpositie": 9072, "Ġbovenkant": 9073, "alist": 9074, "beveiliging": 9075, "Ġuitmaken": 9076, "Ġuitst": 9077, "idingen": 9078, "ragen": 9079, "Ġgevaren": 9080, "Ġuitgereikt": 9081, "Ġhoogwaardig": 9082, "Ġonbeperkt": 9083, "Ġ69": 9084, "Ġthans": 9085, "Ġvreugde": 9086, "Ġhuishoudens": 9087, "Ġverbindt": 9088, "ĠBB": 9089, "ĠBakker": 9090, "Ġ350": 9091, "HO": 9092, "Ġcorrecte": 9093, "Ġbetalingen": 9094, "Ġverweerder": 9095, "Ġservers": 9096, "gebracht": 9097, "ĠAnd": 9098, "Ġtachtig": 9099, "Ġcreditcard": 9100, "ĠAutom": 9101, "ĠOV": 9102, "instituut": 9103, "Ġvervullen": 9104, "laten": 9105, "Ġgesneden": 9106, "Ġverdiend": 9107, "Ġairco": 9108, "ries": 9109, "Ġvuurwerk": 9110, "wiss": 9111, "ĠWerken": 9112, "Ġfabrikanten": 9113, "Ġbeoordelingen": 9114, "Ġcompact": 9115, "$": 9116, "Ġrolstoel": 9117, "Ġprovincies": 9118, "ĠiOS": 9119, "belen": 9120, "ĠCast": 9121, "Ġlukte": 9122, "Ġindrukwekkend": 9123, "Ġverwennen": 9124, "gat": 9125, "Ġstoer": 9126, "uma": 9127, "Ġcaravan": 9128, "ĠMorgen": 9129, "ĠOM": 9130, "inders": 9131, "......": 9132, "Ġvorderingen": 9133, "Ġkostuum": 9134, "Ġstartte": 9135, "Ġmerkte": 9136, "Ġuitgeschakeld": 9137, "cont": 9138, "Ġus": 9139, "zz": 9140, "regio": 9141, "fietsen": 9142, "Ġuitsp": 9143, "Ġervaart": 9144, "\",\"": 9145, "Ġverbod": 9146, "achte": 9147, "derij": 9148, "Ġgeweten": 9149, "Ġaangevraagd": 9150, "Ġenerzijds": 9151, "ieuze": 9152, "Ġpotje": 9153, "ĠAN": 9154, "ĠBand": 9155, "Ġonvergetelijke": 9156, "ights": 9157, "Ġjeans": 9158, "Ġinstanties": 9159, "schoon": 9160, "½": 9161, "boekje": 9162, "Ġâ": 9163, "hes": 9164, "start": 9165, "ĠCup": 9166, "Ġregisseur": 9167, "Ġvaar": 9168, "Ġpoesje": 9169, "Ġvooruitgang": 9170, "ĠNov": 9171, "ĠEric": 9172, "werkt": 9173, "Ġverhuizing": 9174, "ĠData": 9175, "ĠLove": 9176, "Ġatelier": 9177, "Ġkabels": 9178, "Ġchef": 9179, "Ġoverstap": 9180, "Ġvorming": 9181, "Ġraads": 9182, "controle": 9183, "Ġpersoneels": 9184, "ners": 9185, "rassen": 9186, "Ġklagen": 9187, "ading": 9188, "Ġproduceert": 9189, "materialen": 9190, "Ġreferentie": 9191, "Ġwesterse": 9192, "Ġverbouwing": 9193, "wal": 9194, "aagt": 9195, "snelheid": 9196, "Ġgeselecteerde": 9197, "ĠDer": 9198, "ĠVolg": 9199, "Ġgestegen": 9200, "abele": 9201, "Ġelegante": 9202, "utter": 9203, "ĠAct": 9204, "Ġende": 9205, "Ġoverst": 9206, "ĠAmb": 9207, "ÑģÑĤ": 9208, "Mooi": 9209, "eil": 9210, "Ġolijfolie": 9211, "Ġinbraak": 9212, "ĠAirport": 9213, "Ġgeslaagde": 9214, "ĠMay": 9215, "âĢŀ": 9216, "Ġcollectieve": 9217, "blauw": 9218, "Ġconcerten": 9219, "Ġjournalist": 9220, "Ġuitoefenen": 9221, "ives": 9222, "Ġexacte": 9223, "Ġstrijk": 9224, "Ġhoogst": 9225, "Ġdoorlopen": 9226, "Ġfrequentie": 9227, "Ġtempel": 9228, "Ġdosis": 9229, "Ġakte": 9230, "ĠHoek": 9231, "Ġbillen": 9232, "Ġsla": 9233, "Ġafwijking": 9234, "eigen": 9235, "IB": 9236, "Ġgedetailleerde": 9237, "ĠGi": 9238, "Ġgeserveerd": 9239, "gingen": 9240, "Ġzeilen": 9241, "design": 9242, "Ġschuiven": 9243, "Ġstreng": 9244, "Ġaantallen": 9245, "ĠVoordat": 9246, "Ġtrack": 9247, "Ġspec": 9248, "ĠBeheer": 9249, "afval": 9250, "werp": 9251, "Ġ59": 9252, "Ġherhaling": 9253, "erman": 9254, "Ġmakelaar": 9255, "Ġopeningstijden": 9256, "oeid": 9257, "hierna": 9258, "Ġattracties": 9259, "ienst": 9260, "Ġcontinue": 9261, "ĠHan": 9262, "Ġhandmatig": 9263, "Ġtumblr": 9264, "Ġvermoedelijk": 9265, "ĠSEO": 9266, "Ãł": 9267, "Ġrisic": 9268, "ĠBus": 9269, "ĠAP": 9270, "ĠGaat": 9271, "ormen": 9272, "Ġuitgegroeid": 9273, "stelt": 9274, "Ġopsch": 9275, "ĠUniversity": 9276, "Ġmedewerking": 9277, "ĠMeisjes": 9278, "Ġvielen": 9279, "Ġtraditioneel": 9280, "Ġbescherm": 9281, "voudig": 9282, "Ġ62": 9283, "Ġbreiden": 9284, "ĠNij": 9285, "Ġaanspraak": 9286, "aanvraag": 9287, "Ġdecor": 9288, "Hoi": 9289, "Ġbrein": 9290, "gewoon": 9291, "Ġheil": 9292, "Ġneu": 9293, "RI": 9294, "Ġdaling": 9295, "instelling": 9296, "ĠVR": 9297, "Ġvakanties": 9298, "ĠAfrikaanse": 9299, "Ġglasvezel": 9300, "ues": 9301, "Ġafgeleid": 9302, "gebouwen": 9303, "Ġvi": 9304, "ĠFort": 9305, "ĠSteeds": 9306, "dert": 9307, "Ġ160": 9308, "Ġvernieuwing": 9309, "Ġtof": 9310, "Ġarchitecten": 9311, "rijders": 9312, "ila": 9313, "Ġeis": 9314, "ĠJoodse": 9315, "ĠRoyal": 9316, "Ġgevarieerd": 9317, "spre": 9318, "Ġrouw": 9319, "Ġbioscoop": 9320, "Ġbevindingen": 9321, "Ġverbeteringen": 9322, "ĠAward": 9323, "Ġwiens": 9324, "Ġcontainer": 9325, "Ġmuzikanten": 9326, "Ġdepressie": 9327, "Ġverzocht": 9328, "oli": 9329, "ĠSpelen": 9330, "RT": 9331, "ĠHouten": 9332, "ĠThailand": 9333, "Ġplatte": 9334, "Ġlekkerste": 9335, "Ġsurf": 9336, "Ġuitwerking": 9337, "Ġknoppen": 9338, "Ġhardcore": 9339, "Ġaanvaard": 9340, "sterren": 9341, "Ġdiezelfde": 9342, "ĠOK": 9343, "oplossing": 9344, "ĠChris": 9345, "Ġaandoeningen": 9346, "Ġvakkundig": 9347, "ĠTem": 9348, "Ġgolven": 9349, "ĠBeek": 9350, "ĠRef": 9351, "verbinding": 9352, "dis": 9353, "Ġelektro": 9354, "Ġhectare": 9355, "Ġaccent": 9356, "Ġhor": 9357, "upp": 9358, "Ġspectaculaire": 9359, "âĢ": 9360, "riel": 9361, "ĠMult": 9362, "Ġinspanningen": 9363, "list": 9364, "Ġklank": 9365, "Kan": 9366, "raagt": 9367, "Ġbewaar": 9368, "Ġsec": 9369, "ĠefficiÃ«nte": 9370, "ĠAF": 9371, "raken": 9372, "ĠMod": 9373, "Ġprimaire": 9374, "Ġontdekte": 9375, "Ġtele": 9376, "Ġspontaan": 9377, "li": 9378, "ĠWhite": 9379, "ĠBox": 9380, "verlening": 9381, "Ġbesturen": 9382, "Ġorgasme": 9383, "Ġvermelde": 9384, "Ġvolt": 9385, "bv": 9386, "ĠFred": 9387, "Ġuitzien": 9388, "Ġmaandelijkse": 9389, "Ġkas": 9390, "Ġgeleidelijk": 9391, "Ġhoeren": 9392, "Ġdikte": 9393, "beg": 9394, "vergoeding": 9395, "Men": 9396, "Ġbenzine": 9397, "ĠSant": 9398, "Ġplatteland": 9399, "ĠNU": 9400, "Ġcompl": 9401, "vogels": 9402, "menten": 9403, "Ġvirus": 9404, "trek": 9405, "klaar": 9406, "Ġvervelende": 9407, "index": 9408, "Ġmeters": 9409, "Ġbijkomende": 9410, "via": 9411, "ĠFlex": 9412, "ĠLie": 9413, "Ġbehuizing": 9414, "Ġstaatssecretaris": 9415, "ĠgeÃ¯ntegreerd": 9416, "Ġsparen": 9417, "Ġberichtje": 9418, "azen": 9419, "Ġ67": 9420, "Ġol": 9421, "ĠFonds": 9422, "ĠHallo": 9423, "ĠDak": 9424, "Ġseizoenen": 9425, "Ġzinnen": 9426, "kussen": 9427, "Ġnota": 9428, "varen": 9429, "toe": 9430, "hond": 9431, "Zeer": 9432, "ta": 9433, "Ġlichten": 9434, "betaling": 9435, "Ġsnelweg": 9436, "Ġdeken": 9437, "Ġvlaggen": 9438, "ĠPre": 9439, "ĠBR": 9440, "Ġvirtuele": 9441, "Ġterugkeer": 9442, "ĠAfdeling": 9443, "ĠgeÃ¯ntegreerde": 9444, "ĠWolf": 9445, "Ġgaar": 9446, "immer": 9447, "ĠArabische": 9448, "Ġvaatwasser": 9449, "Ġtoegewezen": 9450, "Ġstaten": 9451, "Ġhoeken": 9452, "Ġtu": 9453, "Ġadviseurs": 9454, "Ġsprong": 9455, "Ġharmonie": 9456, "gebruikers": 9457, "bronnen": 9458, "ville": 9459, "ĠVerenigd": 9460, "ards": 9461, "Daarom": 9462, "Ġcat": 9463, "ukt": 9464, "Ġstudeerde": 9465, "Ġsloop": 9466, "ĠColle": 9467, "ĠKun": 9468, "Ġafzonderlijk": 9469, "iki": 9470, "Ġscheelt": 9471, "verbruik": 9472, "Ġultra": 9473, "Ġere": 9474, "ĠMore": 9475, "ĠArm": 9476, "Ġlek": 9477, "ĠGouden": 9478, "ĠEgypte": 9479, "hang": 9480, "ĠÂ°": 9481, "Ġexport": 9482, "ĠEerder": 9483, "Ġbelanghebbende": 9484, "Ġgroepje": 9485, "ĠInst": 9486, "SV": 9487, "parken": 9488, "ely": 9489, "deuren": 9490, "ĠLeuke": 9491, "ooien": 9492, "belang": 9493, "Ġstort": 9494, "ĠDo": 9495, "Ġuitgever": 9496, "bels": 9497, "ĠSM": 9498, "CD": 9499, "ĠMusic": 9500, "Ġ1993": 9501, "ĠCa": 9502, "Leuk": 9503, "Ġhoofdrol": 9504, "binnen": 9505, "Ġ68": 9506, "Ġmoois": 9507, "Ġbijwerkingen": 9508, "ĠWall": 9509, "ĠRTL": 9510, "Uiteraard": 9511, "Ġuitdagende": 9512, "Ġsat": 9513, "Ġoverwegen": 9514, "Ġgeheime": 9515, ".''": 9516, "ĠMail": 9517, "Ġafdelingen": 9518, "Ġuitv": 9519, "steden": 9520, "Ġopzicht": 9521, "ĠEg": 9522, "Ġaftrek": 9523, "âĢ¦..": 9524, "Ġverhuurder": 9525, "stig": 9526, "Ġlastige": 9527, "Ġuitstek": 9528, "Ġnuttige": 9529, "cho": 9530, "Ġgrafische": 9531, "Ġparcours": 9532, "Ġseksueel": 9533, "Ġtoeval": 9534, "bat": 9535, "Europa": 9536, "Ġverdiepen": 9537, "Ġzeventig": 9538, "Ġtechn": 9539, "bele": 9540, "balk": 9541, "ĠGeorge": 9542, "Ġreageerde": 9543, "Ġparfum": 9544, "ĠHogeschool": 9545, "Ġaud": 9546, "Ġgedoe": 9547, "Ġrobot": 9548, "Ġfietsers": 9549, "tel": 9550, "Ġkwetsbaar": 9551, "Ġdesktop": 9552, "rien": 9553, "onds": 9554, "Ġmengsel": 9555, "Ġdode": 9556, "ĠGB": 9557, "ĠMichel": 9558, "Ġverpleeg": 9559, "Ġ;)": 9560, "ĠFood": 9561, "geest": 9562, "Ġgerichte": 9563, "ĠHierna": 9564, "Ġzogeheten": 9565, "dent": 9566, "Ġbleken": 9567, "bureaus": 9568, "verhuur": 9569, "ĠComm": 9570, "Ġmensheid": 9571, "Ġbloeddruk": 9572, "ĠPRO": 9573, "Ġverordening": 9574, "Ġritme": 9575, "ĠFeyenoord": 9576, "OK": 9577, "Ġcross": 9578, "osten": 9579, "Ġlikken": 9580, "ĠMerk": 9581, "Ġavonden": 9582, "Ġneuk": 9583, "ĠID": 9584, "Gisteren": 9585, "Ġpermanente": 9586, "ĠSD": 9587, "Ġdrankjes": 9588, "Ġzijden": 9589, "ĠBak": 9590, "ĠUV": 9591, "Ġkok": 9592, "ĠAfgelopen": 9593, "ijken": 9594, "Ġkorter": 9595, "Ġkoste": 9596, "patroon": 9597, "ĠGold": 9598, "even": 9599, "po": 9600, "Ġmem": 9601, "Ġpal": 9602, "Ġautom": 9603, "lopende": 9604, "Ġongewenste": 9605, "Ġhapje": 9606, "ĠRuim": 9607, "voetbal": 9608, "Ġhyper": 9609, "Ġbouwt": 9610, "TP": 9611, "Zaterdag": 9612, "unst": 9613, "Ġgenezen": 9614, "Ġgunstige": 9615, "ĠTri": 9616, "Ġlooptijd": 9617, "Ġbijen": 9618, "ĠhÃ©t": 9619, "Ġkrachtens": 9620, "Ġlidstaten": 9621, "Ġschok": 9622, "itz": 9623, "ĠStore": 9624, "Ġbussen": 9625, "ames": 9626, "ump": 9627, "zinnig": 9628, "uiden": 9629, "Ġfacturen": 9630, "Ġhappy": 9631, "Ġdeskundig": 9632, "Ġterugvinden": 9633, "Den": 9634, "otten": 9635, "Ġdachten": 9636, "dieren": 9637, "Ġfilters": 9638, "kijk": 9639, "Ġclass": 9640, "ĠJullie": 9641, "ident": 9642, "Ġbedrukken": 9643, "ĠGE": 9644, "maatregelen": 9645, "Ġrelease": 9646, "ior": 9647, "Ġdown": 9648, "ĠKosten": 9649, "ows": 9650, "cc": 9651, "Ġhippe": 9652, "Ġverdedig": 9653, "ĠInc": 9654, "rijf": 9655, "Ġhandicap": 9656, "aansluiting": 9657, "ĠMiss": 9658, "Ġvoorbije": 9659, "Ġoorlogs": 9660, "lag": 9661, "Ġprovider": 9662, "Ġspeelden": 9663, "Ġbenutten": 9664, "Ð²": 9665, "Ġstadion": 9666, "Ġdraa": 9667, "Ġvoegt": 9668, "persoons": 9669, "kort": 9670, "houten": 9671, "Ġblz": 9672, "ĠTaal": 9673, "Ġapotheek": 9674, "Ġdildo": 9675, "ĠRabobank": 9676, "uster": 9677, "acks": 9678, "Ãº": 9679, "oge": 9680, "cur": 9681, "Ġdraaide": 9682, "Ġvissers": 9683, "Ġ\\": 9684, "Ġzachtjes": 9685, "boer": 9686, "%,": 9687, "videos": 9688, "max": 9689, "Ġnetto": 9690, "Ġbrachten": 9691, "Gelukkig": 9692, "ĠPrive": 9693, "ror": 9694, "mag": 9695, "Ġbevoegdheid": 9696, "deling": 9697, "Ġsoortgelijke": 9698, "Ġgecon": 9699, "ĠItaliaans": 9700, "onken": 9701, "ĠBreng": 9702, "Ġdiesel": 9703, "Ġhave": 9704, "ĠMomenteel": 9705, "Ġvult": 9706, "verdeling": 9707, "Ġsanitair": 9708, "ĠPers": 9709, "Ġrugzak": 9710, "ĠAziÃ«": 9711, "Ġhardlopen": 9712, "Ġlingerie": 9713, "Ġruil": 9714, "Ġarmband": 9715, "aliseerd": 9716, "Ġball": 9717, "Bet": 9718, "ĠZondag": 9719, ".).": 9720, "Ġaccommodaties": 9721, "Ġbroodjes": 9722, "klimaat": 9723, "ĠHaagse": 9724, "ĠWebcam": 9725, "spro": 9726, "gegeven": 9727, "Ġtevredenheid": 9728, "Ġstelsel": 9729, "Ġ63": 9730, "ota": 9731, "Ġmil": 9732, ",-.": 9733, "gy": 9734, "Ġbijgewerkt": 9735, "Ġschuif": 9736, "Ġachtertuin": 9737, "standaard": 9738, "Ġechtgenoot": 9739, "Ġspraak": 9740, "Ġtoet": 9741, "Ġmailtje": 9742, "Ġdvd": 9743, "Ġonzin": 9744, "ĠSteen": 9745, "Ġhek": 9746, "okjes": 9747, "Ġdam": 9748, "ĠTheo": 9749, "ĠMoeder": 9750, "à": 9751, "gie": 9752, "col": 9753, "Ġtab": 9754, "Ġvoorgeschreven": 9755, "Ġschadelijke": 9756, "eler": 9757, "raan": 9758, "verenigingen": 9759, "mode": 9760, "borden": 9761, "Ġlip": 9762, "ĠBedrijf": 9763, "Ġbestelde": 9764, "Ã©t": 9765, "Ġargumenten": 9766, "Ġinstructie": 9767, "blauwe": 9768, "Ġbestemmingen": 9769, "waarts": 9770, "Ġonth": 9771, "Ġverplaatst": 9772, "Ġopgeleid": 9773, "ĠThaise": 9774, "Ġafsluit": 9775, "Ġmonster": 9776, "ĠKlaas": 9777, "Ġlim": 9778, "Ġorkest": 9779, "ĠStreet": 9780, "idings": 9781, "Ġomlaag": 9782, "Ġverdedigen": 9783, "Ġveranderde": 9784, "Ġmassaal": 9785, "ĠBy": 9786, "ĠSyriÃ«": 9787, "ĠHor": 9788, "gevende": 9789, "Ġaangeduid": 9790, "Ġkring": 9791, "Ġvertonen": 9792, "ĠSpaans": 9793, "ĠStation": 9794, "ijkt": 9795, "strategie": 9796, "ĠRad": 9797, "Ġkeurmerk": 9798, "Ġklimmen": 9799, "Ġovertuiging": 9800, "ĠVijf": 9801, "Ġevolutie": 9802, "molen": 9803, "Ġline": 9804, "Ġrennen": 9805, "ĠHuur": 9806, "rijzen": 9807, "lief": 9808, "bestrijding": 9809, "levering": 9810, "IJK": 9811, "ĠVergeet": 9812, "vering": 9813, "ĠVilla": 9814, "Ġdre": 9815, "Ġbit": 9816, "Ġbelt": 9817, "ĠVeld": 9818, "OW": 9819, "Ġknuffel": 9820, "Ġwolken": 9821, "Ġonverwachte": 9822, "branche": 9823, "Ġjarig": 9824, "Ġarbeiders": 9825, "ĠSa": 9826, "Ġtijds": 9827, "ĠRestaurant": 9828, "Ġhalverwege": 9829, "ĠAL": 9830, "fect": 9831, "ĠVerh": 9832, "Ġtussendoor": 9833, "iÃ«ren": 9834, "Ġkoningin": 9835, "Ġui": 9836, "Ġstraal": 9837, "Ġuitdrukking": 9838, "Ñĭ": 9839, "ĠDol": 9840, "probleem": 9841, "Ġairconditioning": 9842, "aast": 9843, "Ġtandarts": 9844, "aders": 9845, "Ġreputatie": 9846, "Alleen": 9847, "ori": 9848, "Ġuitvoeringen": 9849, "houdende": 9850, "ĠSoort": 9851, "spot": 9852, "Ġoogst": 9853, "administratie": 9854, "urf": 9855, "Ġschilders": 9856, "ografische": 9857, "Ġonmisbaar": 9858, "Ã´": 9859, "ĠBou": 9860, "ĠMi": 9861, "Ġpermanent": 9862, "Ġomliggende": 9863, "ĠRu": 9864, "2011": 9865, "Ġsokken": 9866, "Ġsmartphones": 9867, "Ġdruiven": 9868, "Ġbevoegde": 9869, "PA": 9870, "Sc": 9871, "ĠPolitie": 9872, "zinnige": 9873, "buis": 9874, "rans": 9875, "Ġcoalitie": 9876, "ĠServices": 9877, "Ġwerkgroep": 9878, "Ġaccountant": 9879, "kleed": 9880, "dige": 9881, "Ġsuggesties": 9882, "oris": 9883, "Ġrozen": 9884, "meel": 9885, "Ġtoeslag": 9886, "Ġhuishouden": 9887, "meisjes": 9888, "ĠEmmen": 9889, "ĠAllemaal": 9890, "ĠGay": 9891, "ĠBraziliÃ«": 9892, "lig": 9893, "Ġroll": 9894, "ĠTre": 9895, "Ġep": 9896, "kinderen": 9897, "aux": 9898, "ĠZaterdag": 9899, "aaltjes": 9900, "ĠBat": 9901, "Ġban": 9902, "enties": 9903, "Ġdrama": 9904, "Ġblokken": 9905, "Ġmethoden": 9906, "Ġfaillissement": 9907, "Ġzool": 9908, "Ġeindigen": 9909, "Ġcommercieel": 9910, "filter": 9911, "Ġambtenaar": 9912, "Ġmega": 9913, "Ġtakken": 9914, "Zoek": 9915, "ani": 9916, "Ġtitels": 9917, "ĠFriese": 9918, "Ġcombinaties": 9919, "Ġafmeting": 9920, "oers": 9921, "Ġstadium": 9922, "Ġsw": 9923, "omer": 9924, "Ġverantwoording": 9925, "Ġed": 9926, "PR": 9927, "ĠRijks": 9928, "Ġhoeverre": 9929, "Ġrok": 9930, "ammen": 9931, "Ġtransparante": 9932, "boog": 9933, "Werk": 9934, "erken": 9935, "ĠMB": 9936, "Ġschroef": 9937, "Ġpaniek": 9938, "Ġvecht": 9939, "blokken": 9940, "ĠNike": 9941, "agn": 9942, "Ġopgemaakt": 9943, "ommen": 9944, "ĠKoophandel": 9945, "banken": 9946, "Ġverdelen": 9947, "Or": 9948, "Ġgave": 9949, "keur": 9950, "Ġvzw": 9951, "Ġscheiden": 9952, "Ġvrachtwagen": 9953, "Klik": 9954, "Ġbijpassende": 9955, "Ġwinkelcentrum": 9956, "Ġfunction": 9957, "Ġproblematiek": 9958, "sal": 9959, "praktijk": 9960, "ruis": 9961, "energie": 9962, "Ġoverd": 9963, "Ġverzekeraars": 9964, "Ġaardappel": 9965, "Ġuitziet": 9966, "pijn": 9967, "Ġprins": 9968, "Ġmark": 9969, "Ġroos": 9970, "ĠToon": 9971, "ĠKarel": 9972, "Ġregister": 9973, "comfort": 9974, "Ġhapjes": 9975, "ĠVorig": 9976, "Ġaannemen": 9977, "Ġheten": 9978, "spunt": 9979, "ĠBlauw": 9980, "Ġketel": 9981, "tern": 9982, "Ġtreinen": 9983, "Ġmagazijn": 9984, "ng": 9985, "ĠING": 9986, "pomp": 9987, "Ġbeloning": 9988, "Ġsessies": 9989, "sprijs": 9990, "Ġmedicijn": 9991, "spellen": 9992, "ĠEC": 9993, "Ã©Ã©n": 9994, "ais": 9995, "Ġbreder": 9996, "ĠCool": 9997, "kkers": 9998, "Ġtape": 9999, "Ġinterviews": 10000, "Ã§": 10001, "Ġsaai": 10002, "Ġgekend": 10003, "Ġinvloeden": 10004, "Ġvoeden": 10005, "Ġvoordelige": 10006, "--": 10007, "Ġwaardevol": 10008, "Want": 10009, "Ġvoornaamste": 10010, "ĠTr": 10011, "vangen": 10012, "Ġwinnaars": 10013, "arkt": 10014, "ieÃ«n": 10015, "inet": 10016, "http": 10017, "AA": 10018, "Ġschrik": 10019, "Ġgal": 10020, "ĠIsrael": 10021, "Ġproducent": 10022, "Ġregelt": 10023, "schriften": 10024, "Ġbeleggen": 10025, "Ġkwalitatieve": 10026, "Ġprincipes": 10027, "legging": 10028, "ĠModel": 10029, "Ġsens": 10030, "Ġdurft": 10031, "Ġtegenstanders": 10032, "anis": 10033, "Ġinvoer": 10034, "inrichting": 10035, "Ġbelooft": 10036, "card": 10037, "Ġopgedaan": 10038, "ĠDor": 10039, "Ġmotto": 10040, "Ġfamilieleden": 10041, "okje": 10042, "ĠEnkel": 10043, "Ġavonturen": 10044, "Ġkalm": 10045, "Ġwederpartij": 10046, "Ġvraagstukken": 10047, "Ġverminderd": 10048, "Ġwintersport": 10049, "document": 10050, "boy": 10051, "link": 10052, "Ġopgepakt": 10053, "SA": 10054, "Ġasbest": 10055, "Ġwandelingen": 10056, "zelfde": 10057, "ĠNacht": 10058, "ĠefficiÃ«nter": 10059, "don": 10060, "Ġkwetsbare": 10061, "Ġmagnetron": 10062, "heel": 10063, "Ġgodsdienst": 10064, "aill": 10065, "Ġbeheerder": 10066, "Ġbewuste": 10067, "samen": 10068, "ava": 10069, "look": 10070, "sproducten": 10071, "ĠVrije": 10072, "outer": 10073, "ĠPo": 10074, "Ġtrui": 10075, "uring": 10076, "Ġbeweegt": 10077, "Ġwijsheid": 10078, "ĠCard": 10079, "lengte": 10080, "Ġgestoken": 10081, "Terwijl": 10082, "ĠLuxemburg": 10083, "RM": 10084, "ĠPartij": 10085, "sloten": 10086, "Ġfors": 10087, "Ġgaande": 10088, "Ġaangemeld": 10089, "hu": 10090, "ĠJansen": 10091, "bru": 10092, "Ġambities": 10093, "raft": 10094, "Ġbuitengewoon": 10095, "Sommige": 10096, "Ġklinken": 10097, "Ġknopen": 10098, "Ġafvallen": 10099, "Ġprinten": 10100, "Ġgiet": 10101, "Ġverlengd": 10102, "TM": 10103, "Ġdierenarts": 10104, "Ġkru": 10105, "situatie": 10106, "ĠTiener": 10107, "leur": 10108, "Ġlezingen": 10109, "Ġbenadrukt": 10110, "eers": 10111, "Ġvastleggen": 10112, "stations": 10113, "Ġcartoon": 10114, "ĠDenemarken": 10115, "voort": 10116, "Ġflip": 10117, "Â«": 10118, "Ġelect": 10119, "Ġlevertijd": 10120, "vang": 10121, "arde": 10122, "Ġhip": 10123, "Ġgeding": 10124, "Noord": 10125, "maand": 10126, "uinen": 10127, "class": 10128, "Ġgeaccepteerd": 10129, "ms": 10130, "ĠCosta": 10131, "Ġveelzijdige": 10132, "medewerkers": 10133, "ĠtechnologieÃ«n": 10134, "verband": 10135, "Ġcreatie": 10136, "ĠGezien": 10137, "ĠWoord": 10138, "Ġvakgebied": 10139, "ĠCare": 10140, "Ġhak": 10141, "kring": 10142, "Ġwill": 10143, "ĠMKB": 10144, "Ġbestreden": 10145, "Ġmarathon": 10146, "Ġgeschenk": 10147, "Ġbere": 10148, "ĠRA": 10149, "Ġvon": 10150, "Ġwc": 10151, "Ġogenblik": 10152, "heb": 10153, "Ġparticulier": 10154, "ki": 10155, "Ġverval": 10156, "Ġvrijwilliger": 10157, "Ġanoniem": 10158, "Ġgarandeert": 10159, "Ġuitzoeken": 10160, "ĠZand": 10161, "resultaten": 10162, "Ġsymbolen": 10163, "ĠSand": 10164, "functies": 10165, "Ġziekten": 10166, "Ġverbeterde": 10167, "Ġtopic": 10168, "Ġvern": 10169, "Ġknip": 10170, "ĠNoorwegen": 10171, "Ġsensor": 10172, "Ġliedje": 10173, "ĠCommunicatie": 10174, "ĠpoÃ«zie": 10175, "Open": 10176, "ĠMas": 10177, "Ġhuisdier": 10178, "Ġboten": 10179, "star": 10180, "Ġschak": 10181, "jer": 10182, "Ġtante": 10183, "icket": 10184, "Ï": 10185, "Ġprimair": 10186, "ballen": 10187, "Ġcultureel": 10188, "ĠVos": 10189, "Ġtoenmalige": 10190, "akkoord": 10191, "iÃ«nt": 10192, "Ġvoortgang": 10193, "ĠWW": 10194, "gemeenschap": 10195, "iezen": 10196, "Ġ1500": 10197, "ĠOff": 10198, "bro": 10199, "Ġlaser": 10200, "Ġstok": 10201, "ĠRotterdamse": 10202, "vergunning": 10203, "Ġdomeinnaam": 10204, "Ġverstelbare": 10205, "ĠMexico": 10206, "Ġinzien": 10207, "Ġvisuele": 10208, "Ġblack": 10209, "cle": 10210, "Ġwortels": 10211, "ĠBroek": 10212, "ĠGouda": 10213, "Ġgegroeid": 10214, "Ġafgewezen": 10215, "Ġgok": 10216, "tw": 10217, "ĠWind": 10218, "Ġdakkapel": 10219, "Ġhuisartsen": 10220, "Ġmasker": 10221, "Ġingedeeld": 10222, "Ġopzoeken": 10223, "ĠNick": 10224, "Ġamb": 10225, "Ġsindsdien": 10226, "speriode": 10227, "Ġopnames": 10228, "Amsterdam": 10229, "Ġcomm": 10230, "aardig": 10231, "Ġverblijft": 10232, "Ġverbetert": 10233, "Ġpasseren": 10234, "ipl": 10235, "Ġpuzzel": 10236, "Ġellende": 10237, "iens": 10238, "ijne": 10239, "oppervlak": 10240, "Ã¼r": 10241, "Ġhartje": 10242, "Ġvoorlopige": 10243, "400": 10244, "ĠBedrijven": 10245, "Ġportemonnee": 10246, "ĠBedrijfs": 10247, "ĠAmerikanen": 10248, "Ġentertainment": 10249, "Ġchecken": 10250, "Ġexp": 10251, "ĠEEN": 10252, "Ġcas": 10253, "Ġfeestelijke": 10254, "nummers": 10255, "verzekeringen": 10256, "Ġelftal": 10257, "ĠBO": 10258, "arden": 10259, "Ġnatuurgebied": 10260, "Ġaangeschaft": 10261, "Ġvervoeren": 10262, "Ġtraag": 10263, "Ġreal": 10264, "ĠWilders": 10265, "nd": 10266, "Ġgrof": 10267, "Ġbeschouwen": 10268, "ĠWordPress": 10269, "ĠOut": 10270, "dende": 10271, "relatie": 10272, "persoon": 10273, "moeder": 10274, "oerd": 10275, "Ġonzekerheid": 10276, "Ġverstrekte": 10277, "acc": 10278, "Ġhartelijk": 10279, "ĠVele": 10280, "huid": 10281, "Ġkleed": 10282, "ĠReal": 10283, "Ġovervloed": 10284, "Ġ(=": 10285, "Ġdreigt": 10286, "ĠHulp": 10287, "ĠParlement": 10288, "Ġsap": 10289, "zand": 10290, "rant": 10291, "info": 10292, "Ġwortel": 10293, "Ġtransactie": 10294, "anning": 10295, "Co": 10296, "Ġanal": 10297, "ĠKor": 10298, "ĠHil": 10299, "ĠLy": 10300, "hip": 10301, "ĠDC": 10302, "Ġgerekend": 10303, "Art": 10304, "eeg": 10305, "ĠLim": 10306, "rid": 10307, "Ġbegrippen": 10308, "Ġbeginsel": 10309, "Ġvoorkeuren": 10310, "any": 10311, "Ġzwakke": 10312, "Ġvastgestelde": 10313, "Ġvernieuwd": 10314, "Ġveertien": 10315, "Ġmid": 10316, "ĠAch": 10317, "ergie": 10318, "gewicht": 10319, "ĠVerdrag": 10320, "Ġevenwel": 10321, "Ġafgegeven": 10322, "Ġplanken": 10323, "Ġdaad": 10324, "ht": 10325, "iano": 10326, "Ġwar": 10327, "Ġbeseffen": 10328, "ĠKo": 10329, "keuken": 10330, "gesprekken": 10331, "rechter": 10332, "ART": 10333, "ĠRead": 10334, "Inmiddels": 10335, "Ġbeginnende": 10336, "alf": 10337, "Ġzender": 10338, "Ġondertekend": 10339, "Ġvorst": 10340, "EÃ©n": 10341, "Ġdaken": 10342, "Ġkeizer": 10343, "Ġberging": 10344, "Ġpotentieel": 10345, "Ġregelmaat": 10346, "una": 10347, "lei": 10348, "ĠStand": 10349, "ĠAlexander": 10350, "Ġaanmelding": 10351, "Ġbijhouden": 10352, "ĠControl": 10353, "Ġgerenoveerd": 10354, "itis": 10355, "icks": 10356, "ĠRol": 10357, "Ġcollecties": 10358, "ĠIK": 10359, "Ġploegen": 10360, "ĠVerordening": 10361, "Ġwaterdicht": 10362, "ĠPatrick": 10363, "beheerder": 10364, "appellant": 10365, "reeks": 10366, "Ġleeftijds": 10367, "Ġgrappige": 10368, "ĠZoekt": 10369, "Ġgeestelijk": 10370, "Ġvarkens": 10371, "ĠRoy": 10372, "ĠGedurende": 10373, "Ġstromen": 10374, "Ġ61": 10375, "ĠStads": 10376, "Ġafstanden": 10377, "ĠAnton": 10378, "Ġnaald": 10379, "Ġzorgverzekering": 10380, "Ġtap": 10381, "EER": 10382, "Ġhetzij": 10383, "Ġontw": 10384, "Ġverbaasd": 10385, "Ġmilitairen": 10386, "MI": 10387, "clubs": 10388, "inclusief": 10389, "Ġ1991": 10390, "Ġinlichtingen": 10391, "ĠMem": 10392, "ĠVoer": 10393, "Ġkoe": 10394, "Ġbestemmingsplan": 10395, "inf": 10396, "schappelijke": 10397, "rijd": 10398, "Ġbewegings": 10399, "Ġinhoudelijke": 10400, "avel": 10401, "weet": 10402, "Ġvrijblijvende": 10403, "ĠWesten": 10404, "nee": 10405, "Ġdistributie": 10406, "ĠTab": 10407, "Ġhielden": 10408, "Ġslang": 10409, "'t": 10410, "Ġpijnlijk": 10411, "ulen": 10412, "nemen": 10413, "waardig": 10414, "omstandigheden": 10415, "amine": 10416, "Ġgekke": 10417, "graad": 10418, "Ġmetro": 10419, "Ġstak": 10420, "Ġcal": 10421, "Ġparket": 10422, "ĠÃ©": 10423, "xx": 10424, "eerder": 10425, "tie": 10426, "Ġund": 10427, "ĠZoon": 10428, "Ġfolie": 10429, "dicht": 10430, "Ġwoestijn": 10431, "ĠVerschillende": 10432, "Man": 10433, "PO": 10434, "Ġ(+": 10435, "ikker": 10436, "gemeente": 10437, "Ġvlekken": 10438, "ĠSociaal": 10439, "ati": 10440, "inck": 10441, "ĠMiddel": 10442, "Ġzodoende": 10443, "Ġchristenen": 10444, "Ġpool": 10445, "Ġfort": 10446, "oke": 10447, "ĠIl": 10448, "TER": 10449, "iften": 10450, "ĠMarco": 10451, "Ġmicrofoon": 10452, "!!!!": 10453, "ĠPaulus": 10454, "Ã©n": 10455, "schoen": 10456, "Ġopstelling": 10457, "Ġmonumenten": 10458, "ĠRood": 10459, "ĠAz": 10460, "Ġvloeistof": 10461, "ĠFer": 10462, "ĠTien": 10463, "Ġluidt": 10464, "Ġasiel": 10465, "Ġstorten": 10466, "ible": 10467, "Ġverander": 10468, "Ġbekijkt": 10469, "perk": 10470, "Ġbood": 10471, "werpen": 10472, "ĠAlphen": 10473, "ĠEde": 10474, "ouders": 10475, "Ġ1980": 10476, "Ġmeldingen": 10477, "Ġbeginners": 10478, "Ġcommunity": 10479, "Ġgigantische": 10480, "Ġvalse": 10481, "fi": 10482, "Ġpols": 10483, "ji": 10484, "sa": 10485, "ĠPerfect": 10486, "cafÃ©": 10487, "Ġaanbevelingen": 10488, "Ġingewikkeld": 10489, "ĠLiefde": 10490, "Ġnadien": 10491, "mede": 10492, "ĠLas": 10493, "stellings": 10494, "ĠEK": 10495, "ĠIsland": 10496, "Ġrevolutie": 10497, "tekst": 10498, "vere": 10499, "ĠCafÃ©": 10500, "dij": 10501, "ĠLinux": 10502, "Ġwijd": 10503, "Ġrad": 10504, "ĠEurope": 10505, "Ġmodules": 10506, "Ġconsult": 10507, "Ġlaste": 10508, "Ġonrust": 10509, "geling": 10510, "bur": 10511, "Ġrealistisch": 10512, "Ġlogistieke": 10513, "Ġachtergronden": 10514, "unk": 10515, "Ġarbeidsovereenkomst": 10516, "ĠIran": 10517, "Ã«l": 10518, "Ġleiderschap": 10519, "ouden": 10520, "Ġbruid": 10521, "Ġverslagen": 10522, "ĠTal": 10523, "fotografie": 10524, "Ġbegeleider": 10525, "Ġnagel": 10526, "ĠRonde": 10527, "pakt": 10528, "à¤": 10529, "Ġcompetenties": 10530, "era": 10531, "Ġachterhalen": 10532, "ianen": 10533, "Ġzond": 10534, "2010": 10535, "Ġsnelste": 10536, "Ġscheppen": 10537, "Ġverdacht": 10538, "Ġbezoekje": 10539, "Ġgebreken": 10540, "gerecht": 10541, "Ġdroeg": 10542, "Ġherkomst": 10543, "Ã¯ne": 10544, "Ġpred": 10545, "Ġveiling": 10546, "Ġtranen": 10547, "emen": 10548, "vliet": 10549, "Ġbezetting": 10550, "Ġvertegenwoordigers": 10551, "last": 10552, "Ġzomervakantie": 10553, "Ã¶r": 10554, "Ġgood": 10555, "map": 10556, "ĠHET": 10557, "ĠKomt": 10558, "Ġmeng": 10559, "Ġtalrijke": 10560, "Ġsfeervol": 10561, "icatie": 10562, "Ġhoes": 10563, "orter": 10564, "Ġeindresultaat": 10565, "Ġsneakers": 10566, "Ġomgang": 10567, "ĠBeer": 10568, "ĠReis": 10569, "gehouden": 10570, "ĠRechts": 10571, "hoes": 10572, "ĠWaal": 10573, "ense": 10574, "Ġoverleggen": 10575, "Ġconsequenties": 10576, "vingen": 10577, "MP": 10578, "Ġgif": 10579, "ĠØ": 10580, "Ġlijm": 10581, "Ġspirituele": 10582, "ssel": 10583, "Ġspelletje": 10584, "Ġmeditatie": 10585, "ĠPast": 10586, "anner": 10587, "Ġkeert": 10588, "Ġzangeres": 10589, "Ġincident": 10590, "vie": 10591, "sie": 10592, "Ġverhoogt": 10593, "Ġkijker": 10594, "ketel": 10595, "Ġachterstand": 10596, "Ġvagina": 10597, "ility": 10598, "ĠMicro": 10599, "Ġherken": 10600, "ĠUl": 10601, "ĠFit": 10602, "Ġmoslim": 10603, "Ġtouw": 10604, "izer": 10605, "Ġstille": 10606, "Ġdet": 10607, "ĠKol": 10608, "apel": 10609, "bosch": 10610, "Ġdranken": 10611, "vader": 10612, "Ġretro": 10613, "Ġcolle": 10614, "Ġinleiding": 10615, "wijn": 10616, "Ġleidinggevende": 10617, "Ġsponsor": 10618, "Ġsportief": 10619, "GO": 10620, "riek": 10621, "ĠRet": 10622, "Kies": 10623, "Ġopdat": 10624, "Ġculturen": 10625, "ĠPSV": 10626, "ressie": 10627, "ijp": 10628, "Ġarme": 10629, "ĠRutte": 10630, "vit": 10631, "Ġhoesje": 10632, "weeg": 10633, "spannen": 10634, "Ġafnemen": 10635, "loon": 10636, "Ġpopulariteit": 10637, "ĠVroeger": 10638, "Ġbook": 10639, "ĠVenlo": 10640, "idde": 10641, "ember": 10642, "Ġvoorhand": 10643, "ĠVrijdag": 10644, "Ġsubsid": 10645, "inds": 10646, "Ġ>>": 10647, "Ġontdekking": 10648, "rice": 10649, "Ġweersomstandigheden": 10650, "sper": 10651, "Ġallereerste": 10652, "ĠHoofdstuk": 10653, "Ġurine": 10654, "chat": 10655, "Ġcredit": 10656, "Ġopl": 10657, "lezen": 10658, "ĠAh": 10659, "ĠSlechts": 10660, "uiven": 10661, "Ġranden": 10662, "ĠKorte": 10663, "kg": 10664, "gevel": 10665, "Ġmenig": 10666, "Ġkoolhydraten": 10667, "Ġdist": 10668, "ĠAR": 10669, "Ġinschakelen": 10670, "Ġstreeft": 10671, "Ġhuurders": 10672, "ĠSon": 10673, "Ġplas": 10674, "Nieuwe": 10675, "Ġff": 10676, "Ġverwezen": 10677, "ĠLib": 10678, "Ġscooter": 10679, "Ġmorgens": 10680, "schreven": 10681, "Ġpin": 10682, "Ġheld": 10683, "Ġdoorgegeven": 10684, "Ġwork": 10685, "oegen": 10686, "Daarna": 10687, "ami": 10688, "rain": 10689, "Ġaardige": 10690, "Ġonderwij": 10691, "Ġsales": 10692, "Ġdichterbij": 10693, "Ġsubsidies": 10694, "Ġteen": 10695, "Ġfunctioneel": 10696, "Ġmont": 10697, "Ġhuurauto": 10698, "ison": 10699, "ĠHelemaal": 10700, "Ġvergaderingen": 10701, "ĠProgramma": 10702, "ĠLucht": 10703, "ĠWi": 10704, "Ġverwachte": 10705, "Ġboeket": 10706, "Ġoverheer": 10707, "Ġhoed": 10708, "Ġvasthouden": 10709, "ĠKind": 10710, "Iedere": 10711, "Ġbut": 10712, "Ġuitzend": 10713, "Ġ!!": 10714, "Ġcatering": 10715, "ĠVO": 10716, "Ġkunstwerken": 10717, "Ġwier": 10718, "hij": 10719, "ä¸": 10720, "aul": 10721, "Ġblote": 10722, "Gratis": 10723, "ĠSub": 10724, "Ġlove": 10725, "ĠTelefoon": 10726, "Ġfondsen": 10727, "Ġverlof": 10728, "Ġillegale": 10729, "Ġhaalbaar": 10730, "ĠWarm": 10731, "Ġbuurman": 10732, "ĠBil": 10733, "ĠChar": 10734, "stichting": 10735, "Ġonjuist": 10736, "Ġec": 10737, "neming": 10738, "lagen": 10739, "Ġbedekt": 10740, "Ġtropische": 10741, "artsen": 10742, "Ġdochters": 10743, "Ġdub": 10744, "Ġpech": 10745, "Ġtijdperk": 10746, "Ġonderhandelingen": 10747, "ĠPVC": 10748, "Ġvoorstellingen": 10749, "Ġbehandelt": 10750, "Ġaangemerkt": 10751, "Ġschroeven": 10752, "ĠWageningen": 10753, "ĠLab": 10754, "ORT": 10755, "doos": 10756, "ĠSec": 10757, "Ġmanagers": 10758, "Ġvrijstaande": 10759, "annes": 10760, "Ġtoonaangevende": 10761, "Ġdeelnemende": 10762, "Ġlichamelijk": 10763, "ĠSurinaamse": 10764, "Ġrac": 10765, "Ġgelanceerd": 10766, "ĠKoen": 10767, "steken": 10768, "ĠMotor": 10769, "ĠWelkom": 10770, "ĠBelang": 10771, "Ġ1945": 10772, "Ġafsluiting": 10773, "Ġlevendige": 10774, "iseren": 10775, "Ġ!!!": 10776, "ĠNederlanden": 10777, "ski": 10778, "ĠFran": 10779, "Ġgewaarschuwd": 10780, "Ġweergeven": 10781, "Ġvakmanschap": 10782, "Ġstapt": 10783, "Ġrestauratie": 10784, "Ġtapijt": 10785, "ĠKok": 10786, "oorn": 10787, "Ġgrill": 10788, "Ġaandeelhouders": 10789, "Ġzogenoemde": 10790, "Ġ88": 10791, "Ġsle": 10792, "Ġanimatie": 10793, "Ġvoorbereidingen": 10794, "Ġzweet": 10795, "ĠSter": 10796, "Ġovergedragen": 10797, "Ġafgeleverd": 10798, "ĠPVV": 10799, "weekend": 10800, "Ġuitzonderlijke": 10801, "atiel": 10802, "Ġfusie": 10803, "aliseerde": 10804, "Ù": 10805, "Ġaangepakt": 10806, "Ġkro": 10807, "ĠLoop": 10808, "Ġconclusies": 10809, "Ġgirl": 10810, "Ġoverwogen": 10811, "Ġcolumn": 10812, "icum": 10813, "Ã³n": 10814, "ĠEs": 10815, "Ġvakantiewoning": 10816, "Ġonrechte": 10817, "roon": 10818, "Ġgladde": 10819, "Ġkampeer": 10820, "Ġvermoord": 10821, "Ġneerslag": 10822, "Ġvoorwerp": 10823, "melk": 10824, "Ġgu": 10825, "Ġtijdschriften": 10826, "600": 10827, "Ġzoekmachine": 10828, "ĠShow": 10829, "idden": 10830, "Ġlogistiek": 10831, "schermen": 10832, "Ġmeesten": 10833, "eck": 10834, "cam": 10835, "Ġagent": 10836, "Ġriool": 10837, "Ġzeiden": 10838, "schepen": 10839, "erts": 10840, "ĠDaniel": 10841, "ĠOpenbaar": 10842, "schrijver": 10843, "Doe": 10844, "olo": 10845, "âĦ¢": 10846, "Eind": 10847, "burger": 10848, "ĠBelgie": 10849, "rof": 10850, "erke": 10851, "ĠTegelijkertijd": 10852, "graaf": 10853, "ĠIndonesiÃ«": 10854, "ĠDomin": 10855, "Ġveelvuldig": 10856, "Ġparadijs": 10857, "ĠAcademie": 10858, "Ġzieke": 10859, "Jij": 10860, "Ġbeheersen": 10861, "Ġok": 10862, "Ġgekleurd": 10863, "ĠLeeuw": 10864, "Ġoverkomen": 10865, "formaat": 10866, "ENS": 10867, "ĠLi": 10868, "verblijf": 10869, "Ġmn": 10870, "ci": 10871, "Ġonbet": 10872, "ĠSom": 10873, "Ġzwaarder": 10874, "ĠMP": 10875, "ĠBoom": 10876, "iten": 10877, "Ġvormgegeven": 10878, "Ġbehorende": 10879, "Ġschimmel": 10880, "Ġpoppen": 10881, "ipper": 10882, "eeuwse": 10883, "Ġlie": 10884, "Ġbeweeg": 10885, "otische": 10886, "Ġbestelt": 10887, "ĠWin": 10888, "reef": 10889, "Ġbedrijfsvoering": 10890, "ĠCur": 10891, "ĠVoetbal": 10892, "ĠJon": 10893, "website": 10894, "ĠSterker": 10895, "Ġhanteert": 10896, "Ġbetekend": 10897, "Ġexpliciet": 10898, "Ġbor": 10899, "Ġmeel": 10900, "Ġvermoeidheid": 10901, "Ġneiging": 10902, "Ġreserv": 10903, "getrokken": 10904, "processen": 10905, "stermijn": 10906, "Ġbezorg": 10907, "Fi": 10908, "korting": 10909, "Ġzadel": 10910, "Ġsupporters": 10911, "ĠPrim": 10912, "Ġafnemer": 10913, "Ġsleutels": 10914, "avonden": 10915, "Ġsalon": 10916, "Ġverbleven": 10917, "reen": 10918, "Ġkeukens": 10919, "Ġdementie": 10920, "Ġonnodig": 10921, "schaal": 10922, "zal": 10923, "ĠCoc": 10924, "GE": 10925, "anny": 10926, "ĠSpec": 10927, "Ġkennismaking": 10928, "Ġaqu": 10929, "Ġinloggen": 10930, "Ġinfectie": 10931, "Ġbezet": 10932, "ĠZeven": 10933, "Ġrijkdom": 10934, "Ġpup": 10935, "ĠDro": 10936, "Ġfashion": 10937, "Ġklaarkomen": 10938, "unen": 10939, "ĠJavaScript": 10940, "Ġringen": 10941, "sec": 10942, "Ġ1989": 10943, "opname": 10944, "Ġbuizen": 10945, "Ġverzamel": 10946, "slachtoffer": 10947, "ĠGraaf": 10948, "rank": 10949, "Ġruit": 10950, "lok": 10951, "vaar": 10952, "Ġbekendgemaakt": 10953, "Ġpaden": 10954, "Ġrapportage": 10955, "Ġpest": 10956, "Ġgemakkelijke": 10957, "zeer": 10958, "Ġcruciaal": 10959, "ĠOrganisatie": 10960, "outs": 10961, "richt": 10962, "ĠhÃ©": 10963, "Ġgepleegd": 10964, "temperatuur": 10965, "ĠZweedse": 10966, "Ġinkomens": 10967, "Ġgaren": 10968, "ĠVincent": 10969, "mper": 10970, "etisch": 10971, "ĠBlok": 10972, "vr": 10973, "ĠMid": 10974, "Ġpresentaties": 10975, "Ġvoedingsstoffen": 10976, "Ġverlengen": 10977, "ining": 10978, "voerder": 10979, "cten": 10980, "Ġruzie": 10981, "Ġtoenemen": 10982, "berichten": 10983, "Ġriem": 10984, "Ġgewond": 10985, "ube": 10986, "ĠFil": 10987, "beleving": 10988, "buurt": 10989, "uls": 10990, "Ġstralen": 10991, "ĠOverige": 10992, "Ġverscheidenheid": 10993, "ĠWill": 10994, "Ġkab": 10995, "hoff": 10996, "ĠBond": 10997, "ĠMarie": 10998, "Ġservic": 10999, "Ġlab": 11000, "Ġbelofte": 11001, "Ġhorloges": 11002, "ova": 11003, "Ġnadrukkelijk": 11004, "Buiten": 11005, "Ġblaas": 11006, "Ġstoot": 11007, "ĠGlas": 11008, "Ġblond": 11009, "Ġverbazing": 11010, "Ġgenoegen": 11011, "Ġes": 11012, "Ġstruik": 11013, "Ġgekenmerkt": 11014, "opleidingen": 11015, "ĠFijn": 11016, "Ġconstante": 11017, "Ġterugkomen": 11018, "Ġdru": 11019, "!).": 11020, "Ġstabiele": 11021, "Ġliefhebber": 11022, "Ġvaandel": 11023, "Ġstra": 11024, "schuim": 11025, "Ġtoetsenbord": 11026, "ĠInternationale": 11027, "ury": 11028, "ĠVi": 11029, "gaand": 11030, "ĠInt": 11031, "ĠBrun": 11032, "methoden": 11033, "ative": 11034, "Ġ78": 11035, "Ġlandgoed": 11036, "Ġ77": 11037, "Ġbidden": 11038, "beh": 11039, "Ġgebed": 11040, "iveau": 11041, "ĠWacht": 11042, "ĠEva": 11043, "ermen": 11044, "Vrij": 11045, "arie": 11046, "Ġbevestigt": 11047, "Ġleed": 11048, "Ġzorgverzekeraar": 11049, "ĠOlympische": 11050, "Ġvergt": 11051, "mas": 11052, "Ġbeleggers": 11053, "Ġ(âĢĺ": 11054, "tuigen": 11055, "CC": 11056, "Ġrare": 11057, "plus": 11058, "ĠPrima": 11059, "ieerde": 11060, "uip": 11061, "Ġverklaarde": 11062, "geh": 11063, "VC": 11064, "agent": 11065, "Ġslikken": 11066, "bra": 11067, "Ġkad": 11068, "Ġwaarschuwing": 11069, "Ġur": 11070, "Ġlekkers": 11071, "ĠJaap": 11072, "Ġven": 11073, "brood": 11074, "Ġstrikt": 11075, "adem": 11076, "Ġriet": 11077, "ĠMis": 11078, "Ġplekke": 11079, "gene": 11080, "bas": 11081, "Ġaant": 11082, "Ġvrijdagavond": 11083, "Ġverdiepingen": 11084, "MO": 11085, "Ġafwezigheid": 11086, "Ġletsel": 11087, "Ġpogingen": 11088, "Ġwond": 11089, "Bovendien": 11090, "WA": 11091, "Ġoffline": 11092, "uurd": 11093, "Ġacteur": 11094, "Ġstoring": 11095, "ĠAnalytics": 11096, "plic": 11097, "Ġonzeker": 11098, "âĢĭ": 11099, "Ġperformance": 11100, "Ġbom": 11101, "amers": 11102, "ĠDisney": 11103, "wanden": 11104, "installaties": 11105, "ĠHotels": 11106, "Ġforse": 11107, "Ġslet": 11108, "valt": 11109, "Ġvies": 11110, "Ġbuur": 11111, "ume": 11112, "ĠbeÃ«indigen": 11113, "Ġstations": 11114, "Ġzaden": 11115, "rob": 11116, "Ġgenereren": 11117, "Ġagenten": 11118, "ĠVideos": 11119, "Ġhandeling": 11120, "ĠKu": 11121, "Ġuitgest": 11122, "Ġpolis": 11123, "Ġinterpretatie": 11124, "Ġonderzoekt": 11125, "Ġbuffet": 11126, "vaardigheden": 11127, "Ġjasje": 11128, "mak": 11129, "Ġafb": 11130, "Ġverlaat": 11131, "Ġvreselijk": 11132, "Ġborg": 11133, "Ġsupermarkten": 11134, "Ġuitproberen": 11135, "Ġessentie": 11136, "Ġkolon": 11137, "ĠCab": 11138, "ĠTips": 11139, "Elk": 11140, "ĠBir": 11141, "Ġwethouders": 11142, "Ġsectie": 11143, "ulden": 11144, "ĠKal": 11145, "Ġenerg": 11146, "Ġipv": 11147, "Ġslechter": 11148, "Ġhulpmiddel": 11149, "Ġparagraaf": 11150, "Ġzomerse": 11151, "ĠEconomische": 11152, "opvang": 11153, "Ġborstel": 11154, "Ġpk": 11155, "Ġsong": 11156, "uste": 11157, "ingssysteem": 11158, "ĠIerland": 11159, "assage": 11160, "Ġhoofdpijn": 11161, "Ġbeauty": 11162, "Ġlin": 11163, "Ġkoekjes": 11164, "Ġvermoed": 11165, "Ġ3000": 11166, "akes": 11167, "Ġdoop": 11168, "Ġofficier": 11169, "Ġherhalen": 11170, "atier": 11171, "Ġtrailer": 11172, "ago": 11173, "directeur": 11174, "ather": 11175, "Ġtri": 11176, "Ġdrukt": 11177, "ares": 11178, "omende": 11179, "ĠRelatie": 11180, "ĠLee": 11181, "Ġuitgang": 11182, "Ġvertrok": 11183, "Ġblader": 11184, "Ġkussens": 11185, "ĠSen": 11186, "Ġjournalisten": 11187, "spect": 11188, "ĠFiets": 11189, "ĠKer": 11190, "ĠRh": 11191, "ĠFinanciÃ«n": 11192, "vaardigheid": 11193, "Ġnature": 11194, "Ġeenmalig": 11195, "Ġgevolge": 11196, "html": 11197, "ĠPle": 11198, "irk": 11199, "Ġfre": 11200, "etting": 11201, "Ġbruto": 11202, "ĠCont": 11203, "Ġpanden": 11204, "verzorging": 11205, "ĠHasselt": 11206, "ĠGast": 11207, "ĠWetboek": 11208, "Ġcitroen": 11209, "ĠBeter": 11210, "uter": 11211, "Ġego": 11212, "pre": 11213, "Ġlevend": 11214, "Ġpopulairste": 11215, "Ġtransacties": 11216, "unten": 11217, "Ġaankomt": 11218, "pakketten": 11219, "Ġski": 11220, "ĠFord": 11221, "ael": 11222, "ĠRepubliek": 11223, "ĠPa": 11224, "ĠenquÃªte": 11225, "Vind": 11226, "ĠBuurt": 11227, "groe": 11228, "Ġblanke": 11229, "Ġuitkomsten": 11230, "Ġmentale": 11231, "Ġongelooflijk": 11232, "&#": 11233, "Ġvlug": 11234, "leding": 11235, "eiland": 11236, "loopt": 11237, "asting": 11238, "Ġinsp": 11239, "Ġgraven": 11240, "core": 11241, "Ġzeldzame": 11242, "agne": 11243, "Ġplug": 11244, "ours": 11245, "ĠSucces": 11246, "weten": 11247, "ĠSpeciaal": 11248, "Ġlevensstijl": 11249, "Ġvette": 11250, "Ġtoffe": 11251, "eters": 11252, "Ġverbl": 11253, "Ġkenmerk": 11254, "Ġwen": 11255, "ĠWinkel": 11256, "Ġrobuuste": 11257, "iest": 11258, "Ġacteurs": 11259, "Ġ76": 11260, "Best": 11261, "Ġlok": 11262, "Ġautor": 11263, "spoor": 11264, "Ġgetraind": 11265, "Ġobjectief": 11266, "Ġgraaf": 11267, "Ġtypes": 11268, "ĠRonald": 11269, "Ġduinen": 11270, "folie": 11271, "ĠPsych": 11272, "genen": 11273, "Ġaangemaakt": 11274, "Ġbegeleidt": 11275, "ĠWild": 11276, "ded": 11277, "Ġdikwijls": 11278, "Ġverantwoordelijke": 11279, "hier": 11280, "Ġopgelopen": 11281, "Ġovernemen": 11282, "Ġvrijwillig": 11283, "Ġzalm": 11284, "Ġvoorlichting": 11285, "ĠVoorbeelden": 11286, "Ġkatholieke": 11287, "Ġknappe": 11288, "Ġverklaringen": 11289, "ĠInclusief": 11290, "UW": 11291, "ĠBelangrijk": 11292, "Ġpromoten": 11293, "Ġgeuren": 11294, ")?": 11295, "kind": 11296, "Ġshows": 11297, "Ġserveren": 11298, "ieter": 11299, "alisten": 11300, "La": 11301, "Ġuitstoot": 11302, "Ġveiliger": 11303, "Ġboeiende": 11304, "Ġpiek": 11305, "Dank": 11306, "ili": 11307, "ÐµÐ½": 11308, "Ġklussen": 11309, "ĠZonne": 11310, "Ġkortingscode": 11311, "Ġaroma": 11312, "Ġschil": 11313, "Ġreparaties": 11314, "Ġmulti": 11315, "2019": 11316, "bach": 11317, "ĠZodat": 11318, "Ġ....": 11319, "Ġvermindert": 11320, "ĠSens": 11321, "keer": 11322, "Ġgenre": 11323, "spec": 11324, "Ġgren": 11325, "Ġherkent": 11326, "play": 11327, "Ġvervang": 11328, "ĠPak": 11329, "zaad": 11330, "Ġedel": 11331, "itte": 11332, "Ġsaldo": 11333, "Ġontsnappen": 11334, "ÂĴ": 11335, "ĠTran": 11336, "Ġerotisch": 11337, "Foto": 11338, "Ġbesluitvorming": 11339, "Ġreiniging": 11340, "Ġposten": 11341, "stok": 11342, "Ġtablets": 11343, "uken": 11344, "HA": 11345, "Ġverantwoorde": 11346, "Ġheuvels": 11347, "ĠAmerican": 11348, "ĠForm": 11349, "Ġbands": 11350, "iels": 11351, "atiek": 11352, "ruimtes": 11353, "Ġanim": 11354, "Ġgeplande": 11355, "unn": 11356, "spunten": 11357, "Ġuniversiteiten": 11358, "Ġhandhaven": 11359, "ĠCharles": 11360, "ĠVe": 11361, "Ġcake": 11362, "Ġbetekende": 11363, "Ġsoc": 11364, "sproblemen": 11365, "Ġresterende": 11366, "ĠTieten": 11367, "ĠVast": 11368, "Ġtherapeut": 11369, "Ġaug": 11370, "Ġtechnologische": 11371, "Ġvakman": 11372, "Ġmodder": 11373, "taal": 11374, "Ġtunnel": 11375, "strand": 11376, "stat": 11377, "ION": 11378, "text": 11379, "lek": 11380, "ĠMens": 11381, ",âĢ¦": 11382, "Ġgezichten": 11383, "Ġgedraaid": 11384, "Ġpijl": 11385, "Ġav": 11386, "rekt": 11387, "Ġbevelen": 11388, "daar": 11389, "standen": 11390, "training": 11391, "uleren": 11392, "Ġwils": 11393, "Ġ73": 11394, "Ġprioriteit": 11395, "Ġintentie": 11396, "ĠHelmond": 11397, "gestelde": 11398, "Ġaanbiedt": 11399, "Ġimago": 11400, "Ġbrak": 11401, "deerd": 11402, "ouse": 11403, "ĠTrouw": 11404, "ĠLinks": 11405, "Ġdrempel": 11406, "Ġest": 11407, "ĠLeon": 11408, "feesten": 11409, "Ġhuisdieren": 11410, "Ġinhoudelijk": 11411, "ĠZoetermeer": 11412, "Ñĩ": 11413, "ĠTechn": 11414, "ĠDikke": 11415, "ĠArbeids": 11416, "nij": 11417, "registratie": 11418, "Ġoverheen": 11419, "veer": 11420, "Ġprogramm": 11421, "Ġontslagen": 11422, "verbod": 11423, "ĠLelystad": 11424, "uild": 11425, "Ġmatig": 11426, "ĠGT": 11427, "Ġent": 11428, "day": 11429, "zucht": 11430, "Ġprovinciale": 11431, "Ġwiskunde": 11432, "field": 11433, "DR": 11434, "ĠTip": 11435, "Ġvroegen": 11436, "INGEN": 11437, "Ġleningen": 11438, "ĠEenmaal": 11439, "ĠBoeken": 11440, "Ġmakers": 11441, "Ġhaag": 11442, "Ġaannemelijk": 11443, "Ġtinten": 11444, "Ġ74": 11445, "Ġdiegene": 11446, "qui": 11447, "Ġconflicten": 11448, "kelijk": 11449, "Ġparticipatie": 11450, "Ġzoekresultaten": 11451, "Ġwebpagina": 11452, "ĠCanon": 11453, "ĠUr": 11454, "gestuurd": 11455, "Ġslaapt": 11456, "yr": 11457, "Ġkassa": 11458, "strijd": 11459, "Ġtref": 11460, "Ġcool": 11461, "plekken": 11462, "Ġmagische": 11463, "Ġvezels": 11464, "ĠVolgende": 11465, "Ġcit": 11466, "rijder": 11467, "Ġbehoorlijke": 11468, "oker": 11469, "Ġmeent": 11470, "ĠPass": 11471, "Ġverbeelding": 11472, "ĠHealth": 11473, "plank": 11474, "ffic": 11475, "gevers": 11476, "Ġgrondgebied": 11477, "Ġbenoemen": 11478, "Ġandersom": 11479, "Ġpleeg": 11480, "?'": 11481, "tocht": 11482, "rechtelijke": 11483, "ĠWO": 11484, "Ġtranny": 11485, "ĠBack": 11486, "ĠFair": 11487, "inhoud": 11488, "beke": 11489, "Ġexploitatie": 11490, "Ġsamenvatting": 11491, "Ġ98": 11492, "isatie": 11493, "Ġtroepen": 11494, "Ġretail": 11495, "2000": 11496, "Ġevenmin": 11497, "ĠFilms": 11498, "Ġnep": 11499, "Ġchique": 11500, "ĠJul": 11501, "Ġmonitor": 11502, "Ġdynamisch": 11503, "Ġcasual": 11504, "ĠSK": 11505, "Ġfestivals": 11506, "Ġchip": 11507, "ondersteuning": 11508, "Ġnavigatie": 11509, "lecht": 11510, "ĠPap": 11511, "Ġoppositie": 11512, "Ġdaalt": 11513, "ĠCentrale": 11514, "BL": 11515, "Ġzetel": 11516, "Ġdraadloos": 11517, "zool": 11518, "Ġverbouwen": 11519, "Ġzevende": 11520, "ĠVolkskrant": 11521, "Ġgordijnen": 11522, "ĠNRC": 11523, "ĠhÃ¨": 11524, "ijnse": 11525, "Ġsnoep": 11526, "Ġvervoers": 11527, "ĠIrak": 11528, "Ġbezitten": 11529, "etel": 11530, "Ġfavorieten": 11531, "elli": 11532, "ĠWelzijn": 11533, "Ġdringen": 11534, "acker": 11535, "ĠFeest": 11536, "Ġdwingen": 11537, "ĠMadrid": 11538, "Ġvragenlijst": 11539, "ijds": 11540, "Ġverte": 11541, "Ġbeveiligde": 11542, "ĠnÃ³g": 11543, "âĢ¦âĢ¦": 11544, "Ġmindere": 11545, "Ġonderliggende": 11546, "Ġbloei": 11547, "Ġsubtiele": 11548, "mmers": 11549, "Ġbetoog": 11550, "ootjes": 11551, "Ġcommunic": 11552, "ĠBull": 11553, "ĠHete": 11554, "Ġ1940": 11555, "iliteit": 11556, "ĠÐ²": 11557, "Ġgeschillen": 11558, "ĠSie": 11559, "sluit": 11560, "ĠNormaal": 11561, "Ġradi": 11562, "oelde": 11563, "Ġzieken": 11564, "bouwen": 11565, "Ġpijnlijke": 11566, "uitje": 11567, "BI": 11568, "Ġinbegrip": 11569, "Qu": 11570, "Ġveranda": 11571, "eloze": 11572, "stoornissen": 11573, "Ġrijks": 11574, "herstel": 11575, "Ġprote": 11576, "zeggen": 11577, "ĠIde": 11578, "ĠGRATIS": 11579, "ĠOffic": 11580, "Ġtrac": 11581, ".(": 11582, "Ġgewoonte": 11583, "ĠClassic": 11584, "ĠDec": 11585, "reert": 11586, "actieve": 11587, "agers": 11588, "Ġvat": 11589, "wood": 11590, "Ġpleit": 11591, "Ġbondage": 11592, "ĠSat": 11593, "Ġbeloofd": 11594, "Ġliefdes": 11595, "Ġervaar": 11596, "ĠBuitenlandse": 11597, "Ġnegentig": 11598, "ingskosten": 11599, "Ġlatina": 11600, "rente": 11601, "ĠHelder": 11602, "Ġuitverkocht": 11603, "Ġparken": 11604, "Ġmouw": 11605, "ĠLem": 11606, "igden": 11607, "Ġaanvaarden": 11608, "Ġvliegtuigen": 11609, "Ġsatelliet": 11610, "Ġvochtige": 11611, "Ġafdrukken": 11612, "alingen": 11613, "Ġhielp": 11614, "Ġafkomst": 11615, "raten": 11616, "Ġvacht": 11617, "Ġdeugd": 11618, "Ġkale": 11619, "Ġgedronken": 11620, "heater": 11621, "Welke": 11622, "Ġfol": 11623, "ĠCloud": 11624, "Ġkruid": 11625, "etto": 11626, "oefeningen": 11627, "vogel": 11628, "bestemming": 11629, "aters": 11630, "Ġroulette": 11631, "Ð¾Ð²": 11632, "Ġsteunt": 11633, "Ġkampioenschap": 11634, "Ġneder": 11635, "wekkend": 11636, "Ġcontroles": 11637, "Ġkeihard": 11638, "watch": 11639, "Ġventil": 11640, "inkomen": 11641, "Stel": 11642, "Ġcall": 11643, "oetsen": 11644, "Ġversp": 11645, "ĠLG": 11646, "stoornis": 11647, "ĠForum": 11648, "Ġplekjes": 11649, "Ġmor": 11650, "Ġrivieren": 11651, "ao": 11652, "Ġvouw": 11653, "ĠImmers": 11654, "Ġlaarzen": 11655, "Ġonderworpen": 11656, "SD": 11657, "soort": 11658, "Ġverzend": 11659, "ĠOper": 11660, "Ġuitmaakt": 11661, "Nederlandse": 11662, "Ġdiende": 11663, "ulaire": 11664, "ĠNeder": 11665, "Ġwa": 11666, "ĠknieÃ«n": 11667, "Ġverhuren": 11668, "rang": 11669, "eden": 11670, "ĠVeer": 11671, "Ġvoldoening": 11672, "Ġeiser": 11673, "ĠEet": 11674, "Ġautisme": 11675, "ature": 11676, "Ġpresteren": 11677, "inner": 11678, "Ġverlicht": 11679, "ĠNooit": 11680, "Ġborrel": 11681, "Ġstuit": 11682, "Ġingegaan": 11683, "garantie": 11684, "ĠLot": 11685, "Ġnabestaanden": 11686, "Ġmeningen": 11687, "Ġorale": 11688, "ĠNaakt": 11689, "NV": 11690, "Ġbevallen": 11691, "Ġregelingen": 11692, "Ġdiscussies": 11693, "Ġscoort": 11694, "ĠVolkswagen": 11695, "Ġlol": 11696, "Ġwellness": 11697, "Ġfac": 11698, "Ġillustraties": 11699, "Ġatt": 11700, "ĠCir": 11701, "Ġjuf": 11702, "Ġactiveren": 11703, "Ġflat": 11704, "schrijving": 11705, "Ġgedegen": 11706, "ĠAG": 11707, "ĠBlog": 11708, "ĠGre": 11709, "Ġoprecht": 11710, "Ġvertegenwoordiger": 11711, "Ġaantonen": 11712, "kes": 11713, "Ġchips": 11714, "Dag": 11715, "Ġgetallen": 11716, "wijken": 11717, "Ġvoorts": 11718, "igh": 11719, "ĠMinder": 11720, "Ġref": 11721, "ĠNO": 11722, "ĠSL": 11723, "Ġkampen": 11724, "Ġeffectiviteit": 11725, "Ġplegen": 11726, "rends": 11727, "Ġverschrikkelijk": 11728, "werkte": 11729, "Ġlouter": 11730, "draad": 11731, "teams": 11732, "Ġzuster": 11733, "ĠAndrÃ©": 11734, "Ġafgebroken": 11735, "Ġemotioneel": 11736, "Ġpony": 11737, "ĠHappy": 11738, "Ġoer": 11739, "oir": 11740, "Ġafname": 11741, "gh": 11742, "vier": 11743, "Ġvoetballen": 11744, "ĠVisser": 11745, "Ġzonlicht": 11746, "ĠJeruzalem": 11747, "Ġverstopt": 11748, "Ġteneinde": 11749, "meting": 11750, "ðŁ": 11751, "Ġluid": 11752, "ĠNight": 11753, "Ġlaminaat": 11754, "gerechten": 11755, "ĠLeo": 11756, "osh": 11757, "eman": 11758, "ĠÂ´": 11759, "Ġemotie": 11760, "ĠcalorieÃ«n": 11761, "Ġspeeltuin": 11762, "EF": 11763, "Ø±": 11764, "Ġpostcode": 11765, "Ġposities": 11766, "arissen": 11767, "dracht": 11768, "Ġoproepen": 11769, "Goede": 11770, "Ġjurkje": 11771, "Ġkit": 11772, "ĠSmit": 11773, "iÃ«r": 11774, "Ġblijvend": 11775, "Ġzu": 11776, "Ġdia": 11777, "Ġlo": 11778, "raagd": 11779, "landschap": 11780, "Ġpoker": 11781, "ĠBluetooth": 11782, "ĠSo": 11783, "Ġlichtgewicht": 11784, "Ġmaterie": 11785, "ĠWoning": 11786, "Ġfys": 11787, "ĠHo": 11788, "Ġlichter": 11789, "Ġvoordoen": 11790, "ĠGoud": 11791, "locaties": 11792, "rechts": 11793, "polder": 11794, "yse": 11795, "Ġå": 11796, "Ġlaagje": 11797, "ĠKont": 11798, "wil": 11799, "ĠLengte": 11800, "klik": 11801, "generaal": 11802, "ĠTrek": 11803, "ycle": 11804, "Ġhosting": 11805, "Ġhoefde": 11806, "ĠÑģ": 11807, "Ġvernietigd": 11808, "acy": 11809, "Ġwenselijk": 11810, "ĠPay": 11811, "Ġoutdoor": 11812, "groene": 11813, "ukk": 11814, "Ġklem": 11815, "ĠHum": 11816, "Ġwiss": 11817, "Ġgrijpen": 11818, "Tussen": 11819, "cons": 11820, "DER": 11821, "Ġoa": 11822, "ĠMBO": 11823, "Ġaff": 11824, "ĠSky": 11825, "Ġheerst": 11826, "Ġbezwaren": 11827, "Ġvoltooid": 11828, "ĠWouter": 11829, "Ġfelle": 11830, "Ġ82": 11831, "kool": 11832, "shirts": 11833, "umenten": 11834, "Ġonafhankelijkheid": 11835, "ĠBern": 11836, "Ġkenmerkt": 11837, "Ġschadelijk": 11838, "brengt": 11839, "ando": 11840, "pon": 11841, "Ġverschuldigde": 11842, "ĠBN": 11843, "ĠGame": 11844, "Ġhuisvesting": 11845, "muur": 11846, "behoefte": 11847, "Ġmakkelijke": 11848, "geschreven": 11849, "Ġonderscheidt": 11850, "Ġlife": 11851, "Ġvoorspellen": 11852, "Ġaanloop": 11853, "isa": 11854, "Ġorganen": 11855, "Her": 11856, "Jurk": 11857, "ois": 11858, "Ġenzovoort": 11859, "atal": 11860, "Ġvloerverwarming": 11861, "Ġsprookjes": 11862, "Ġzingt": 11863, "Ġdaglicht": 11864, "Ġverrassingen": 11865, "ĠLeden": 11866, "Ġgeschiedt": 11867, "esp": 11868, "ĠOt": 11869, "opol": 11870, "ĠMari": 11871, "Ġaangevoerd": 11872, "Ġcash": 11873, "erver": 11874, "Ġgevestigde": 11875, "ools": 11876, "Ġzojuist": 11877, "Ġuiting": 11878, "cept": 11879, "Ġonderhavige": 11880, "ĠHarm": 11881, "haal": 11882, "Ð¼": 11883, "bier": 11884, "Ġbekl": 11885, "ĠSV": 11886, "ali": 11887, "rokken": 11888, "Ġingaan": 11889, "Ġkleuter": 11890, "voorstel": 11891, "Ġresp": 11892, "zitten": 11893, "ills": 11894, "Ġrapporten": 11895, "Ġrommel": 11896, "Ġnation": 11897, "opdrachten": 11898, "Ġhelm": 11899, "Ġzalen": 11900, "Ġtweemaal": 11901, "Ġtru": 11902, "verst": 11903, "Par": 11904, "Ġuitzonderlijk": 11905, "Ġeeuwige": 11906, "raject": 11907, "Ġburn": 11908, "ootje": 11909, "ĠSup": 11910, "ĠJob": 11911, "Ġverpleegkundige": 11912, "cre": 11913, "Ġtit": 11914, "Ġlandschappen": 11915, "volg": 11916, "Ġ900": 11917, "zoekers": 11918, "ĠOnderhoud": 11919, "partners": 11920, "Ġwee": 11921, "quot": 11922, "werkende": 11923, "Ġtwijfelen": 11924, "ĠAudi": 11925, "erkl": 11926, "Ġgereageerd": 11927, "splicht": 11928, "Ġpsycholoog": 11929, "Ġbem": 11930, "ĠSoftware": 11931, "Ġcoating": 11932, "Ġdj": 11933, "Ġopladen": 11934, "Ġbruids": 11935, "lam": 11936, "rongen": 11937, "ĠSpe": 11938, "ĠLinkedIn": 11939, "lu": 11940, "ruct": 11941, "Ġrent": 11942, "Ġmeldde": 11943, "ĠVrienden": 11944, "CE": 11945, "soorten": 11946, "Ġleder": 11947, "Ġinhoudt": 11948, "bijeenkomst": 11949, "werkings": 11950, "Ġveranderende": 11951, "Ġarch": 11952, "ĠRoos": 11953, "antwoord": 11954, "Ġzwembaden": 11955, "Ġwaarborg": 11956, "ĠZoom": 11957, "Ā": 11958, "Ġopgeroepen": 11959, "Ġ87": 11960, "ĠTravel": 11961, "ĠJoost": 11962, "moment": 11963, "seweg": 11964, "pal": 11965, "Ã¡n": 11966, "ĠCou": 11967, "Ġtransformatie": 11968, "ĠgÃ©Ã©n": 11969, "Ġnauwe": 11970, "zoon": 11971, "ector": 11972, "Ġ220": 11973, "Ġruw": 11974, "Ġgroet": 11975, "zorgen": 11976, "ĠBBQ": 11977, "Ġreistijd": 11978, "ĠDO": 11979, "ĠUN": 11980, "ĠRun": 11981, "scher": 11982, "ĠAmerikaans": 11983, "Ġbruikbaar": 11984, "ikkel": 11985, "ĠFull": 11986, "ĠJoseph": 11987, "drager": 11988, "Stichting": 11989, "Ġgehanteerd": 11990, "Ġbars": 11991, "ĠOntmoet": 11992, "ĠDagblad": 11993, "boerderij": 11994, "ĠAccount": 11995, "ijzer": 11996, "Ġrep": 11997, "Ġhandje": 11998, "Ġstapje": 11999, "Ġfocussen": 12000, "Ġmeen": 12001, "Ġloslaten": 12002, "Ġpijp": 12003, "oter": 12004, "iseerde": 12005, "Ġscoorde": 12006, "Ġvrijstelling": 12007, "Ġbruggen": 12008, "Ġbezorging": 12009, "Ġgroots": 12010, "Ġpret": 12011, "**": 12012, "ĠKop": 12013, "ĠFot": 12014, "Ġwebdesign": 12015, "EX": 12016, "zending": 12017, "studio": 12018, "Ġafk": 12019, "etti": 12020, "ĠCompany": 12021, "paal": 12022, "Ġkeuring": 12023, "ĠAbout": 12024, "Ġomgeven": 12025, "reglement": 12026, "Ã¸": 12027, "Ġveer": 12028, "agon": 12029, "Ġpolder": 12030, "ĠKids": 12031, "tro": 12032, "urende": 12033, "oefening": 12034, "Ġzoekopdracht": 12035, "ags": 12036, "Ġinnovaties": 12037, "ĠLief": 12038, "Ġstreep": 12039, "Ġschuil": 12040, "ĠSab": 12041, "Ġpannen": 12042, "Ġloc": 12043, "Ġaardappelen": 12044, "ĠParty": 12045, "Ġkra": 12046, "Ġtrouwe": 12047, "ĠJur": 12048, "Ġreservering": 12049, "Ġjon": 12050, "ĠSem": 12051, "Wh": 12052, "restaurant": 12053, "schuld": 12054, "Ġovertreding": 12055, "Ġresort": 12056, "Ġdoelgroepen": 12057, "150": 12058, "Ġbeeldscherm": 12059, "Ġpeuter": 12060, "Ġopstaan": 12061, "Ġzinvol": 12062, "Vorige": 12063, "ĠPic": 12064, "Ġspambots": 12065, "Ġuitgeven": 12066, "cker": 12067, "ĠgeÃ«x": 12068, "Ġstuurde": 12069, "FF": 12070, "Ġconferentie": 12071, "Ġbankrekening": 12072, "oorlog": 12073, "Ġdichtstbijzijnde": 12074, "Ġofzo": 12075, "Ġsticker": 12076, "Ġweekendje": 12077, "Ġvice": 12078, "Ġgemakken": 12079, "aps": 12080, "Ġstatistieken": 12081, "familie": 12082, "Ġcollectief": 12083, "Ġvlinder": 12084, "opties": 12085, "Ġsystem": 12086, "Ġeetkamer": 12087, "ĠHaven": 12088, "Ġstoringen": 12089, "Ġvetten": 12090, "Ġhoofdzakelijk": 12091, "Ġverhelpen": 12092, "ĠKam": 12093, "ĠParkeer": 12094, "ieker": 12095, "Ġelektronisch": 12096, "ĠRegio": 12097, "huisje": 12098, "Ġhits": 12099, "ĠDick": 12100, "fre": 12101, "Ġslip": 12102, "oute": 12103, "Ġstaf": 12104, "ĠJohanna": 12105, "alleen": 12106, "???": 12107, "Ġfotograf": 12108, "Ġjapanse": 12109, "ĠExpress": 12110, "Ġontwerpers": 12111, "ilis": 12112, "Ġomstreken": 12113, "Ġmunten": 12114, "Ġonverwacht": 12115, "ĠHom": 12116, "dal": 12117, "Ġgewoonlijk": 12118, "Ġveelzijdig": 12119, "Ġautoverzekering": 12120, "Zondag": 12121, "ipe": 12122, "ĠMass": 12123, "Ġcommun": 12124, "ĠOnderweg": 12125, "Ġgrove": 12126, "Ġregelmatige": 12127, "Ġbreekt": 12128, "ĠVragen": 12129, "Ġrijp": 12130, "ules": 12131, "Ġbenaderd": 12132, "Ġvegan": 12133, "Ġresulteert": 12134, "Ġdronken": 12135, "noten": 12136, "Ġtweetal": 12137, "software": 12138, "Ġaantrekken": 12139, "ĠZit": 12140, "Ġstoff": 12141, "ugen": 12142, "ĠZolang": 12143, "Hotel": 12144, "Ġmechanische": 12145, "Ġzusje": 12146, "Ġverkle": 12147, "woude": 12148, "Ġzend": 12149, "vd": 12150, "Oosten": 12151, "Ġgepl": 12152, "Ġwetsvoorstel": 12153, "Ġwillekeurige": 12154, "ijm": 12155, "Begin": 12156, "oernooi": 12157, "Ġaquarium": 12158, "Ġvergoeden": 12159, "Rond": 12160, "ĠTime": 12161, "Ġprikk": 12162, "comp": 12163, "Ġbedoelt": 12164, "ĠEem": 12165, "light": 12166,
[...]
