[UNK]
[CLS]
[SEP]
[PAD]
[MASK]
!
"
&
'
(
)
,
-
.
/
0
1
2
3
4
5
6
7
8
9
:
;
?
A
B
C
D
E
F
G
H
I
J
K
L
M
N
O
P
R
S
T
U
V
W
Y
Z
`
b
d
v
w
z
«
»
–
‘
’
“
”
##!
##"
##&
##'
##(
##)
##,
##-
##.
##/
##0
##1
##2
##3
##4
##5
##6
##7
##8
##9
##:
##;
##?
##A
##B
##C
##D
##E
##F
##G
##H
##I
##J
##K
##L
##M
##N
##O
##P
##R
##S
##T
##U
##V
##W
##Y
##Z
##`
##a
##b
##c
##d
##e
##f
##g
##h
##i
##j
##k
##l
##m
##n
##o
##p
##q
##r
##s
##t
##u
##v
##w
##x
##y
##z
##«
##»
##è
##é
##ë
##ï
##ó
##ö
##–
##‘
##’
##“
##”
##„
...
00
000
00u
01
02
020
03
04
05
050
06
07
08
09
0900
10
100
1000
101
102
103
104
105
106
107
108
109
11
110
111
112
115
116
117
118
12
120
1200
121
124
125
126
127
128
13
130
1300
135
136
137
14
140
1400
144
145
15
150
1500
155
157
16
160
1600
165
167
168
17
170
1700
175
176
177
178
1795
17u
18
180
1800
1814
1830
1831
1835
1836
1837
1838
1839
1840
1841
1843
1844
1847
1850
1854
1858
1863
1864
1868
1869
1871
1874
1875
1876
1878
1879
1880
1881
1884
1885
1886
1887
1888
1889
1890
1891
1892
1893
1894
1895
1896
1897
1898
1899
19
190
1900
1901
1902
1903
1904
1905
1906
1907
1908
1909
1910
1911
1912
1913
1914
1915
1916
1917
1918
1919
1920
1921
1922
1923
1924
1925
1926
1927
1928
1929
1930
1931
1932
1933
1934
1935
1936
1937
1938
1939
1940
1941
1942
1943
1944
1945
1946
1947
1948
1949
1950
1951
1952
1953
1954
1955
1956
1957
1958
1959
1960
1961
1962
1963
1964
1965
1966
1967
1968
1969
1970
1971
1972
1973
1974
1975
1976
1977
1978
1979
1980
1981
1982
1983
1984
1985
1986
1987
1988
1989
1990
1991
1992
1993
1994
1995
1996
1997
1998
1999
19de
20
200
2000
2001
2002
2003
2004
2005
2006
2007
2008
2009
2010
2011
2012
2013
2014
2015
2016
2017
2018
2019
2020
2021
20ste
21
210
22
220
225
23
230
24
240
25
250
2500
26
260
27
270
28
280
29
30
300
3000
31
32
320
33
34
35
350
3500
36
360
37
38
39
3D
40
400
4000
41
42
43
44
45
450
46
47
48
480
49
4x100
50
500
5000
51
52
53
538
54
55
550
56
57
58
59
60
600
6000
61
62
63
64
65
650
66
67
68
69
70
700
7000
71
72
73
74
747
75
750
76
77
78
79
80
800
8000
81
82
83
84
85
850
86
87
88
89
90
900
9000
91
92
93
94
95
96
97
98
99
A1
A2
A4
AA
AB
ABC
ABN
AC
ACV
AD
ADO
AE
AFC
AFM
AFP
AG
ALLE
ALS
AM
AMSTERDAM
ANC
ANP
ANTWERPEN
ANW
AOW
AP
APPLAUS
AS
ATP
AVRO
AZ
Aa
Aal
Aalbers
Aalsmeer
Aalst
Aalter
Aan
Aandacht
Aangezi
Aanvaard
Aanvankelijk
Aar
Aard
Aarde
Aardig
Aaron
Aarschot
Aart
Aartsen
Ab
Abb
Abbas
Abbey
Abdel
Abdij
Abdul
Abdullah
Abe
Abel
Aberdeen
Abigail
Abonnee
About
Abraham
Abram
Abu
Ac
Academ
Academie
Academisch
Acantho
Acc
Ach
Achilles
Achmea
Acht
Achter
Achterhoek
Achttien
Acker
Acri
Acro
Act
Acteur
Actie
Actrice
Ad
Ada
Adam
Adams
Addis
Adel
Adem
Adidas
Admiraal
Admiral
Adolf
Adri
Adriaan
Adriaanse
Adriaen
Adrian
Adventure
Advies
Advocaat
Advocaten
Aegon
Aero
Aerts
Aes
Af
Afdeling
Affair
Afgevaardigden
Afghaans
Afghan
Afghanistan
Afhankelijk
Africa
Afrika
Afrikaans
Afrikane
Afro
Afwezig
Ag
Aga
Agassi
Agatha
Agenc
Agent
Agenten
Agentschap
Agn
Agnes
Agost
Agr
Agu
Ah
Aha
Ahmad
Ahmed
Aho
Ahold
Ai
Aid
Air
Airbus
Airlines
Airport
Airways
Ajacied
Ajah
Ajax
Ak
Akademie
Akkoord
Akzo
Al
Ala
Alabam
Alain
Alan
Alaska
Alba
Albanes
Albanezen
Albanië
Albert
Alberto
Albrecht
Album
Alcohol
Aldus
Alec
Alejandr
Aleksandr
Aleksej
Aleppo
Alessandr
Alex
Alexander
Alexandr
Alexandrië
Alexis
Alfa
Alfons
Alfred
Algemeen
Algemene
Algerije
Algerijn
Ali
Alice
Alici
Alison
Alitalia
Alkmaar
All
Allah
Allan
Alle
Alleen
Allemaal
Allen
Alles
Alliance
Alliantie
Alma
Almelo
Almere
Alonso
Alpen
Alpes
Alpha
Alphen
Alphons
Als
Alsjeblieft
Alstublief
Alt
Altijd
Alva
Alweer
Alzheimer
Am
Ama
Amalia
Amanda
Amateur
Amazon
Ambacht
Amber
Ambrosi
Ambtenaren
Ameli
America
American
Amerika
Amerikaan
Amerikaans
Amerikaanse
Amerikanen
Amersfoort
Ami
Amnesty
Amo
Amphi
Amro
Amstel
Amstelveen
Amsterdam
Amsterdammer
Amsterdamse
Amy
An
Ana
Analist
Anatoli
Anciaux
And
Ander
Andere
Anderen
Anderhalf
Anderlecht
Anders
Anderson
Andre
Andrea
Andreas
Andrej
Andrew
Andri
Andries
Android
André
Andy
Ang
Angel
Angela
Angeles
Angelina
Angelo
Angelsaksisch
Angie
Angola
Angst
Angélique
Anhalt
Animal
Anis
Anit
Anja
Ank
Ankara
Ann
Anna
Annabel
Annan
Anne
Anneke
Annelies
Annemarie
Annette
Annie
Anouk
Ant
Antarctic
Anth
Antho
Anthony
Anti
Antillen
Antilliaans
Antillian
Antoine
Antoinette
Anton
Antonia
Antonio
Antonius
Antwerp
Antwerpen
Antwerpse
Antwoord
Ap
Apache
Apeldoorn
Aph
Apo
Apollo
App
Appel
Apple
April
Aqua
Aquita
Ar
Ara
Arab
Arabieren
Arabisch
Arabië
Arafat
Arane
Arb
Arbeid
Arbeids
Arc
Arcadi
Arcelor
Arch
Archeolog
Archief
Architect
Ard
Ardenne
Ardennen
ArenA
Arena
Arend
Arg
Argent
Argentijn
Argentijns
Argentinië
Ari
Arian
Arie
Ariel
Aristoteles
Arizona
Arj
Arjan
Ark
Arkon
Arkonid
Arm
Armand
Arme
Armeens
Armenië
Armstrong
Arn
Arnau
Arne
Arnhem
Arnhemse
Arno
Arnold
Arriva
Arrow
Arsenal
Art
Artemis
Arthur
Arti
Artikel
Arts
Artsen
Aruba
As
Ash
Ashle
Asil
Asp
Assa
Assad
Assche
Asse
Assen
Association
Astana
Aston
Astrid
Astro
At
Ath
Athene
Athletic
Atjeh
Atlan
Atlanta
Atlantic
Atlantis
Atlantische
Atlas
Atletic
Atletiek
Atlétic
Atta
Atto
Au
Aub
Audi
Audrey
August
Augustinus
Augustus
Aureli
Aurora
Aus
Auschwitz
Austin
Austr
Australian
Australisch
Australië
Australiër
Auto
Autoriteit
Auvergne
Av
Ava
Avalon
Ave
Avenue
Avi
Aviv
Avond
Avonds
Award
Awards
Ax
Axel
Ay
Ayl
Az
Azerbeidzjan
Aziatisch
Aziz
Azië
Aznar
B1
BA
BAM
BBC
BE
BEF
BEL
BER
BIJLAGE
BK
BMW
BNN
BNP
BO
BR
BRUSSEL
BSE
BTW
BV
Ba
Baal
Baan
Baar
Baarle
Baas
Bab
Babel
Baby
Babylon
Bac
Bach
Back
Bad
Baden
Baet
Bag
Bagdad
Bah
Bahama
Bahn
Bahrein
Bailey
Bak
Baker
Bakker
Bal
Baldwin
Bali
Balk
Balkan
Balkenende
Ball
Ballast
Ballet
Baltimore
Baltisch
Bam
Ban
Band
Bang
Bangkok
Bangladesh
Bank
Banks
Baptist
Bar
Bara
Barac
Barak
Barb
Barbara
Barbie
Barcelona
Barclay
Barend
Barnard
Barne
Barneveld
Baron
Barr
Barry
Bart
Bartholome
Bas
Basel
Basil
Baskenland
Basketbal
Baskisch
Bast
Basten
Bastenaken
Bat
Bata
Batavia
Bates
Bath
Batt
Battle
Bau
Baudet
Bauer
Bay
Bayer
Bayern
Baz
Bazel
Be
Bea
Beach
Beat
Beatles
Beatrice
Beatrix
Beau
Beaumont
Beauty
Beck
Becker
Beckham
Bed
Bedank
Bedenk
Bedoel
Bedrijf
Bedrijven
Beek
Beeld
Beenh
Beer
Beernem
Beers
Beerschot
Beethoven
Beg
Begin
Begrijp
Beheer
Beide
Beieren
Beiers
Beijer
Beijing
Bek
Bekaert
Bekende
Beker
Bekijk
Bel
Belang
Belangrijk
Belasting
Belastingdienst
Beleggers
Belfas
Belg
Belgacom
Belgen
Belgian
Belgique
Belgisch
Belgische
Belgium
België
Belgrado
Bell
Bella
Belle
Beloof
Bemb
Ben
Beneden
Benedict
Benedictus
Benelux
Benfica
Beng
Benjamin
Benn
Bennett
Bent
Bepaald
Ber
Berber
Berchem
Berend
Berg
Bergen
Berger
Bergh
Bergkamp
Bericht
Beringen
Berk
Berkel
Berkeley
Berlage
Berlare
Berlijn
Berlijns
Berlin
Berlusconi
Bern
Bernadette
Bernard
Bernhard
Bernie
Beroep
Berry
Bert
Bertens
Berth
Bertie
Bertrand
Bes
Beschikking
Besef
Besluit
Best
Beste
Bestuur
Bet
Beteken
Beter
Beth
Bethlehem
Betsy
Bettin
Betty
Betuwe
Beuk
Beuningen
Beurs
Bever
Beveren
Beverl
Bevrijdings
Beweging
Bewoners
Bey
Beyoncé
Bezoekers
Bi
Bianc
Biblio
Bibliotheek
Bie
Bier
Big
Biggles
Bij
Bijbel
Bijenkorf
Bijlmer
Bijna
Bijvoorbeeld
Bijzonder
Bil
Bilbao
Bild
Bill
Billboard
Billie
Billy
Bilt
Bilzen
Bin
Binnen
Binnenhof
Binnenlands
Bio
Bir
Bird
Birgit
Birma
Birmingham
Bis
Bishop
Bisschop
Bjorn
Björk
Björn
Bl
Bla
Black
Blackburn
Blair
Blake
Blanc
Blanche
Blank
Blankenberge
Blatte
Blauw
Blauwe
Blaze
Ble
Bleek
Blij
Blijf
Blijkbaar
Blind
Blo
Block
Bloed
Bloem
Bloemendaal
Blok
Blokker
Blom
Blond
Blood
Bloom
Bloomberg
Blu
Blue
Blues
Bo
Board
Bob
Bobby
Bocholt
Bock
Bod
Body
Boe
Boeck
Boedapest
Boeddha
Boeing
Boek
Boekarest
Boeken
Boel
Boer
Boeren
Bog
Bogaert
Boges
Boh
Bohemen
Bois
Bok
Bol
Bolivia
Bolkestein
Bolle
Bologna
Bom
Bomb
Bombay
Bomhoff
Bommel
Bon
Bonaparte
Bond
Bondgenoten
Bondscoach
Bondsdag
Bondsrepubliek
Bonn
Bonnie
Boo
Booger
Book
Boom
Boon
Boonen
Boonstra
Boot
Bor
Bordeaux
Borg
Borgerhout
Boris
Born
Bornem
Borneo
Borre
Borsato
Borst
Bos
Bosch
Bosmans
Bosnisch
Bosnië
Boss
Bossche
Boston
Bosz
Bot
Botswana
Bou
Bouch
Boudewijn
Boulevard
Bour
Bourbon
Bourg
Bourgeois
Bourgogne
Bourgondië
Bourne
Boussoufa
Bouterse
Bouw
Boven
Bovendien
Bow
Bowie
Bowl
Box
Boxtel
Boy
Boys
Br
Bra
Braak
Brabander
Brabant
Brabantse
Brachy
Brad
Bradley
Brahms
Brain
Brakel
Bram
Bran
Brand
Brandenburg
Brandon
Brandt
Brandweer
Brass
Brasschaat
Braun
Bravo
Braziliaan
Braziliaans
Brazilianen
Brazilië
Bre
Break
Brecht
Breda
Bredene
Bree
Brei
Bremen
Bremer
Brenda
Breng
Brent
Bres
Bretagne
Brett
Breuk
Bri
Brian
Bridge
Brief
Brig
Brigade
Brighton
Brigitte
Brin
Brink
Brinkhorst
Brinkman
Bristol
Brit
Britain
Britanni
Britis
Britney
Brits
Britse
Britt
Brittannië
Britten
Bro
Broadway
Brod
Broeck
Broeder
Broek
Broer
Brom
Bron
Bronckhorst
Brood
Brooklyn
Brother
Brothers
Brouwer
Brouwers
Brown
Bru
Bruce
Brug
Brugge
Brugse
Bruijn
Bruin
Bruinsma
Brun
Bruno
Brussel
Brussels
Brusselse
Bruxelles
Bruyn
Bryan
Bryn
Bu
Buch
Buck
Buckingham
Bud
Buddy
Bueno
Buffalo
Bug
Buggenhout
Bui
Building
Buiten
Buitenlands
Bul
Bulgaars
Bulgarije
Bull
Bully
Buma
Bun
Bundes
Bundesliga
Bur
Burcht
Bureau
Burg
Burgemeester
Burger
Burgeroorlog
Burke
Burn
Burton
Burundi
Bus
Bush
Business
Bussemaker
Bussum
But
Butler
Buur
Buy
Buzz
By
Byrne
Byzantijnse
Bé
Bö
C6
C7
C8
CA
CAO
CBS
CD
CDA
CDU
CIA
CNN
CNV
CO
CO2
COMMISSIE
CPB
CS
CSU
CVP
Ca
Cab
Cabaret
Cad
Cadfael
Cadillac
Caesar
Café
Cal
Calais
Calgar
California
Californische
Californië
Call
Calli
Calv
Calvin
Cam
Camar
Camb
Cambodja
Cambridge
Cambuur
Camera
Cameron
Camill
Camp
Campbell
Campert
Campo
Can
Canada
Canadees
Canades
Canadezen
Canal
Canarisch
Cand
Cannes
Cant
Canvas
Cap
Capelle
Capital
Capp
Capri
Captain
Car
Cara
Carab
Card
Cardi
Cardif
Carel
Carey
Caribisch
Carine
Carl
Carla
Carlier
Carlo
Carlos
Carmen
Carol
Carolina
Caroline
Carpenter
Carr
Carrefour
Carrie
Carré
Carter
Cas
Casa
Casablanca
Casca
Casey
Cash
Casino
Casper
Cassandra
Cassi
Cast
Castel
Castell
Castilië
Castle
Castro
Cat
Catal
Catalaans
Catalonië
Cate
Cath
Catharina
Catherine
Cathy
Cato
Cau
Cav
Caval
Caïro
Ce
Cecil
Cecilia
Cees
Cel
Celeb
Celest
Celi
Cell
Celsius
Celtic
Cemetery
Censu
Cent
Center
Centraal
Central
Centrale
Centre
Centrum
Century
Cer
Cera
Cercle
Cesar
Ceulemans
Ch
Cha
Chaim
Chal
Challenge
Cham
Chamber
Champ
Champagne
Champions
Championship
Chan
Chang
Channel
Chantal
Chap
Char
Charl
Charleroi
Charles
Charlie
Charlotte
Chase
Chavez
Che
Chef
Chelsea
Chem
Chen
Cheney
Cher
Chester
Chev
Chevrolet
Chi
Chicago
Chil
Child
Children
Chileens
Chili
China
Chinees
Chinese
Chinezen
Chip
Chirac
Chiro
Chloe
Chlor
Cho
Chor
Chr
Chris
Christ
Christelijk
ChristenUnie
Christiaan
Christian
Christie
Christina
Christine
Christmas
Christoph
Christophe
Christopher
Christus
Chrys
Chrysom
Chu
Chuck
Church
Churchill
Ci
Cicero
Cijfer
Cin
Cind
Cinema
Cir
Circuit
Circus
Citadel
Citi
Citroën
City
Civil
Cla
Claes
Claeys
Claire
Clara
Clare
Clarenc
Clark
Classic
Claude
Claudi
Claudia
Claus
Clay
Cle
Clemens
Clement
Cleopatra
Cler
Clerck
Clercq
Cleveland
Cli
Cliff
Clijsters
Clint
Clinton
Clo
Clooney
Close
Cloud
Club
Co
Coach
Coalitie
Coast
Cob
Coca
Cock
Coco
Cocu
Code
Coen
Cohen
Col
Cola
Cole
Colin
Coll
Collectie
Collega
College
Collins
Colo
Colomb
Colombia
Colombiaans
Colorado
Colruyt
Columb
Columbia
Columbus
Com
Comb
Come
Comedy
Comité
Command
Commandant
Comme
Commer
Commissaria
Commissaris
Commissie
Commission
Commun
Communicatie
Communication
Communistisch
Comp
Compagnie
Company
Computer
Comté
Con
Concert
Concertgebouw
Conclusie
Concre
Concurrent
Conference
Congo
Congole
Congres
Coninck
Conn
Connecti
Connexxion
Connie
Connor
Conrad
Cons
Conserva
Conservatieve
Conservatorium
Constance
Constant
Constantijn
Constantinopel
Consult
Consumenten
Contact
Contador
Continental
Control
Conventie
Cook
Cool
Cooper
Cop
Copa
Copp
Coppens
Cor
Corb
Cord
Corinn
Corn
Cornelia
Cornelis
Cornelisse
Cornelius
Cornwall
Corporation
Corps
Corsica
Corus
Cos
Costa
Costello
Cott
Cou
Council
Count
Country
Couperus
Cour
Courant
Court
Covenant
Cox
Cra
Craig
Cramb
Cran
Crawford
Cre
Creek
Crem
Crest
Cri
Cris
Critici
Cro
Croo
Cross
Crow
Cru
Cruijff
Cruise
Cruz
Crypt
Crystal
Cu
Cuba
Cubaans
Cul
Culture
Culturel
Cultuur
Cup
Cur
Cura
Curtis
Cuyp
Cy
Cycl
Cynthia
Cyprian
Cypriot
Cyprus
Cyr
Cyrus
D66
DA
DAT
DC
DDR
DE
DEN
DI
DJ
DL
DNA
DOELPUNT
DOOR
DSM
Da
Daan
Daar
Daarmee
Daarna
Daarnaast
Daarom
Daarop
Daarover
Daartoe
Daarvan
Daarvoor
Dacht
Daems
Dag
Dagblad
Dagelijks
Dahl
Dail
Daimler
Daisy
Dakar
Dakota
Dal
Dale
Dall
Dallas
Dalton
Dam
Damascus
Damien
Damme
Damon
Damrak
Dan
Dance
Daniel
Daniël
Dank
Danny
Danton
Daphne
Dar
Darfur
Dark
Darwin
Das
Dat
Dauphin
Dave
Davenport
David
Davids
Davies
Davis
Davy
Day
De
Dead
Debbie
Deborah
December
Decker
Dedecker
Deel
Deelnemer
Deerlijk
Defensie
Dehaene
Deinze
Deirdre
Dekker
Deleu
Delft
Delfzijl
Delh
Delhaize
Delta
Democra
Democraten
Democratie
Democratisch
Dender
Dendermonde
Denemarken
Denis
Denk
Denkt
Dennis
Deportivo
Derby
Derde
Derek
Dergelijk
Derksen
Dertien
Dertig
Design
Desmet
Dessel
Detroit
Deurne
Deutsche
Deutschland
Deventer
Dewael
Dexia
Dexter
Deze
Dhabi
Di
Dia
Diamant
Diamond
Diana
Diane
Dic
Dicht
Dichter
Dick
Dicran
Didier
Die
Diederik
Dienst
Diep
Dierckx
Dieren
Diest
Dieter
Dietrich
Digital
Dijk
Dijksma
Dijkstal
Dijkstra
Dijssel
Dik
Dikke
Diksmuide
Dil
Dilbeek
Dill
Dimitri
Dina
Dinamo
Ding
Dino
Dinsdag
Dio
Dir
Direct
Directeur
Dirk
Dis
Disco
Discovery
Disney
Distri
District
Dit
Dittrich
Diverse
Divisie
Division
División
Dj
Djok
Dmitri
Do
Dob
Dobb
Doc
Doch
Dochter
Doctor
Document
Documentaire
Dode
Dodge
Doe
Doel
Doelman
Doelpunten
Doesburg
Doet
Doetinchem
Dog
Dokter
Dol
Dolf
Dolicho
Doll
Dolly
Dom
Domin
Dominic
Dominicaans
Dominique
Don
Donald
Donau
Donder
Donderdag
Donetsk
Dong
Donker
Donna
Donner
Donovan
Dood
Door
Doorgaan
Doornik
Dor
Dora
Dordrecht
Dordtse
Dorian
Dorothe
Dorothy
Dorp
Dortmund
Dost
Dou
Doug
Douglas
Douwe
Dover
Dow
Down
Dr
Dra
Draai
Draak
Dracht
Drag
Dragon
Drake
Draken
Drama
Dre
Dream
Drees
Drenthe
Drents
Dresden
Drew
Drie
Dries
Drink
Drive
Dro
Drog
Drongen
Droog
Droom
Dru
Drugs
Druk
Drum
Druïde
Du
Dubai
Dubbel
Dublin
Dubois
Duc
Duck
Duffel
Dui
Duidelijk
Duin
Duinkerke
Duisburg
Duisenberg
Duister
Duits
Duitsch
Duitse
Duitser
Duitsers
Duitsland
Duitstalige
Duivel
Duivels
Duizend
Duke
Dul
Dun
Duncan
Dupont
Dur
Dus
Dutch
Dutchbat
Dutroux
Duur
Dwa
Dwars
Dwerg
Dy
Dyck
Dylan
Dynamo
Dé
ECB
EEG
EEN
EG
EIND
EK
EMAILADRES
EN
ETA
EU
EUR
EURO
EUROPESE
Eagles
Earl
Earth
East
Easy
Eb
Eberhard
Ec
Echt
Echter
Eck
Eco
Ecolo
Econom
Economic
Economie
Economisch
Economist
Ecuador
Ed
Eddie
Eddy
Edel
Edgar
Edinburgh
Edison
Edith
Edmond
Edmund
Eduard
Edward
Edwards
Edwin
Eeckhout
Eed
Eef
Eeklo
Eem
Een
Eendracht
Eer
Eerder
Eerlijk
Eerst
Eerste
Eet
Eeuw
Eeuwig
Effect
Efteling
Eg
Egbert
Egmond
Egypte
Egyptena
Egyptisch
Eh
Ei
Eigen
Eigenaar
Eigenlijk
Eijk
Eiland
Eilanden
Ein
Eind
Eindhoven
Eindhovense
Einstein
Eisen
Ek
El
Ela
Elaine
Elders
Eleanor
Electrabel
Electric
Electronic
Elektro
Elena
Eleonor
Elf
Elfen
Eli
Elia
Elias
Eline
Elisa
Elisabeth
Elise
Eliza
Elizabeth
Elk
Elke
Ella
Elle
Ellen
Ellie
Elliot
Ellis
Elly
Els
Elsevier
Elvis
Em
Emanuel
Emb
Emile
Emilie
Emilio
Emily
Emirate
Emma
Emmanuel
Emmen
Emmy
Emp
Empire
En
Endemol
Eneco
Energie
Energy
Enfin
Engel
Engeland
Engels
Engelsch
Engelse
Engelsen
Engelsman
Engelstalige
England
English
Enkel
Enkele
Enkhuize
Enrique
Enschede
Ensemble
Enterprise
Entertainment
Ep
Eph
Epi
Er
Eragon
Erasmus
Erdogan
Ereb
Eredivisie
Erfgoed
Erg
Ergens
Eric
Erica
Erik
Eritrea
Erlen
Ernest
Ernst
Erwin
Es
Esp
Ess
Essen
Est
Esther
Estland
Eta
Eth
Ethan
Ethiopisch
Ethiopië
Etienne
Eu
Eugene
Eugeni
Eugèn
Euh
Euloph
Eupen
Euro
Eurocommissaris
Euronext
Europa
Europe
Europeaan
European
Europees
Europese
Eurostat
Eurovisie
Eury
Ev
Eva
Evan
Evangeli
Evans
Eve
Evelien
Evelyn
Even
Ever
Evergem
Evers
Evert
Everton
Evi
Ex
Exc
Excelsior
Exchange
Expeditie
Expert
Explo
Explorer
Expo
Express
Extra
Exxon
Ey
Eyck
Eye
Eén
FA
FBI
FC
FILM
FM
FNV
FOTO
FP
Fa
Faber
Fabi
Fabian
Fabio
Fabri
Fabric
Facebook
Factor
Fail
Fair
Faith
Fal
Falco
Falk
Fall
Fame
Familie
Family
Fan
Fanny
Fanta
Fantastisch
Far
Fara
Fari
Farm
Farrell
Fashion
Fass
Fast
Fat
Fatah
Fatima
Fau
Faust
Fay
Fe
Fed
Federal
Federatie
Federer
Federic
Feest
Feit
Feitelijk
Fel
Feld
Felice
Felicit
Felipe
Felix
Fell
Femke
Fen
Fenerbah
Fer
Ferdinand
Fergus
Ferguson
Fernand
Fernando
Ferra
Ferrari
Ferrer
Ferri
Ferro
Ferry
Fest
Festival
Feyenoord
Fi
Fiat
Fidel
Field
Fiets
Fig
Fijn
Fil
Filip
Filipijnen
Filipijns
Filips
Film
Fin
Final
Financial
Financieel
Financiën
Finland
Finn
Fins
Fiona
Fir
Fire
First
Fischer
Fisher
Fitz
Five
Fl
Fla
Flag
Flam
Flanders
Flash
Fle
Fleming
Fletcher
Fleur
Flevoland
Flex
Flint
Flip
Flo
Floor
Flor
Flora
Florenc
Florent
Flori
Florian
Florida
Floris
Flower
Floyd
Flu
Fly
Flynn
Fo
Focus
Fokker
Fol
Fonds
Fons
Font
Fontaine
Food
Football
For
Forbes
Force
Ford
Forensisch
Forest
Form
Formule
Forrest
Fort
Fortis
Fortuna
Fortuyn
Forum
Foster
Foto
Foundation
Four
Fowler
Fox
Fr
Fra
Fran
France
Francesca
Francesco
Francien
Francine
Francis
Francisco
Franciscus
Franck
Franco
Frank
Frankfurt
Frankie
Franklin
Frankrijk
Frans
Fransch
Franse
Fransen
Fransman
Franstalige
Franz
Fraser
Frau
Fre
Fred
Freddie
Freddy
Frederick
Frederik
Fredrik
Free
Freedom
Freek
Frei
French
Freud
Frey
Fri
Fried
Friedrich
Fries
Friese
Friesland
Friezen
Friso
Frits
Fritz
Fro
Frodo
From
Front
Fruit
Fry
Frédéric
Fu
Fuchs
Fuck
Fuji
Ful
Full
Fun
Fund
Fur
GB
GE
GEMEENSCHAPPE
GENT
GP
GRO
GSM
GVB
Ga
Gaal
Gaan
Gaat
Gabriel
Gabrielle
Gabriël
Gal
Gala
Galapagos
Galatasaray
Galax
Galerie
Galile
Gall
Galler
Gamb
Game
Games
Gandalf
Gandhi
Gang
Gans
Ganz
Gar
Garci
Garde
Garden
Garp
Garri
Garros
Gary
Gaspar
Gast
Gasthuis
Gaston
Gastrop
Gates
Gau
Gaulle
Gay
Gaza
Gazastrook
Ge
Gebruik
Gedaan
Geduld
Gedurende
Geef
Geel
Geen
Geer
Geert
Geest
Geheel
Geheim
Gek
Gel
Geld
Gelder
Gelderland
Gelderse
Gele
Gelechi
Geleidelijk
Gelet
Gelijk
Geloof
Gelre
Geluid
Geluk
Gelukkig
Gem
Gemeenschap
Gemeenschappen
Gemeente
Gemeentelijk
Gemeenten
Gemenebest
Gemiddeld
Gemma
Gen
Gene
Generaal
General
Genesis
Geniet
Genk
Geno
Genoeg
Genootschap
Gent
Gentenaar
Gentse
Genua
Genève
Geo
Geoffrey
Geometr
Georg
George
Georges
Georgi
Georgia
Georgisch
Georgië
Ger
Geraardsbergen
Gerald
Gerard
Gerben
Gerbrand
Gerda
Gerechtsho
Gereformeerde
Gerets
Gerhard
Germaans
Germain
German
Germinal
Gerrit
Gerry
Gert
Gerw
Geschiedenis
Gesprek
Gestapo
Getuigen
Geus
Gevaert
Gevangen
Gevolg
Gew
Geweld
Geweldig
Gewest
Gewon
Gewoon
Geze
Gezi
Gezond
Gezondheidszorg
Gha
Ghana
Ghane
Ghe
Ghost
Gi
Giacom
Gian
Gianni
Gibb
Gibraltar
Gibson
Gideon
Gids
Giel
Giet
Gij
Gijs
Gil
Gilbert
Gill
Gilles
Gillia
Gillis
Gina
Ging
Ginger
Ginn
Gino
Gio
Giorgio
Giovanni
Girl
Giro
Gis
Gistel
Gister
Gisteren
Giuli
Giusepp
Gla
Glad
Glas
Glasgow
Glen
Glenn
Gli
Glimlachend
Glo
Global
Globe
Gloria
Gly
Go
God
Goddank
Godfried
Gods
Goe
Goed
Goede
Goeie
Goes
Goethe
Gogh
Goh
Gol
Gold
Golden
Goldman
Golf
Golfoorlog
Gomez
Gon
Gonzalez
Good
Google
Gooi
Goor
Goos
Goossens
Gor
Gorbatsjov
Gord
Gordon
Gore
Gorinchem
Gosseyn
Got
Gott
Gou
Goud
Gouda
Gouden
Gould
Gouverneur
Gr
Gra
Graa
Graaf
Graafschap
Grace
Grad
Graf
Graham
Grammy
Gran
Granad
Grand
Grande
Grant
Grappig
Gratis
Grave
Graven
Gray
Graz
Gre
Great
Green
Greenpeace
Greenspan
Greet
Greg
Gregor
Grens
Grenzen
Greve
Grey
Gri
Griek
Grieken
Griekenland
Grieks
Griekse
Griet
Griff
Griffin
Grijp
Grijze
Grim
Grimbergen
Gro
Groen
GroenLinks
Groene
Groenin
Groenland
Groep
Grond
Grondwet
Groningen
Groninger
Gronings
Groot
Gross
Grote
Group
Grove
Gru
Grunberg
Gu
Gua
Guardian
Guatemala
Gucci
Gucht
Gud
Guer
Guggenheim
Gui
Guido
Guil
Guillaume
Guinea
Guinee
Guinness
Gul
Gulden
Gullit
Gun
Gunnar
Gunther
Gur
Gus
Gustav
Gut
Gutenberg
Guus
Guy
Guzm
Gwen
Gwy
Gy
Gé
Gérard
Gö
Göteborg
HAAG
HEER
HET
HIJ
HO
Ha
Haacht
Haag
Haagse
Haak
Haal
Haan
Haar
Haarlem
Haarlemmer
Haarlemmermeer
Haarlemse
Haas
Haastig
Hab
Habib
Habsburg
Hack
Had
Hadden
Hag
Hagemeyer
Hagen
Hagenaar
Haha
Hahaha
Hai
Haider
Hak
Hakim
Hal
Half
Halic
Hall
Halle
Hallo
Halloween
Halt
Halve
Halverweg
Ham
Hamas
Hamburg
Hamilton
Hamme
Hammond
Hamp
Hampson
Han
Hand
Handel
Handelsblad
Hang
Hank
Hanna
Hannah
Hanne
Hanneke
Hannover
Hans
Hap
Haplo
Happy
Har
Harald
Hard
Harderwijk
Hardy
Harelbeke
Harley
Harm
Harmonie
Harold
Harper
Harriet
Harris
Harrison
Harry
Hart
Hartog
Harvey
Has
Hassan
Hasselt
Hastings
Hat
Haupt
Hauspie
Haut
Haute
Havana
Have
Haven
Haver
Havik
Hawaii
Hawaï
Hawk
Hay
Haz
Hazel
Hazes
Haïti
He
Head
Health
Heart
Heath
Heather
Heaven
Heb
Hebben
Hebreeuws
Hecke
Hector
Hed
Hedwig
Hee
Heef
Heel
Heem
Heemskerk
Heer
Heerenveen
Heerlen
Heerlijk
Hees
Hei
Heide
Heidelberg
Heidi
Heij
Heijden
Heijmans
Heijn
Heil
Heilig
Heilige
Hein
Heineken
Heinrich
Heinz
Heist
Hek
Hel
Helaas
Held
Helder
Heleen
Helemaal
Helen
Helena
Helio
Hell
Helle
Helm
Helmond
Helmut
Help
Helsinki
Hem
Hemel
Hemi
Hen
Henderson
Hendrick
Hendrickx
Hendrik
Hendrix
Henegouwen
Hengelo
Henin
Henk
Henn
Henni
Henri
Henrik
Henriëtte
Henry
Her
Heracles
Herald
Herb
Herben
Herbert
Hercule
Heren
Herentals
Herf
Herinner
Herk
Herm
Herman
Hermans
Hermeli
Hermes
Hero
Herr
Herre
Herschel
Hert
Hertog
Hertogenbosch
Hervormde
Herzegovina
Hess
Hessel
Hester
Het
Hetero
Heu
Heusden
Heuvel
Heverlee
Hewitt
Hey
Hezbollah
Hi
Hidde
Hiddin
Hielke
Hier
Hierbij
Hiermee
Hierna
Hierop
High
Highway
Hij
Hil
Hilar
Hilde
Hill
Hillar
Hilton
Hilversum
Himalaya
Hin
Hind
Hindoe
Hingis
Hir
Hiroshi
Hirsch
Hirsi
Historic
Historisch
History
Hit
Hitchcock
Hitler
Hm
Hmm
Ho
Hob
Hoboken
Hockey
Hoe
Hoegaarden
Hoek
Hoekstra
Hoessein
Hoeveel
Hoeven
Hof
Hoffman
Hofman
Hoge
Hoger
Hogeschool
Hoi
Hol
Holding
Holiday
Holl
Holland
Hollander
Hollanders
Hollandsche
Hollandse
Holleeder
Holly
Hollywood
Holmes
Holocaust
Holsbee
Holst
Holstein
Holt
Hom
Home
Homme
Homo
Hon
Hond
Honda
Honderd
Honduras
Honey
Hong
Hongaars
Hongaarse
Hongar
Hongarije
Hongkong
Honor
Hoo
Hoof
Hoofd
Hoofddorp
Hoofdpunten
Hoog
Hoogenband
Hoogeveen
Hooggerechtshof
Hoogland
Hoogovens
Hoogst
Hoogstraten
Hooijdonk
Hoop
Hoor
Hoorn
Hop
Hope
Hopkins
Hor
Horeca
Horizon
Horn
Horst
Hospital
Hoste
Hot
Hotel
Hotspur
Hou
Houd
House
Houston
Hout
Houtem
Houthalen
Hove
How
Howard
Hu
Hub
Hubert
Hudson
Hugh
Hugo
Hui
Huib
Huis
Huizen
Hul
Hulp
Hulst
Hum
Human
Hun
Hunt
Hunter
Hur
Hussein
Hutch
Hutu
Huy
Huygens
Huys
Hy
Hydro
Hydrop
Hymenopt
Hyp
Hypo
Hè
Hé
Hö
IBM
ICT
ID
II
III
IJ
IJmuiden
IJs
IJsland
IJssel
IJsselmeer
IJzer
IK
IMF
IN
IND
ING
INSE
IRA
IS
ISBN
ISO
IT
IUCN
IV
Ian
Ib
Ibiza
Ibrahim
Ibrahimovic
Ice
Ida
Idaho
Idi
Idols
Ieder
Iedere
Iemand
Ieper
Ier
Ierland
Ierse
Iets
If
Igor
Ik
Il
Ill
Illinois
Ilse
Im
Imag
Immers
Immigrati
Imp
Imperial
In
InBev
Independent
Index
India
Indiana
Indianen
Indias
Indien
Indisch
Indische
Individu
Indië
Indiër
Indonesisch
Indonesië
Industr
Industrie
Indy
Ineens
Info
Informatie
Infrastructuur
Inge
Ingrid
Inlichtingen
Inspecteur
Inspectie
Instinct
Institut
Institute
Instituut
Integendeel
Integratie
Intel
Inter
Interessant
Internationaal
International
Internationale
Internazional
Internet
Interpol
Interview
Invaller
Invest
Investment
Inwoners
Iowa
Ir
Ira
Iraaks
Iraans
Irak
Iran
Iraniër
Irene
Iris
Irma
Iron
Irving
Is
Isa
Isaac
Isabel
Isabella
Isabelle
Islam
Islamitisch
Island
Israel
Israël
Israëliet
Israëlisch
Israëliër
Istanboel
Istanbul
It
Ita
Italia
Italiaan
Italiaans
Italiaanse
Italianen
Italië
Iv
Ivan
Ivanov
Ivo
Ivoorkust
Iwan
Izegem
JAN
JC
JO
JP
Ja
Jaap
Jaar
Jaarlijks
Jabbeke
Jac
Jack
Jackie
Jackson
Jacob
Jacobs
Jacobus
Jacqueline
Jacques
Jager
Jaguar
Jaime
Jakarta
Jake
Jakob
Jamaica
Jamb
James
Jamie
Jammer
Jan
Jane
Janeiro
Janet
Janine
Janneke
Janni
Jans
Jansen
Janssen
Janssens
Japan
Japanner
Japanners
Japans
Jar
Jaren
Jarenlang
Jasmine
Jason
Jasper
Java
Javier
Jay
Jazz
Je
Jean
Jeanne
Jef
Jeff
Jefferson
Jeffrey
Jelle
Jeltsin
Jemen
Jenkins
Jenn
Jennifer
Jens
Jerem
Jeremia
Jeroen
Jerom
Jerry
Jersey
Jeruzalem
Jesper
Jess
Jesse
Jessica
Jessie
Jesus
Jette
Jeugd
Jezus
Ji
Jiang
Jihad
Jij
Jill
Jim
Jimm
Jin
Jo
Joachim
Joan
Joann
Job
Jochem
Joden
Joe
Joegosla
Joegoslavisch
Joegoslavië
Joel
Joep
Joeri
Joey
Johan
Johann
Johanna
Johannes
Johannesburg
Johansson
John
Johnny
Johnson
Johnston
Joke
Jol
Jolie
Jon
Jonas
Jonathan
Jones
Jong
Jonge
Jongens
Jongeren
Jonker
Jood
Joods
Joodse
Joop
Joost
Jor
Joram
Jord
Jordaan
Jordaanoever
Jordan
Jordanië
Jorge
Jorien
Joris
Jorritsma
Jos
Josef
Joseph
Josh
Josie
José
Jou
Journaal
Journal
Journalist
Jouw
Joyce
Jozef
Joël
Ju
Juan
Jud
Juda
Judith
Juffrouw
Juist
Jules
Juli
Julia
Julian
Juliana
Julie
Julien
Julius
Jullie
Jumbo
Jump
Jun
Juncker
Jung
Juni
Junior
Jupiler
Jupiter
Jur
Jura
Jurgen
Just
Justin
Justine
Justitie
Juventus
Jér
Jörg
KB
KBC
KFC
KLM
KN
KPM
KPN
KRO
KU
KV
Ka
Kaap
Kaapstad
Kaart
Kab
Kabila
Kabinet
Kabul
Kad
Kahl
Kahn
Kai
Kaiser
Kal
Kala
Kalf
Kali
Kalm
Kam
Kameleon
Kamer
Kamerlid
Kameroen
Kamerverkiezing
Kamp
Kampioen
Kampioenschap
Kan
Kanaal
Kansa
Kant
Kanton
Kap
Kapel
Kapelle
Kapitein
Kar
Kara
Karda
Karel
Karen
Karim
Karin
Karl
Karol
Kas
Kashmir
Kasom
Kaspar
Kasparov
Kasper
Kasteel
Kat
Kate
Katelijne
Katerin
Kath
Katherine
Katholieke
Katie
Katja
Katrien
Katrina
Katwijk
Kau
Kaukasus
Kawa
Kay
Kaz
Kazachstan
Ke
Kee
Keep
Keer
Kees
Kei
Keith
Keizer
Kel
Keller
Kelly
Keltisch
Kem
Kemp
Kempen
Ken
Kenia
Keniaans
Kenmerkend
Kenn
Kennedy
Kennelijk
Kenneth
Kennis
Kenny
Kent
Kentucky
Ker
Kerk
Kerkhof
Kerkrade
Kern
Kerry
Kerst
Kerstmis
Kes
Kessel
Ketel
Kett
Keu
Keuken
Keulen
Keur
Kevin
Key
Keyser
Kh
Kha
Khalid
Khalil
Khan
Khardan
Kho
Ki
Kick
Kid
Kiel
Kies
Kiev
Kieze
Kijk
Kiki
Kil
Kill
Kim
Kimberl
Kin
Kind
Kinder
Kinderen
King
Kinshasa
Kip
Kir
Kirch
Kirk
Kirsten
Kiss
Kit
Kitty
Kla
Klaar
Klaas
Klaassen
Klanten
Klara
Klasse
Klassiek
Klaus
Klaver
Kle
Klei
Klein
Kleine
Klerk
Kleur
Kli
Klik
Klim
Klimaat
Klink
Klinkhamer
Klo
Klooster
Klop
Klu
Kluivert
Knack
Knap
Kne
Kni
Knight
Kno
Knokke
Knoops
Know
Knu
Ko
Koch
Koe
Koek
Koekelare
Koel
Koeman
Koen
Koender
Koerden
Koerdisch
Koers
Koets
Koeweit
Koffie
Kofi
Kohl
Kok
Koksijde
Kol
Koll
Kolonel
Kom
Komend
Kompany
Komt
Kon
Kong
Koning
Koningin
Koninginnedag
Konings
Koninklijk
Koninklijke
Koninkrijk
Kontich
Kooi
Kook
Kool
Koop
Koophandel
Koopman
Koos
Kooten
Kop
Kopenhagen
Koppel
Koppen
Kor
Koran
Korea
Koreaanse
Korps
Kort
Korte
Kortemark
Kortrijk
Kos
Kosova
Kosovaars
Kosovo
Kost
Koster
Kot
Kou
Koude
Kr
Kra
Krabb
Kracht
Krajicek
Krakau
Kramer
Krant
Kre
Kremlin
Kreta
Kri
Krijg
Krijt
Krim
Kris
Krist
Kristin
Kristof
Kritiek
Kro
Kroat
Kroatisch
Kroatië
Kroes
Krol
Krom
Kron
Kroon
Kru
Kruibeke
Kruid
Kruij
Kruis
Kruishoutem
Ku
Kuifje
Kuij
Kuip
Kuiper
Kul
Kun
Kunnen
Kunst
Kunsten
Kunsthal
Kunt
Kur
Kurt
Kust
Kuurne
Kuyper
Kwa
Kwaad
Kwam
Kwart
Kwi
Ky
Kyle
Kyoto
Kö
Köhler
Köln
König
LA
LEUVEN
LONDEN
LPF
La
Laag
Laan
Laar
Laat
Laatst
Laatste
Lab
Labour
Lac
Lach
Lachend
Laden
Ladies
Lady
Lag
Lage
Lager
Lagerhuis
Lago
Lake
Lam
Lamb
Lambert
Lambrecht
Lammers
Lamp
Lan
Lanaken
Lance
Lancelot
Land
Landbouw
Landelijk
Landen
Landis
Landkreis
Landuyt
Lang
Lange
Langs
Langzaam
Lanka
Lanotte
Lap
Lar
Lara
Larry
Lars
Larsson
Las
Last
Lat
Latem
Laten
Later
Latijn
Latijns
Lau
Laura
Laure
Lauren
Laurenc
Laurens
Laurent
Laurie
Laurus
Lausann
Lauwe
Lauwers
Law
Lawrence
Lazio
Le
Lea
League
Leb
Lebbeke
Lede
Leden
Lee
Leeds
Leef
Leefbaar
Leefmilieu
Leeftijd
Leen
Leer
Leerlingen
Lees
Leeuw
Leeuwarde
Leeuwen
Lef
Lefevere
Leg
Legend
Leger
Legio
Lehman
Lei
Leicester
Leid
Leiden
Leider
Leidse
Leigh
Leipzig
Lekker
Lelystad
Lem
Lemmens
Len
Lena
Lenin
Lennik
Lennon
Lente
Leo
Leon
Leonard
Leonardo
Leonie
Leontien
Leopold
Leopoldsburg
Lep
Lepto
Lernou
Les
Leslie
Let
Leterme
Letland
Letter
Leuc
Leuk
Leur
Leuven
Leuvense
Lev
Leven
Leverkusen
Levi
Lew
Lewis
Lex
Ley
Leys
Li
Liam
Lib
Libane
Libanon
Liber
Liberal
Liberia
Libert
Liberty
Libisch
Libië
Licht
Lid
Lieb
Liechtenstein
Lied
Lief
Liefde
Liefst
Lieke
Lier
Lierse
Lies
Liesbeth
Lieve
Liever
Life
Lig
Liga
Light
Ligt
Lij
Lijk
Lijn
Lijst
Like
Lili
Lilian
Lille
Lilli
Lily
Lim
Lima
Limburg
Limburger
Limburgse
Limon
Lin
Lincoln
Lind
Linda
Linde
Linden
Lindsay
Line
Ling
Link
Links
Linnaeus
Linux
Lion
Lionel
Lip
Lippens
Lis
Lisa
Lissabon
Liszt
Lit
Literatuur
Lith
Litouwen
Litouws
Little
Liv
Live
Liverpool
Livingston
Liz
Lizzie
Lloyd
Lo
Lob
Loc
Lochristi
Lock
Lod
Lodewijk
Log
Logan
Logisch
Loire
Lok
Lokale
Lokeren
Lom
Lombard
Lombardije
Lommel
Lon
Londen
Londens
Londerzeel
London
Long
Loo
Loon
Loop
Loper
Lopez
Lor
Lord
Lorenzo
Lori
Los
Lot
Loterij
Lotharingen
Lotte
Lotto
Lou
Louis
Louise
Louisian
Lourdes
Louvière
Louvre
Louw
Love
Low
Lowlands
Lu
Lub
Lubbers
Luc
Luca
Lucas
Lucht
Luchthaven
Luchtvaart
Lucia
Luciano
Lucien
Lucy
Lud
Ludo
Ludwig
Lufthansa
Luigi
Luik
Luikse
Luis
Luister
Luitenant
Luk
Lukas
Luke
Lulu
Lum
Lummen
Luna
Lund
Lust
Lut
Luther
Luuk
Lux
Luxemburg
Luxemburgse
Luy
Ly
Lycaen
Lycos
Lydia
Lyn
Lynch
Lynley
Lynn
Lyon
Lé
Léon
Löw
MA
MAR
ME
MET
MH
MHz
MI
MKB
MO
MR
MTV
Ma
Maagd
Maaike
Maak
Maakt
Maan
Maandag
Maar
Maarten
Maas
Maaseik
Maasmechelen
Maastricht
Maat
Maatschappelijk
Maatschappij
Mabel
Mac
Maccabi
Macedonisch
Macedonië
Mach
Machelen
Machine
Macht
Mack
Macro
Macron
Mad
Madagaskar
Madame
Madd
Made
Madeleine
Madis
Madonna
Madrid
Maduro
Maes
Mag
Magazine
Magda
Magdalena
Maggie
Magic
Magnus
Mah
Maha
Mahler
Mai
Maigret
Mail
Main
Maj
Majesteit
Major
Mak
Mal
Mala
Malcolm
Maldegem
Male
Maleisisch
Maleisië
Mali
Malin
Malko
Mall
Mallorca
Mallory
Malmö
Malone
Malt
Mam
Mama
Mamma
Man
Management
Manager
Manchester
Mandel
Mandela
Mandy
Manfred
Manhattan
Mann
Mannen
Manon
Mans
Manuel
Mao
Map
Mar
Mara
Maradon
Marathon
Marc
Marcel
March
Marco
Marcus
Mare
Marg
Margaret
Margaretha
Margot
Margriet
Mari
Maria
Marian
Marianne
Marie
Marieke
Marijke
Marijn
Marijnissen
Marilyn
Marin
Marina
Marine
Marino
Mario
Marion
Marit
Marius
Marië
Marjolein
Marjori
Mark
Market
Markt
Markus
Marle
Marleen
Marlie
Marlo
Marnix
Marokkaan
Marokkaans
Marokko
Mars
Marseille
Marsh
Marshall
Mart
Martens
Martha
Martijn
Martin
Martinson
Marty
Marvel
Marwijk
Marx
Mary
Mas
Masa
Mason
Mass
Massa
Massachusett
Master
Masters
Mat
Match
Mate
Math
Mathew
Mathias
Mathieu
Mathijs
Mathilde
Matt
Matteo
Matth
Matthew
Matthias
Matthijs
Matti
Mau
Maud
Maur
Maureen
Mauri
Maurice
Maurits
Max
Maxim
Maxima
Maximiliaan
Maxwell
May
Maya
Maz
Mc
McC
McCain
McCarthy
McCartney
McD
McDonald
McEwen
McG
McIn
McK
McLaren
McM
McN
Me
Mead
Mech
Mechelen
Mechelse
Mecklenburg
Med
Mede
Mededinging
Medewerker
Media
Medio
Medisch
Medvedev
Mee
Meer
Meerdere
Meester
Meeuwen
Meg
Mega
Megach
Megawat
Megha
Mei
Meij
Meijer
Mein
Meise
Meisje
Meisjes
Mekka
Mel
Melan
Melanie
Melbourne
Melchior
Meldert
Meli
Melissa
Melkert
Melkweg
Melle
Melo
Melsele
Mem
Memorial
Memphis
Men
Mendonck
Meneer
Menno
Mens
Mensen
Mensenrechten
Meppel
Mer
Merc
Mercedes
Merckx
Mercury
Merel
Merelbeke
Meri
Merijn
Merk
Merkel
Merksem
Merkwaardig
Merlijn
Merrill
Mertens
Mes
Meso
Mess
Messi
Met
Metcalfe
Metro
Metropolitan
Meu
Meulen
Meulenhof
Mevrouw
Mexicaan
Mexicaanse
Mexican
Mexico
Mey
Meyer
Mi
Mia
Miami
Mich
Micha
Michael
Michail
Michaël
Michel
Michelangelo
Michelin
Michelle
Michiel
Michiels
Michigan
Mick
Mickey
Micro
Microsoft
Mid
Middag
Middel
Middelburg
Middeleeuwen
Middelkerke
Middellandse
Midden
Middle
Mieke
Mier
Mierlo
Miguel
Mij
Mijn
Mijnheer
Mik
Mika
Mike
Mil
Milaan
Milan
Miles
Mili
Milieu
Militair
Militaire
Miljoenen
Mill
Millennium
Miller
Milli
Milo
Milosevic
Min
Mina
Mind
Minder
Minerva
Mini
Minister
Ministerie
Minne
Minsk
Minsten
Minute
Mir
Mira
Miranda
Miriam
Mirjam
Mirror
Mis
Miss
Mississippi
Missouri
Mister
Mit
Mitch
Mitchell
Mitsubish
Mladic
Mma
Mmm
Mo
Mobiel
Mobile
Mobiliteit
Mobutu
Mocht
Modder
Mode
Model
Modern
Moe
Moeder
Moeilijk
Moer
Moerdijk
Moerman
Moeskroen
Moest
Moet
Mog
Mogelijk
Moh
Mohammad
Mohammed
Moir
Mol
Moldavië
Molen
Molenaar
Molenbeek
Moll
Mollem
Molukken
Moluks
Mon
Mona
Monaco
Mond
Monde
Mondriaan
Monetair
Mongolië
Mongools
Monica
Monique
Mono
Monroe
Monsieur
Monster
Mont
Montalb
Monte
Montenegro
Montgomery
Montreal
Monument
Moody
Mooi
Mooie
Moon
Moor
Moord
Moore
Moorsel
Mor
Mora
More
Moreno
Morga
Morgan
Morgen
Mori
Morning
Morris
Morrison
Mortier
Mortsel
Mos
Moskou
Moslim
Mossad
Moszk
Moto
Motor
Mott
Mou
Mount
Mountain
Mourinho
Moussa
Movie
Mozambique
Mozart
Mozes
Mr
Mu
Mueller
Muide
Mul
Mulder
Mull
Muller
Multi
Mun
Mund
Munt
Mur
Murat
Murdoch
Murphy
Murray
Mus
Museeuw
Museum
Musharraf
Music
Musk
Mussolini
Mustafa
Musée
Mut
Muur
Muziek
My
Myanmar
Myr
Myrm
Myro
Mé
Mölle
NAC
NAM
NASA
NAVO
NBA
NBC
NCRV
NEC
NEW
NGC
NIET
NK
NL
NMBS
NOC
NOS
NPS
NRC
NS
NSF
NU
NUTS
NV
Na
Naam
Naar
Naast
Nacht
Nacional
Nada
Nadal
Nadia
Nadine
Nagel
Nairob
Namen
Namibië
Nancy
Nantes
Napels
Napoleon
Napoli
Nas
Nashville
Nassau
Natalie
Natash
Nathalie
Nathan
Naties
Nationaal
National
Nationale
Nations
Natural
Nature
Natuur
Natuurlijk
Natuurmonument
Nauwelijks
Navarr
Navo
Nazareth
Ne
Neb
Ned
Neder
Nederland
Nederlanden
Nederlander
Nederlanders
Nederlands
Nederlandsche
Nederlandse
Nederlandstalig
Nedersaks
Nee
Neem
Neen
Neerpelt
Nefer
Neg
Negen
Neil
Nel
Nell
Nelson
Nem
Neo
Neotropisch
Nep
Nepal
Neptunus
Nere
Nergens
Nero
Nest
Net
Netanyahu
Netflix
Netwerk
Network
Neu
Neur
Neurenberg
Nev
Nevada
Nevel
Never
New
Newcastle
News
Newton
Next
Neyma
Ni
Nic
Nicaragua
Nicc
Nice
Nicholas
Nick
Nicky
Nico
Nicola
Nicolaas
Nicolas
Nicole
Nie
Niels
Niemand
Niet
Niets
Nietzsche
Nieuw
Nieuwe
Nieuwegein
Nieuwenhui
Nieuwjaar
Nieuwkerk
Nieuwpoort
Nieuws
Nieuwsblad
Nieuwsgierig
Nigel
Nigeria
Nigeriaans
Night
Nij
Nijl
Nijmeegse
Nijmegen
Nijs
Nijvel
Nike
Niki
Nikke
Nikki
Niklaas
Niko
Nikola
Niks
Nils
Nim
Nina
Nino
Ninove
Nintendo
Nissan
Nistelrooij
Nistelrooy
Nixon
No
Noah
Nobel
Nobelprijs
Noch
Noctu
Noem
Nog
Noir
Nol
Nomad
Non
Noo
Nood
Nooit
Noor
Noord
Noordelijke
Noorder
Noordoost
Noordwijk
Noordzee
Noors
Noorwegen
Nor
Nora
Norbert
Nord
Norfolk
Normaal
Norman
Normandië
North
Norton
Not
Notodont
Notre
Nou
Nouvelle
Nov
Nova
November
Novi
Now
Noël
Nu
Nummer
Ny
Nympha
Nys
OCMW
OM
ONDER
OOSTENDE
OP
OVER
Oak
Ob
Obama
Ober
Occitani
Oceaan
Ocean
Och
Ochtend
Oct
Octavi
Odysse
Oecophor
Oef
Oegand
Oei
Oek
Oekraïens
Oekraïne
Oezbekistan
Of
Off
Office
Officier
Og
Oh
Ohio
Ok
Oktober
Oké
Ol
Olaf
Old
Olga
Olie
Oliv
Oliver
Olivia
Olivier
Olsen
Olympi
Olympia
Olympic
Olympisch
Olympische
Om
Oma
Omar
Omdat
Omega
Omni
Omroep
Omstreek
On
Onafhankelijk
Onbe
Onbekend
Ondanks
Onder
Ondernemers
Onderneming
Onderstaand
Ondertitel
Ondertuss
Onderwijs
Onderzoek
Onderzoeker
Onduidelijk
One
Onge
Onkelinx
Onlang
Online
Onmiddellijk
Onmogelijk
Onno
Ons
Ont
Ontvang
Ontwikkeling
Onver
Onwillekeurig
Onze
Onzin
Oog
Ooit
Ook
Oom
Oor
Oorlog
Oorspronkelijk
Oost
Oostblok
Oosten
Oostende
Oostendse
Oostenrijk
Oostenrijker
Oostenrijks
Ooster
Oostkamp
Oostzee
Op
Opeens
Opel
Open
Openbaar
Openbare
Opera
Operatie
Opmerkelijk
Opper
Opsporing
Opvallend
Or
Orange
Oranje
Orb
Orchestra
Orde
Ordening
Ordina
Oregon
Organ
Organisatie
Ori
Origin
Oriëntaals
Orkest
Orlando
Orleans
Orléans
Oro
Ortho
Os
Osaka
Osama
Oscar
Oskar
Oslo
Oss
Ost
Ott
Otter
Otto
Ottomaans
Ou
Oud
Oude
Oudenaarde
Ouder
Ouders
Oudkerk
Out
Ouwe
Over
Overal
Overeenkomst
Overigens
Overijse
Overijssel
Overpelt
Overwegend
Owen
Oxfam
Oxford
Oxy
PA
PB
PCM
PKK
PRI
PROVINCIALE
PS
PSV
PVV
Pa
Paarden
Paars
Paas
Pac
Pacific
Packard
Pad
Pagin
Paige
Paint
Pak
Pakistaans
Pakistan
Pal
Pala
Palace
Palearctisch
Paleis
Palermo
Palestijn
Palestijnen
Palestijnse
Palestina
Pall
Palm
Palma
Palmer
Palts
Pam
Pamel
Pan
Panama
Pandoer
Panne
Panorama
Paolo
Pap
Papa
Papoea
Par
Para
Parade
Paradijs
Paradise
Paradiso
Paraguay
Paramar
Pardon
Parijs
Paris
Park
Parker
Parkinson
Parlement
Parma
Parool
Part
Parti
Partij
Partners
Party
Pas
Pascal
Passa
Passion
Pastoor
Pat
Pater
Patijn
Patiënten
Patri
Patricia
Patrick
Patriot
Patro
Patroon
Patty
Paul
Paula
Pauline
Paulo
Paulus
Paus
Pauw
Pauwels
Pavel
Pay
Pe
Pearl
Pedro
Peel
Peer
Peeters
Pegg
Pei
Peking
Pel
Pell
Pen
Pendergast
Penelope
Penn
Pennsylvania
Penny
Pensioen
Pentagon
People
Pep
Peper
Pepijn
Pepsi
Per
Percy
Pereir
Perez
Perfect
Peri
Perkament
Permanent
Perry
Pers
Persi
Personeel
Personen
Persoonlijk
Persoons
Peru
Perzische
Perzië
Pet
Pete
Petegem
Peter
Peters
Petersburg
Petit
Petr
Petra
Petro
Petrov
Petrus
Peugeot
Peyr
Pf
Ph
Pha
Pharma
Phil
Philadelphia
Philharmoni
Philip
Philipp
Philippe
Philips
Phillip
Pho
Phoebe
Phoenix
Photo
Phyllo
Pi
Pia
Pic
Picasso
Pick
Picture
Pie
Pieper
Pier
Pierce
Pierre
Piet
Pieter
Pieters
Pietje
Pietro
Pijl
Pijn
Pijp
Pike
Pil
Pim
Pin
Pink
Pinkpop
Pinkster
Pinoch
Pinte
Pip
Piper
Pipp
Pir
Pirate
Pisto
Pit
Pitt
Pittsburgh
Pla
Plaats
Place
Plan
Planet
Plant
Plas
Plasterk
Plat
Platform
Plato
Platy
Play
PlayStation
Playboy
Plaza
Ple
Pleas
Plein
Pli
Plo
Ploeg
Plots
Plotseling
Plu
Plus
Pluto
Po
Pod
Podium
Poe
Poel
Poetin
Point
Poirot
Pokémon
Pol
Polak
Polder
Polen
Poli
Police
Politic
Politici
Politie
Politiek
Poll
Polo
Poly
Pom
Pomp
Pon
Pont
Pool
Pools
Poolse
Poort
Pop
Poperinge
Popp
Por
Porsche
Port
Porto
Portret
Portugal
Portugees
Portuges
Portugezen
Positie
Post
Postma
Pot
Potter
Pou
Poul
Pour
Powell
Power
Poëzie
Pr
Pra
Praag
Praat
Prachtig
Pre
Precie
Premier
Present
President
Presley
Press
Prest
Pri
Price
Prijs
Prima
Primer
Prince
Princip
Prins
Prinsengracht
Prinses
Prinsjesdag
Private
Privé
Prix
Pro
ProRa
Probeer
Probleem
Problem
Proce
Prodi
Product
Productie
Production
Prof
Professor
Programma
Project
Prometheus
Pronk
Prosper
Protest
Proto
Protocol
Proust
Prov
Provence
Provinciale
Provincie
Pru
Prue
Pruisen
Pruisisch
Pré
Pseud
Pseudo
Psych
Psycho
Psycholog
Ptero
Pu
Public
Publicatie
Publiek
Puc
Puerto
Pul
Punt
Pur
Purmerend
Put
Putte
Putten
PvdA
Py
Pyr
Pyral
Pyramid
Pyreneeën
Pé
RAAD
RADIO
RAI
RBC
RC
RE
RIVM
RKC
ROTTERDAM
RTL
RTV
RUIMTE
RWD
Ra
Raad
Raaij
Raak
Rab
Rabb
Rabo
Rabobank
Race
Rachel
Racing
Rad
Radboud
Radio
Raf
Rafael
Rag
Rah
Rai
Rail
Rain
Rak
Ralf
Rally
Ralph
Ram
Rama
Ramalla
Rambo
Ramo
Ramon
Rams
Ran
Rand
Randall
Randstad
Randy
Rang
Rangers
Ranst
Raoul
Rap
Rapid
Ras
Rasmussen
Rat
Rath
Rau
Rav
Ravel
Raven
Raw
Ray
Raymond
Raz
Re
Reach
Read
Reagan
Real
Rebec
Rebecc
Rebel
Rec
Recent
Recep
Recherche
Rechercheur
Recht
Rechter
Rechts
Reclame
Record
Records
Red
Ree
Reed
Reeds
Reeve
Ref
Reg
Regel
Regelmatig
Regen
Regering
Reggi
Regi
Regie
Regina
Reginald
Regio
Regional
Regisseur
Reich
Reid
Reij
Reilly
Rein
Reinier
Reis
Reit
Reizen
Reiziger
Reken
Rekenkamer
Religie
Rem
Rembrandt
Remc
Remkes
Remo
Ren
Renaissance
Renat
Renault
René
Rep
Republiek
Republikein
Republikeins
Res
Research
Reserve
Resolutie
Restaurant
Reuben
Reuters
Reve
Review
Revolutie
Revolutionair
Revu
Rex
Rey
Reyn
Reynders
Reynolds
Rh
Rhan
Rhein
Rhi
Rhod
Rhodan
Rhy
Rhyme
Ri
Ria
Rib
Rica
Ricard
Ricciard
Rice
Rich
Richard
Richie
Richmond
Richter
Richtlijn
Rick
Ricky
Rico
Ridder
Ridge
Rie
Riek
Riet
Rietveld
Right
Rij
Rijd
Rijk
Rijkaard
Rijks
Rijksmuseum
Rijkswaterstaat
Rijn
Rijnland
Rijnmond
Rijsel
Rijswijk
Rik
Rin
Ring
Rio
Ripley
Ris
Rita
Riv
River
Rivier
Ro
Road
Rob
Robb
Robben
Robbert
Robbie
Robeco
Robert
Robin
Robinson
Robot
Roche
Rochus
Rock
Rod
Roda
Roddick
Rode
Rodrig
Rodriguez
Roe
Roel
Roeland
Roelof
Roemeen
Roemeense
Roemenen
Roemenië
Roep
Roer
Roermond
Roeselare
Rog
Roger
Rogge
Rogier
Roh
Roi
Rok
Rol
Roland
Rolf
Roll
Rolling
Rom
Roma
Roman
Romano
Rombouts
Rome
Romeinen
Romeins
Romeinse
Romme
Rompuy
Ron
Ronald
Ronaldo
Rond
Ronde
Ronnie
Ronny
Ronse
Roo
Rood
Rooij
Room
Rooms
Roos
Roosendaal
Roosevelt
Rooy
Ror
Ros
Rosa
Rose
Rosemar
Rosen
Rosenmöller
Rosie
Rosmalen
Ross
Rossi
Rot
Roth
Rothschild
Rotterdam
Rotterdammer
Rotterdamse
Rou
Roubaix
Rouge
Rousse
Rousseau
Route
Rover
Row
Rowan
Rox
Roy
Royal
Royce
Rozen
Ru
Ruben
Rubi
Ruby
Rud
Rudi
Rudolf
Rudy
Rue
Rufus
Rui
Ruim
Ruimte
Ruimtelijke
Ruiter
Ruiz
Rum
Rumsfeld
Run
Rupel
Rupert
Rupo
Rus
Rusland
Russell
Russen
Russin
Russisch
Russische
Rust
Rustig
Rutger
Ruth
Rutte
Ruud
Ruyter
Rwanda
Rwande
Ry
Ryan
Ryanair
Ré
Régi
Rö
SA
SBS
SBS6
SC
SCH
SEC
SER
SGP
SK
SP
SPD
SS
ST
STAND
STVV
SV
Sa
Saar
Sab
Saba
Sabena
Sabi
Sabine
Sabrin
Sacha
Sachs
Sacr
Sad
Saddam
Saedel
Saer
Safe
Safi
Sag
Saga
Sah
Sahara
Sai
Sail
Saint
Sak
Saksen
Saksisch
Sal
Sala
Salamander
Sali
Sally
Salomon
Salon
Salt
Salv
Salvador
Salzburg
Sam
Samar
Samen
Samenwerking
Samir
Samso
Samsung
Samuel
San
Sanchez
Sancho
Sand
Sander
Sanders
Sandra
Sandy
Sankt
Sanne
Sant
Santa
Santiago
Santo
Santos
Saoedi
Saoedisch
Sap
Saph
Sar
Sara
Sarah
Sardinië
Sarkozy
Saryon
Sasha
Saski
Sat
Satan
Saturni
Sau
Saudi
Saudisch
Saul
Sav
Savo
Saw
Say
Sc
Sca
Scandinavië
Scar
Scarlet
Sch
Scha
Schaap
Schaarbeek
Schaats
Schaduw
Schalke
Schalken
Schat
Sche
Scheffer
Schei
Scheidsrechter
Schel
Schelde
Schelle
Schengen
Schenk
Schep
Schepen
Schepper
Scherp
Schevening
Schi
Schiedam
Schiet
Schil
Schilder
Schip
Schiphol
Schipper
Schippers
Schitterend
Schle
Schm
Schmidt
Schneider
Scho
Schoen
Schol
Scholten
Schone
School
Schoon
Schot
Schotland
Schotse
Schouten
Schouw
Schouwburg
Schra
Schre
Schrift
Schrijf
Schrijver
Schro
Schröder
Schu
Schubert
Schultz
Schulz
Schumacher
Schuurman
Schw
Schwartz
Schwarz
Schwarzenegger
Schön
Sci
Science
Sco
Scotland
Scott
Scull
Se
Sea
Sean
Seanchan
Seattle
Sebasti
Sebastiaan
Sebastian
Second
Secret
Secretaris
Securit
Seda
Sedert
See
Seg
Segers
Seine
Seks
Sel
Sell
Sem
Semi
Sen
Senaat
Senegal
Seng
Senior
Seou
Sep
Sepp
September
Ser
Sera
Serena
Serge
Sergeant
Sergej
Sergio
Serie
Series
Serra
Serv
Service
Servisch
Servische
Servië
Serviër
Set
Seth
Seven
Sever
Sevilla
Sex
Sh
Sha
Shadow
Shah
Shakespeare
Shan
Shanghai
Shannon
Shar
Sharif
Sharon
Sharp
Shaw
She
Sheffield
Sheila
Shell
Sher
Sheri
Shi
Shim
Shin
Shir
Shirley
Shit
Sho
Shop
Short
Show
Shu
Si
Sib
Siberische
Siberië
Sicilië
Sid
Sidney
Sieb
Sieg
Siegfried
Siem
Siemens
Sierra
Siets
Sig
Sign
Sigur
Sij
Sik
Sil
Silezië
Silicon
Silva
Silver
Silvi
Sim
Simeon
Simon
Simone
Simons
Simpel
Simpl
Simpson
Sin
Sinatra
Sinds
Singapore
Singel
Singer
Singh
Single
Sint
Sinterklaas
Sir
Sittard
Siu
Six
Sja
Sjo
Sjoerd
Sjostako
Sk
Ska
Ski
Sko
Sky
Sl
Sla
Slaap
Slachtoffer
Slag
Slam
Slav
Slavisch
Slecht
Slechts
Slee
Sleutel
Sliedrecht
Slim
Slo
Slobodan
Slot
Sloveens
Slovenië
Slowaakse
Slowakije
Slu
Sluis
Sluit
Sluiter
Sm
Small
Smart
Sme
Smeets
Smet
Smi
Smit
Smith
Smits
Smok
Snap
Sne
Sneek
Sneeuw
Sneijder
Snel
Snelle
Snijd
Sno
Snow
So
Sob
Sociaal
Social
Sociale
Socialistisch
Society
Société
Soe
Soedan
Soeharto
Soest
Sofia
Sofie
Software
Sol
Solar
Soldaten
Solo
Som
Somalisch
Somalië
Somers
Sommige
Sommigen
Soms
Son
Song
Songfestival
Sonny
Sony
Sophia
Sophie
Sor
Sorry
Sou
Soul
Sound
South
Southern
Sovjet
Sp
Spa
Spaans
Spaanse
Spaar
Space
Span
Spanjaard
Spanjaarden
Spanje
Spar
Sparta
Spe
Spear
Spec
Speciaal
Special
Speed
Speel
Speer
Spek
Spel
Spelen
Spelers
Spencer
Spi
Spice
Spider
Spiegel
Spielberg
Spier
Spijker
Spijt
Spin
Spinoza
Spirit
Spits
Spong
Spoor
Spoorwegen
Sport
Sporting
Spot
Spra
Spre
Spreek
Spring
Springer
Spui
Square
Srebrenica
Sri
St
Sta
Staal
Staat
Staats
Staatsbos
Stad
Stadion
Stadium
Stads
Stadsschouwburg
Staf
Stal
Stalin
Stam
Stan
Stand
Standaard
Standard
Stanley
Stap
Star
Start
State
Staten
States
Station
Statistiek
Ste
Stedelijk
Steden
Steed
Steel
Steen
Steenbergen
Stef
Stefan
Stefanie
Stefano
Steg
Stein
Stekel
Stekene
Stel
Stella
Stem
Sten
Steno
Step
Stephan
Stephanie
Stephen
Ster
Sterk
Sterker
Stern
Sterre
Sterren
Steun
Steur
Stevaert
Steve
Steven
Stevens
Stevie
Stewart
Sti
Stichting
Stijn
Stil
Stille
Stilte
Sto
Stock
Stockholm
Stoel
Stok
Stol
Stom
Stond
Stone
Stop
Stor
Stork
Storm
Story
Stout
Str
Stra
Straat
Straatsburg
Straf
Strak
Strand
Strateg
Strauss
Stravinsky
Stre
Street
Stri
Strij
Strijd
Strip
Stro
Stru
Stu
Stuart
Studenten
Studie
Studio
Stuk
Stur
Sturm
Stuttgart
Stuur
Styl
Stéphan
Su
Sub
Subti
Succes
Sud
Sudan
Suez
Suiker
Suk
Sul
Sullivan
Sultan
Sum
Sumatra
Summer
Sun
Sunday
Sunweb
Super
Support
Sur
Surinaams
Suriname
Surinamer
Surre
Susan
Susanna
Susanne
Suske
Suzan
Suzanne
Suzuki
Sven
Sw
Swa
Swan
Swart
Sweet
Swi
Swift
Swiss
Sy
Sybil
Sydney
Syl
Sylvain
Sylvia
Sylvie
Sym
Symfonie
Symphon
Syn
Syrisch
Syrië
Syriërs
System
Sz
Sé
Sébasti
TC
TE
THE
TMF
TNO
TNT
TOP
TT
TV
TWEE
Ta
Taal
Tab
Tadzji
Tafel
Tag
Tai
Taiwan
Tak
Take
Tal
Talbot
Talent
Taliba
Taliban
Talpa
Tam
Tamara
Tamil
Tan
Tand
Tang
Tani
Tanj
Tante
Tanzania
Tar
Tara
Tarzan
Tas
Tata
Taxi
Taylor
Te
Team
Technisch
Technische
Technolog
Technologie
Ted
Teddy
Teeven
Tegelijk
Tegen
Tegenstander
Tegenwoordig
Teken
Tekst
Tel
Tele
Telecom
Telef
Telefoon
Telegraaf
Telegraph
Telekom
Telenet
Televisie
Telken
Tem
Temp
Tempel
Temple
Temse
Ten
Tennis
Tenslotte
Tenzij
Ter
Terecht
Teresa
Ternat
Terneuzen
Terra
Terran
Terri
Terry
Terschelling
Terug
Tervuren
Terwij
Tesla
Tess
Tessa
Tessenderlo
Test
Testament
Tetra
Tett
Teun
Teven
Tevreden
Tex
Texas
Texel
Th
Tha
Thailand
Thaise
Than
Thatcher
The
Theater
Theatre
Theems
Theo
Theodor
Theres
Theri
Theunis
Thi
Thialf
Thierry
Thijs
This
Tho
Thom
Thomas
Thompson
Thomson
Thor
Thora
Thorn
Thorvald
Thra
Three
Thro
Thu
Thuis
Thunder
Thur
Thy
Thé
Thérès
Ti
Tia
Tibet
Tibetaans
Ticket
Tiel
Tielt
Tien
Tienduizend
Tienen
Tiental
Tiff
Tiffany
Tig
Tiger
Tijd
Tijdens
Tijger
Tik
Til
Tilburg
Tilburgse
Till
Tilly
Tim
Time
Times
Timmer
Timmermans
Timo
Timor
Timothy
Tin
Tina
Tineke
Tip
Tir
Tirol
Titan
Titani
Titus
Tivoli
Tj
Tja
Tjalling
To
Tob
Tobback
Tobias
Toby
Toch
Todd
Toe
Toegang
Toekomst
Toen
Toerisme
Toevallig
Toezicht
Tokio
Tol
Toledo
Tolo
Tolsto
Tom
Tomas
Tommy
Ton
Toneel
Tong
Tongeren
Toni
Tony
Too
Toon
Top
Topman
Tor
Toren
Torhout
Torka
Toronto
Torre
Tosca
Toscane
Tot
Totaal
Total
Tottenham
Tou
Touch
Toulouse
Tour
Tower
Town
Toy
Toyota
Tr
Tra
Tracy
Trade
Traditione
Train
Trainer
Tranen
Trans
Transport
Travel
Travi
Tre
Trek
Trent
Trevi
Trevor
Tri
Tribun
Tribunaal
Tricho
Trijnt
Trio
Trip
Tristan
Tro
Trollok
Tromp
Troost
Trop
Trophy
Trots
Trouw
Trouwen
Troy
Tru
Trud
Truiden
Trump
Trust
Tsa
Tsi
Tsj
Tsja
Tsjaad
Tsjech
Tsjechisch
Tsjechië
Tsjetsjeens
Tsjetsjenië
Tsjoe
Tsjoebai
Tsu
Tu
Tub
Tubeke
Tucker
Tuin
Tul
Tull
Tunesië
Tung
Tuo
Tur
Turijn
Turk
Turken
Turkije
Turks
Turkse
Turner
Turnhout
Tussen
Tutsi
Tuurlijk
Tw
Twaalf
Twee
Tweede
Twente
Twijfel
Twin
Twintig
Twitter
Two
Ty
Tyler
Type
Typisch
Tyr
UCI
UEFA
UNES
UNI
UPC
US
USA
USD
USS
UTRECHT
Uber
Uefa
Uit
Uiteindelijk
Uiterlijk
Uitgeverij
Uitstekend
Ukkel
Ul
Ullrich
Ulrich
Ultra
Un
Under
Unesco
Uni
Unie
Unilever
Union
United
Universal
Universe
Universit
Universitair
Universiteit
University
Unizo
Unter
Up
Ur
Urban
Urk
Ursula
Uruguay
Utah
Utrecht
Utrechtse
Uw
Uyl
Uytte
V8
VA
VAN
VARA
VAST
VB
VER
VERORDENING
VI
VII
VK
VLD
VN
VNO
VOC
VOLGEN
VOOR
VROM
VROUW
VRT
VS
VT4
VTM
VU
VV
VVD
VVV
VW
VWS
Va
Vaak
Vaart
Vaarwe
Vader
Vaderland
Vai
Vak
Vakantie
Vakbond
Val
Valencia
Valentijn
Valentin
Valeri
Valerie
Valk
Valkenburg
Vall
Valley
Valverde
Van
Vanaf
Vanavond
Vancouver
Vandaag
Vandaar
Vandamme
Vande
Vanden
Vandenbergh
Vandenbroucke
Vander
Vandereycken
Vanmorgen
Vanweg
Vanzelfsprekend
Var
Vara
Vas
Vast
Vastgoed
Vaticaan
Vecht
Ved
Vee
Veel
Veen
Veendam
Veenendaal
Veer
Veerle
Veerman
Veertien
Veertig
Vegas
Vei
Veilig
Veiligheid
Veiligheidsraad
Vel
Veld
Velde
Veldhoven
Vele
Velen
Veluwe
Ven
Vendex
Veneti
Venetië
Venezolaans
Venezuela
Venlo
Venne
Venus
Ver
Vera
Verb
Verbaasd
Verbond
Verbruggen
Vercauteren
Verder
Verdi
Verdomd
Verdomme
Verdonk
Verdrag
Verenigd
Vereniging
Vergadering
Vergeef
Vergeet
Vergelijk
Verhaeghe
Verhagen
Verhe
Verheyen
Verhoeven
Verhofstadt
Verhulst
Verkeer
Verklaring
Verlichting
Verlinde
Verloren
Verm
Vermeend
Vermeer
Vermeersch
Vermeir
Vermeulen
Vermoedelijk
Verona
Veronica
Veronique
Verordening
Verrassend
Verre
Vers
Versaille
Versatel
Verscheidene
Verschillend
Verschrikkelijk
Verstappen
Verstraete
Vertel
Vertrouw
Verviers
Vervolg
Vervolgens
Verwacht
Verwilghen
Verzamel
Verzekeraar
Verzekering
Ves
Vest
Vet
Vettel
Veurne
Vi
Via
Vic
Vicky
Victor
Victoria
Victoriaans
Video
Vier
Vierde
Vietnam
Vijf
Vijftien
Vijftig
Viking
Viktor
Vil
Villa
Village
Ville
Villiers
Vilvoorde
Vin
Vince
Vincent
Vincenz
Vinci
Vind
Vink
Violet
Virgil
Virgin
Virginia
Virtu
Vis
Visser
Vit
Vital
Vitesse
Vito
Vittori
Viva
Vivi
Vivian
Vlaams
Vlaamse
Vlaanderen
Vlaardingen
Vlad
Vladimir
Vlak
Vlaming
Vlamingen
Vledder
Vlees
Vleuten
Vlieg
Vliegenthart
Vliet
Vlijmen
Vlimme
Vlinder
Vlissingen
Vlucht
Vluchtelingen
Vlug
Vo
Vodafone
Voedsel
Voeg
Voel
Voer
Voet
Voetbal
Vogel
Voice
Voil
Vol
Volendam
Volg
Volgend
Volgens
Volk
Volker
Volks
Volksgezondheid
Volkskrant
Volksrepubliek
Volkswagen
Volle
Vollenhove
Volvo
Volwassen
Von
Vondel
Vondelpark
Voor
Voorafgaand
Vooral
Voorbeelden
Voorlopig
Voormalig
Voorts
Vooruit
Voorzichtig
Voorzitter
Vor
Vorig
Vorm
Vorst
Vos
Vr
Vraag
Vragen
Vrede
Vree
Vreemd
Vreemdelingen
Vreselijk
Vriend
Vrienden
Vries
Vrij
Vrijdag
Vrije
Vrijheid
Vroeg
Vroeger
Vrolijk
Vrouw
Vrouwe
Vrouwen
Vu
Vuelta
Vught
Vul
Vuur
Vóór
WAO
WE
WHO
WIL
WK
WTA
WTC
WTO
WW
Wa
Waag
Waal
Waalse
Waalwijk
Waar
Waarme
Waaro
Waarschijnlijk
Waas
Waasland
Wacht
Wadden
Waddenzee
Wag
Wagen
Wageningen
Wagner
Wahid
Wak
Wakker
Wal
Wald
Wales
Walk
Walker
Wall
Wallace
Wallander
Wallonië
Walsh
Walt
Walter
Wan
Wand
Wandel
Wang
Wanne
Want
Wapen
War
Ward
Waregem
Waren
Warm
Warner
Warren
Warrior
Warschau
Was
Washington
Wassenaar
Wat
Watch
Water
Waterloo
Waterstaat
Watson
Wauters
Waver
Way
Wayne
We
Web
Weber
Webster
Week
Weekend
Weer
Weert
Wees
Weet
Weg
Wegen
Wehrmacht
Weimar
Weinig
Weinstein
Weiss
Wel
Welk
Welke
Welkom
Well
Wellens
Welnee
Welsh
Welt
Welzijn
Wend
Wenen
Wenne
Werchter
Werd
Wereld
Wereldbank
Wereldbeker
Wereldoorlog
Wereldwijd
Werf
Werk
Werkelijk
Werken
Werkgelegenheid
Werkgevers
Werknemers
Werner
Wervik
Wesley
Wessel
West
Westelijke
Westen
Wester
Westerbork
Westerlo
Westerse
Westfalen
Wet
Wetenschap
Wetenschappe
Wetenschapper
Wethouder
Wetteren
Wevelgem
What
Whi
Whit
White
Whitlock
Who
Wi
Wid
Wie
Wiebe
Wiegel
Wiel
Wielsbeke
Wiener
Wij
Wijk
Wijnschenk
Wijzen
Wiki
Wil
Wild
Wilde
Wilders
Wilfried
Wilhelm
Wilhelmina
Will
Willebroek
Willem
Willems
William
Williams
Willie
Willy
Wilrijk
Wilson
Wilt
Wim
Wimbledon
Win
Wind
Windows
Windsor
Wing
Winkel
Winne
Winst
Winston
Winter
Winterspelen
Wir
Wis
Wiscons
Wiske
Wisse
Wist
Wit
With
Witt
Witte
Wo
Woede
Woedend
Woensdag
Woerden
Woest
Wol
Wolf
Wolff
Wolfgang
Wolfsburg
Wolkers
Wolters
Woluwe
Women
Wonder
Wonen
Woning
Wood
Woods
Wool
Woon
Woord
Woordvoerder
Word
Wordt
Work
World
Worm
Worth
Woud
Wout
Wouter
Wouters
Wright
Wu
Wulf
Wy
Wyatt
Wyn
YORK
Ya
Yama
Yamaha
Yan
Yang
Yankee
Yannick
Yard
Yasmin
Yates
Ye
Year
Yellow
Yi
Yo
Yorin
York
Yorkse
Yorkshire
Yoshi
You
YouTube
Young
Your
Yu
Yuki
Yuri
Yve
Yvette
Yvonn
ZE
ZIJN
Za
Zaal
Zaandam
Zacht
Zack
Zag
Zagreb
Zak
Zaken
Zal
Zalm
Zambia
Zan
Zand
Zandvoort
Zanger
Zap
Zaterdag
Zaventem
Zaïre
Ze
Zedd
Zedelgem
Zeebrugge
Zeeland
Zeeuws
Zeg
Zeist
Zeitung
Zeker
Zelden
Zele
Zelf
Zelfs
Zelzate
Zembla
Zestien
Zeven
Zeventien
Zhang
Zi
Zich
Zidane
Zie
Ziekenhuis
Ziet
Ziggo
Zij
Zijlstra
Zijn
Zilver
Zimbabwe
Zin
Zit
Zitten
Zo
Zoal
Zoek
Zoetermeer
Zolder
Zomer
Zomerspele
Zondag
Zonder
Zonhoven
Zonne
Zoo
Zoom
Zoon
Zorg
Zorreguiet
Zottegem
Zou
Zouden
Zoveel
Zoë
Zu
Zuid
Zuidelijke
Zuider
Zuiderzee
Zuidoost
Zul
Zulk
Zulte
Zundert
Zuster
Zutphen
Zw
Zwaan
Zwaar
Zwaard
Zwan
Zwar
Zwart
Zwarte
Zwe
Zweden
Zweed
Zweeds
Zweedse
Zwerver
Zwevegem
Zwi
Zwijg
Zwijgen
Zwijndrecht
Zwitser
Zwitserland
Zwitsers
Zwolle
Zyg
aaide
aan
aanbesteding
aanbeveling
aanbieden
aanbieders
aanbieding
aanbiedingen
aanbod
aanbrengen
aandacht
aandachtig
aandeel
aandeelhouder
aandeelhouders
aandelen
aandelenkoers
aandelenmarkt
aandoen
aandoening
aandoenlijk
aandringen
aanduiding
aaneenge
aangaan
aange
aangeboden
aangebracht
aangedaan
aangeduid
aangegeven
aangehouden
aangeklaagd
aangekleed
aangekocht
aangekomen
aangekondigd
aangelegd
aangelegenhe
aangemeld
aangemerkt
aangemoedigd
aangenaam
aangename
aangepakt
aangepast
aangepaste
aangeraakt
aangereden
aangereikt
aangericht
aangeschaft
aangescherpt
aangesloten
aangespoord
aangesproken
aangesteld
aangestoken
aangetast
aangetoond
aangetroffen
aangetrokken
aangevallen
aangeven
aangevoerd
aangevraagd
aangevuld
aangewakkerd
aangewend
aangewezen
aangezet
aangezien
aangifte
aangrenzend
aangrijpend
aanhang
aanhanger
aanhangsel
aanhouden
aanhoudende
aanhouding
aankijken
aanklacht
aanklager
aanknopingspunt
aankomen
aankomst
aankondig
aankondigde
aankondiging
aankoop
aankopen
aankwam
aanleg
aanleiding
aanlokkelijk
aanloop
aanmelden
aanmerkelijk
aanmerking
aanmoedigen
aanmoediging
aannam
aannemelijk
aannemen
aannemer
aanpak
aanpakken
aanpalend
aanpassen
aanpassing
aanraakte
aanraken
aanraking
aanranding
aanrecht
aanrijding
aanschaf
aanschouw
aanslag
aanslagen
aansluit
aansluiten
aansluiting
aansporing
aansprak
aansprakelijk
aanspreken
aanstaande
aanstaarde
aanstekelijk
aansteker
aanstelling
aanstormend
aantal
aantallen
aantast
aantekeningen
aantonen
aantoonbaar
aantrad
aantreden
aantrekkelijk
aantrekkelijke
aantrekkelijker
aantrekken
aantrof
aanvaard
aanvaardbaar
aanvaardde
aanvaarden
aanval
aanvallen
aanvallende
aanvaller
aanvallers
aanvang
aanvankelijk
aanvaring
aanvoelde
aanvoelen
aanvoer
aanvoerder
aanvraag
aanvragen
aanvrager
aanvullend
aanvulling
aanwezig
aanwezige
aanwezigheid
aanwijzen
aanwijzing
aanwinst
aanzet
aanzetten
aanzien
aanzienlijk
aanzienlijke
aap
aard
aardappel
aardappelen
aardbeien
aardbeving
aarde
aardewerk
aardgas
aardig
aardige
aardse
aarts
aartsbisdom
aartsbisschop
aartsriva
aarzel
aarzelde
aarzelen
aarzelend
aarzeling
ab
abdij
abnormaal
abonnee
abonnees
abonnement
abortus
about
abrupt
absolute
absoluut
abstract
abstracte
absurd
abt
ac
academic
academie
academisch
academische
acc
accent
acceptabel
acceptatie
accepteer
accepteerde
accepteren
access
accordeon
account
accountant
accountants
accu
ach
achillespees
acht
achtbaan
achteloos
achtentwintig
achter
achteraan
achteraf
achterban
achterbank
achterblijven
achterdeur
achterdocht
achterdochtig
achtereen
achtergebleven
achtergelaten
achtergrond
achterhaald
achterhale
achterhoede
achterhoofd
achterin
achterkant
achterlaten
achterliet
achterliggend
achterlijk
achterna
achternaam
achterom
achterop
achterover
achterstallig
achterstand
achterste
achtertuin
achteruit
achteruitgang
achtervolgd
achtervolgen
achtervolger
achtervolging
achterwaarts
achterwege
achterzijde
achthonderd
achtige
achtste
achtte
achttien
achttiende
achttienjarige
acquisitie
act
acteer
acteren
acteur
acteurs
actie
actief
actiefilm
actiegroep
acties
actieve
actievoerder
activa
activeren
activist
activisten
activiteit
activiteiten
actrice
actualiteit
actueel
actuele
acute
adapt
adel
adelaar
adellijke
adem
adembenemend
ademde
ademen
ademhalen
ademhaling
adequaat
adequate
aderen
adjudant
adjunct
administratie
administratief
administratieve
admiraal
adolescent
adopter
adoptie
adrenaline
adres
adressen
adv
adverteerders
advertentie
advertenties
advies
adviesbureau
adviezen
adviseer
adviseerde
adviseren
adviseur
adviseurs
advocaat
advocat
advocaten
aero
af
afbeelding
afbeeldingen
afbraak
afbreken
afdalen
afdaling
afdeling
afdoend
afdwingen
affaire
affiche
affiches
afgaan
afge
afgebakend
afgebeeld
afgebroken
afgedankt
afgedekt
afgedrukt
afgehandeld
afgekeurd
afgekondigd
afgekort
afgelast
afgelegd
afgelegen
afgeleid
afgeleverd
afgelopen
afgelost
afgeluisterd
afgemaakt
afgerond
afgeschaft
afgescheiden
afgeschermd
afgesloten
afgespeeld
afgestemd
afgestudeerd
afgevaardigde
afgevaardigden
afgeven
afgevoerd
afgevuurd
afgewend
afgewerkt
afgewezen
afgewisseld
afgezant
afgezet
afgezwakt
afgrijselijk
afgrond
afgunst
afhaken
afhandeling
afhangen
afhankelijk
afkeer
afkeur
afkeurend
afkeuring
afkick
afkoelen
afkomst
afkomstig
afkorting
aflatend
afleiden
afleiding
aflever
aflevering
afleveringen
afliep
afloop
aflopen
aflossing
afluister
afmeting
afname
afnemen
afpersing
afreken
afrekening
afronden
afronding
afschaffing
afscheid
afscheiding
afscheids
afschrikwekkend
afschuw
afschuwelijk
afschuwelijke
afslag
afsluit
afsluiten
afsluiting
afspeelde
afspeelt
afspiegeling
afsplitsing
afspraak
afspraakje
afspraken
afstaan
afstammeling
afstand
afstandelijk
afstanden
afstandsbedien
afstuderen
aftrap
aftreden
aftrek
afval
afvallige
afvoer
afvragen
afvroeg
afwachten
afwachtend
afwachting
afwas
afweer
afweging
afwendde
afwenden
afwerend
afwerking
afwezig
afwijkende
afwijking
afwijzing
afwikkeling
afwisselend
afwisseling
afzet
afzetten
afzetting
afzien
afzijdig
afzondering
afzonderlijk
again
agenda
agent
agenten
agrarisch
agressie
agressief
agressieve
aids
airbag
airco
airconditioning
akelig
akelige
akkers
akkoord
akoestisch
aktetas
al
alarm
alarmerend
album
albums
alcohol
alert
alfabet
alfabetiserings
algemeen
algemene
algoritme
alias
alibi
alimentatie
alinea
all
alle
allebei
alledaags
alledaagse
alleen
alleenstaande
allemaal
allen
allengs
aller
allerbeste
allereerst
allergisch
allergrootste
allerhand
allerlaatste
allerminst
alles
alliantie
allochtone
allochtonen
allochtoon
allround
allure
almachtig
alom
als
alsjeblief
alsof
alstublief
altaar
alternatief
alternatieve
alternatieven
altijd
aluminium
alvast
alweer
amandel
amateur
amateurs
amateurvoetbal
amb
ambacht
ambachtelijk
ambassade
ambassadeur
ambiance
ambitie
ambities
ambitieu
ambitieuze
ambt
ambtelijke
ambtenaar
ambtenaren
ambts
ambtstermijn
ambulance
amendement
ammoniak
amnestie
amper
amulet
amusant
amusement
amuseren
analist
analisten
analog
analyse
analyseren
analytisch
anarchis
anato
and
ander
andere
anderen
anderhalf
andermans
anders
anekdote
angel
angst
angstaanjagend
angstig
angstige
angstvallig
animatie
animatiefilm
animo
anker
annex
anno
annu
annuler
année
anoniem
anonieme
anonimi
ansichtkaart
antenne
anti
antibiotica
antiek
antieke
antisemitisch
antisemitisme
antropo
antwoord
antwoordde
antwoorden
apart
aparte
apartheid
apathi
ape
apen
apostel
apotheek
apotheker
app
apparaat
apparaten
apparatuur
appartement
appartementen
appels
applaus
appreci
apr
april
aqua
aquarium
arbeid
arbeider
arbeiders
arbeids
arbeidskrachten
arbeidsmarkt
arbeidsplaats
arbiter
arbitrage
arbo
archeolo
archeologe
archeologie
archeologisch
archi
archief
archieven
archipel
architect
architecten
architectonisch
architectuur
arena
arg
argument
argumenten
argwa
argwanend
aristocra
arm
armband
arme
armen
armoede
armoedig
armzalig
aroma
arrange
arrest
arrestanten
arrestatie
arrestatiebevel
arresteerde
arresteren
arriveer
arriveerde
arriveren
arrogant
arrondissement
arsenaa
art
artiest
artiesten
artikel
artikelen
artillerie
artistiek
artistieke
arts
artsen
asbak
asbest
asfalt
asiel
asielzoeker
asielzoekers
asocia
asp
aspect
aspecten
asperge
aspirant
assembl
assisen
assist
assistent
assistentie
associ
associatie
astma
astro
astronaut
astrono
astronomisch
atelier
atheïs
atlas
atlete
atleten
atletiek
atmosfeer
atoom
atoombom
attent
attractie
au
audio
audit
auditie
audiëntie
aug
augustus
aura
aussi
auteur
auteurs
auteursrecht
authentic
authentiek
authentieke
autisme
auto
autobiografie
autobiografisch
autochtone
autofabrikant
automatisch
automatisering
automobiel
automobilist
automobilisten
autono
autonome
autonomie
autootje
autopsie
autoritair
autoriteit
autosnelweg
autre
aux
avant
averechts
avond
avonden
avondje
avonds
avonturen
avonturier
avontuur
award
azijn
ba
baadde
baai
baal
baan
baanbrekend
baantje
baard
baarmoeder
baas
baasje
baat
babbel
baby
bachelor
back
bacterie
bacteriën
bad
badjas
badkamer
badkuip
badminton
badplaats
bagage
bagger
bak
bakboord
bakje
bakken
bakker
bakkerij
baksteen
bakstenen
bal
balanceer
balans
balie
balk
balken
balkon
ballad
ballen
ballet
balletje
ballingschap
ballon
ballonnen
balustrade
bamboe
ban
bananen
band
banden
bandieten
bandje
bandleden
banen
bang
banier
bank
bankbiljetten
banken
bankier
bankiers
bankje
bankrekening
bankroet
bar
barakken
barbaren
barbecue
bariton
barkeeper
barmhartig
barok
barokke
baron
barre
barricade
barrière
barst
barsten
barstte
bas
basale
baseer
baseerde
baseren
basis
basisonderwijs
basisplaats
basisscholen
basisschool
basisspeler
basketbal
basketballer
bassin
bassist
bastaard
bastion
bataljon
baten
batterij
batterijen
be
beaam
beaamde
beangstigend
beantwoord
beantwoordde
beantwoorden
beat
beauty
bebloed
beboet
bebost
bebouwd
bebouwing
bed
bedaard
bedacht
bedachtzaam
bedank
bedanken
bedankt
bedankte
bedden
bedeesd
bedekken
bedekt
bedekte
bedel
bedelaar
bedenk
bedenkelijk
bedenken
bedenker
bedenking
bedenkt
bederven
bedevaart
bediend
bediende
bedienden
bedienen
bediening
bedoel
bedoeld
bedoelde
bedoeling
bedoelt
bedolven
bedompt
bedraagt
bedrag
bedreig
bedreigd
bedreigde
bedreigen
bedreigend
bedreiging
bedreven
bedrieg
bedrieglijk
bedrijf
bedrijfs
bedrijfsleider
bedrijfsleven
bedrijfstak
bedrijfsvoering
bedrijven
bedrijvig
bedroefd
bedroeg
bedrog
bedrogen
bedrukt
beduidde
beduidend
bedwang
bedwingen
bedwong
beefde
beek
beeld
beelden
beeldhouw
beeldhouwer
beeldhouwwerk
beeldje
beeldscherm
beeldvorming
beeltenis
been
beende
beender
beer
beervlinder
beest
beesten
beestje
beet
beetje
befaamde
begaafd
begaan
begaf
begane
begeef
begeer
begeerte
begeleid
begeleidde
begeleiden
begeleiding
begerig
begeven
begin
beginnen
beginners
beginsel
begint
begon
begonnen
begraafplaats
begrafenis
begraven
begrensd
begrijp
begrijpelijk
begrijpen
begrijpend
begrijpt
begrip
begrippen
begroe
begroeid
begroeiing
begroet
begroeten
begroeting
begroette
begroting
begrotings
beha
behaaglijk
behaald
behaalde
behaard
behage
behal
behalve
behandel
behandeld
behandelde
behandelen
behandeling
behandelt
behang
behartig
beheer
beheerd
beheerder
beheersen
beheerst
beheerste
beheert
behels
behendig
beheren
behield
behoed
behoedzaam
behoefde
behoeft
behoefte
behoeften
behoeve
behoor
behoorde
behoorlijk
behoort
behoren
behorend
behoud
behouden
behuizing
behulp
behulpzaam
beide
beiden
bejaarde
bejaarden
bejegen
bejubeld
bek
bekeerd
bekeken
bekend
bekende
bekendgemaakt
bekendmaakte
bekendmaking
bekendste
bekennen
bekent
bekentenis
beker
bekerfinale
bekertoernooi
bekijk
bekijken
bekken
beklaag
beklaagde
beklede
bekleed
bekleedde
beklemmend
beklemtoon
beklimme
beklimming
beklom
beknopt
bekogeld
bekom
bekommer
bekommerd
bekoorlijk
bekostig
bekrachtigd
bekritiseerd
bekroning
bekroond
bekwaam
bekwame
bel
belaagd
belabberd
belachelijk
beladen
belager
beland
belandde
belang
belangen
belanghebbende
belangrijk
belangrijke
belangrijker
belangrijkste
belangstellend
belangstelling
belangwekkend
belast
belasting
belastingdienst
belastingen
belastingvrij
belde
beledigd
beledigen
beledigend
belediging
beleef
beleefd
beleefde
beleefdheid
beleg
belegd
belegerd
belegering
beleggen
belegger
beleggers
belegging
beleggings
beleggingsfonds
beleid
beleids
beleidsmaker
belemmer
belemmerd
belemmering
belette
beleven
beleving
belga
belicht
believ
bellen
beller
belletje
belofte
beloften
belonen
beloning
beloof
beloofd
beloofde
belooft
beloond
beloven
belt
beluisterd
beluisteren
bemachtig
bemand
bemanning
bemiddel
bemiddelaar
bemiddeling
bemind
beminnelijk
bemoedigend
bemoei
bemoeien
bemoeienis
bemoeilijkt
ben
benadeeld
benaderd
benaderen
benadering
benadrukken
benadrukt
benadrukte
benaming
benauwd
bende
beneden
benefiet
benen
benieuwd
benijd
benodigd
benoemd
benoemde
benoemen
benoeming
bent
benut
benutte
benutten
benzine
benzinemotor
benzinestation
beoefen
beoefend
beoogde
beoordeel
beoordeeld
beoordelen
beoordeling
bepaal
bepaald
bepaalde
bepalen
bepaling
beperken
beperking
beperkingen
beperkt
beperkte
bepleit
beproefd
beproeving
beraad
beraamd
berecht
bereden
bereid
bereidwillig
bereik
bereikbaar
bereiken
bereikt
bereikte
bereikten
bereken
berekend
berekenen
berekening
beren
berg
bergen
berghelling
bericht
berichten
berichtgeving
berichtje
berichtte
berm
beroemd
beroemde
beroemdste
beroep
beroepen
beroeps
beroepsgroep
beroerd
beroering
beroerte
berokken
beroofd
berouw
berove
beroving
berucht
beruchte
berust
berustend
beschaafd
beschaafde
beschaamd
beschadigd
beschadigen
beschamend
beschaving
bescheiden
bescherm
beschermd
beschermde
beschermen
bescherming
beschermt
beschieting
beschikbaar
beschikbare
beschikken
beschikking
beschikt
beschikte
beschilderd
beschoten
beschouw
beschouwd
beschouwde
beschouwen
beschouwing
beschreven
beschrijft
beschrijven
beschrijving
beschuldig
beschuldigd
beschuldigde
beschuldigen
beschuldigend
beschuldiging
beschutte
beschutting
besef
beseffen
beseft
besefte
beslaa
beslag
beslecht
beslissen
beslissende
beslissing
beslist
besliste
besloo
besloten
besluit
besluiteloos
besluiten
besluitvorming
besmet
besmette
besmettelijk
besmetting
besmeurd
besneeuwd
bespaard
bespaart
besparen
besparing
bespeeld
bespeur
bespeuren
bespied
bespot
bespottelijk
besprak
bespreek
bespreke
bespreking
besproken
best
bestaan
bestaande
bestaat
bestand
beste
besteed
besteedde
bestel
bestelbus
besteld
bestelde
bestelle
bestelling
bestelwagen
bestemd
bestemming
bestemmingsplan
bestempeld
bestoken
bestond
bestookt
bestormd
bestraft
bestrijd
bestrijden
bestrijding
bestseller
bestudeer
bestudeerd
bestudeerde
bestuder
bestuderen
besturen
besturing
bestuur
bestuurd
bestuurder
bestuurders
bestuurlijk
bestuurlijke
bestuurs
bestuursli
bestuursrecht
betaal
betaalbaar
betaald
betaalde
betaalt
betaam
betalen
betaling
betast
betastte
beteken
betekende
betekenen
betekenis
beter
betere
beteugel
beticht
betogen
betoger
betoging
beton
betonne
betoog
betoond
betoverd
betoverend
betovering
betrad
betrapp
betrapt
betreden
betreffende
betreft
betrekkelijk
betrekken
betrekking
betreur
betreuren
betrof
betrok
betrokken
betrokkenen
betrouwbaar
betrouwbaarheid
betuig
betwijfel
betwijfelde
betwist
beugel
beuken
beukte
beul
beurs
beursgang
beursgenoteerde
beurskoers
beursnotering
beurswaarde
beurt
beurtelings
beurzen
beval
bevallen
bevallig
bevalling
bevangen
bevat
bevatte
bevatten
beveelt
beveiligd
beveiligen
beveiliger
beveiliging
beveiligings
bevel
bevelen
bevelhebber
beven
bevend
bevestig
bevestigd
bevestigde
bevestigen
bevestiging
beviel
bevind
bevinden
bevindingen
beving
bevoegd
bevoegde
bevoegdheden
bevoegdheid
bevol
bevolking
bevolkingsgroep
bevolkt
bevond
bevoorrading
bevoorrecht
bevorder
bevorderd
bevorderen
bevordering
bevredigend
bevreemd
bevreesd
bevriend
bevriezen
bevrijd
bevrijden
bevrijding
bevro
bevrucht
bewaakt
bewaar
bewaard
bewaarde
bewaken
bewaker
bewaking
bewakings
bewapend
bewapening
bewaren
bewaring
beweeg
beweeglijk
beweegreden
beweer
beweerd
beweerde
bewees
bewegen
beweging
beweren
bewering
bewerking
bewerkstellig
bewerkt
bewerkte
bewezen
bewijs
bewijst
bewijzen
bewind
bewinds
bewindslieden
bewindvoerder
bewogen
bewolking
bewolkt
bewonder
bewonderaar
bewonderde
bewonderen
bewonderend
bewoner
bewoners
bewoning
bewoog
bewoond
bewoonster
bewoording
bewust
bewuste
bewusteloos
bewustzijn
bezaaid
bezat
bezegeld
bezem
bezet
bezeten
bezette
bezetten
bezetter
bezetting
bezichtig
beziel
bezield
bezien
bezienswaardig
bezig
bezighield
bezighoud
bezinning
bezit
bezitten
bezitting
bezocht
bezoek
bezoeken
bezoeker
bezoekers
bezoekje
bezoekt
bezorg
bezorgd
bezorgde
bezorgen
bezorgt
bezuinigd
bezuinigen
bezuiniging
bezuinigingen
bezwaar
bezwaren
bezwe
bezweren
bezwering
bezwijk
beëdigd
beëindig
beëindigd
beëindigde
beïnvloed
beïnvloeden
bi
bibber
biblio
bibliothecar
bibliotheek
bibliotheken
bid
bidden
biecht
bied
bieden
biedt
biefstuk
bier
bierbrouwer
biertje
biezen
big
bij
bijbehorend
bijbel
bijdrage
bijdragen
bijeen
bijeenkomst
bijgedragen
bijgevolg
bijgewoond
bijkomend
bijlage
bijna
bijnaam
bijpassend
bijstand
bijten
bijvoorbeeld
bijwerkingen
bijzijn
bijzonder
bijzondere
bijzonders
bikini
bilateral
biljart
biljoen
billen
billijk
bin
binden
bindend
binding
bindt
binnen
binnendringen
binnendrong
binnengehaald
binnengekomen
binnenkant
binnenkomen
binnenkwam
binnenland
binnenlands
binnenplaats
binnenstad
binnenste
binnenzak
bio
biografie
biolog
biologie
biologisch
biologische
bioscoop
bioscopen
biotechnologie
bis
bisdom
bisschop
bisschoppen
bit
bitter
bittere
bivakke
bizar
bizarre
bizon
bl
bla
blaas
blaast
black
blad
bladen
bladerde
bladeren
bladroller
bladzijde
blaffen
blafte
blanco
blank
blanke
blanken
blauw
blauwe
blazen
blazoen
bleef
bleek
bleke
bleken
blessure
blessures
bleven
blies
blij
blijf
blijft
blijk
blijkbaar
blijken
blijkt
blijven
blik
blikje
blikken
bliksem
bliksemschicht
bliksemsnel
blind
blinde
blindelings
blink
blinkend
blocnote
bloed
bloedbad
bloeddorstig
bloeddruk
bloedend
bloederige
bloedige
bloedvaten
bloedvergi
bloedverwant
bloei
bloeiend
bloem
bloemen
bloemetjes
bloemlezing
bloes
blog
blok
blokjes
blokkade
blokkeer
blokkeerde
blokken
blokkeren
blond
blonde
blondine
blonk
bloosde
bloot
blootgelegd
blootgesteld
blootstelling
blos
blouse
blozen
blozend
blues
bluf
blunder
blusse
bo
bocht
bochten
bod
bodem
boden
bodyguard
boeddhisme
boeddhistisch
boeg
boegbeeld
boei
boeien
boeiend
boek
boeken
boekenkast
boekhandel
boekhoud
boekhouder
boekhouding
boekjaar
boekje
boekte
boel
boem
boer
boerderij
boerderijen
boeren
boete
boetes
boetiek
boeven
boezem
bogen
bok
boks
bokser
boktor
bol
bolide
bolle
bollen
bolletjes
bolwerk
bom
bomaanslag
bombardement
bombarderen
bomen
bommen
bommenwerper
bon
bond
bonden
bondgenoot
bondgenootschap
bondgenoten
bondscoach
bondskanselier
bonen
bonk
bonkte
bonnetje
bonsde
bont
bonte
bonus
bonussen
bonzen
bood
boodschap
boodschappen
boodschapper
boog
boom
boomgaard
boomstam
boomstamme
boor
boord
boordevol
boos
boosaardig
boosdoener
boot
bootje
bord
bordeel
borden
bordje
borduur
boren
borg
borrel
borst
borstel
borstelworm
borsten
borstkanker
borstkas
bos
bosbrand
bosje
bosjes
bossen
boswachter
bot
botanische
boten
boter
boterham
boterhammen
botsen
botsing
botste
botte
botten
bou
boulevard
bourgeois
bouw
bouwde
bouwen
bouwt
bouwvakker
bouwvergunning
bouwwerk
boven
bovenaan
bovenal
bovendi
bovengenoemde
bovengronds
bovenkant
bovennatuurlijk
bovenop
bovenstaande
bovenste
bovenverdieping
box
boycot
boze
br
bra
braaf
bracht
brak
braken
brancard
branche
brand
brandde
branden
brandend
brandende
branding
brandstapel
brandstichting
brandstof
brandstoffen
brandweer
brandwonden
brave
bravoure
bre
break
brede
breder
breed
breedte
breekbaar
breekt
breid
breidde
breiden
breien
brein
breken
breng
brengen
brengt
breuk
brevi
brief
briefje
bries
brieven
brievenbus
brigadier
bril
briljant
briljante
brochure
broed
broeder
broeders
broederschap
broei
broeierig
broeikasgassen
broek
broekspijp
broekzak
broer
broertje
brok
brokkel
brokken
brokstuk
brom
bromde
bromfiets
brommer
bron
bronnen
brons
bronzen
brood
broodje
broodjes
broodnodig
broos
brouwer
brouwerij
browser
broze
brug
bruggen
brui
bruid
bruidegom
bruikbaar
bruiloft
bruin
bruine
brul
brulde
brullen
brutaal
brutale
brutaliteit
brute
bruto
bruusk
bruut
bu
bubbel
budget
budgettair
buffel
buffer
bui
buidel
buien
buigen
buiging
buigt
buik
buis
buit
buiten
buitenaardse
buitenaf
buitenbeentje
buitenechtelijk
buitengewone
buitengewoon
buitenkant
buitenland
buitenlander
buitenlands
buitenlucht
buitenshuis
buitenspel
buitensporig
buitenstaander
buitenste
buitenwereld
buitenwijk
buitgemaakt
buizen
bukken
bukte
bulder
bulderend
bulk
bull
bulldozer
bult
bumper
bundel
bungalow
bungelde
bunker
burcht
bureau
bureaucratie
bureaucratisch
buren
burgemeester
burgemeesters
burger
burgerlijk
burgerlijke
burgeroorlog
burgerrechten
burgers
bus
buschauffeur
bushalte
business
busje
bussen
but
butler
buur
buurland
buurlanden
buurman
buurt
buurtbewoner
buurtschap
buurvrouw
bv
by
bèta
ca
cabaret
cabaretier
cabine
cabrio
cacao
cadeau
cadeautje
cafetaria
café
cafés
cal
calcium
call
calorieën
cam
camera
cameraman
camouflage
campagne
camper
camping
campus
can
cannabis
canon
canvas
cao
cap
capaciteit
capit
capitulatie
captain
capuchon
car
caravan
cardio
carnaval
carrière
carrosserie
cartoon
cas
cash
casino
cassatie
cast
catacomben
catalogus
catastrofe
categor
categorie
catering
catwalk
cavalerie
cc
cd
ce
cel
cellen
cello
celstraf
cement
census
censuur
cent
centen
centimeter
centra
centraal
centrale
centralis
centrum
ceremon
ceremonie
cette
chagrijnig
chalet
champagne
champignon
change
chant
chantage
chaos
chaotisch
charge
charisma
charmant
charme
charter
chassis
chat
chauffeur
chauffeurs
check
chef
chemicaliën
chemie
chemisch
chemo
cheque
chic
chief
chimpansee
chip
chips
chique
chirurg
chirurgie
chocola
chocolade
cholesterol
choreogra
choreografie
christelijk
christelijke
christen
christendemocra
christendom
chronisch
chronische
chrono
chronologisch
chroom
ci
cijfer
cijfers
cilinder
cilindrisch
cineast
cinema
cipier
circa
circuit
circuleren
circus
cirkel
cirri
citaat
citaten
citeerde
citeert
citeren
citroen
citroensap
city
civiel
civil
cl
claim
clan
clandestien
classic
classificatie
claxon
clean
cliché
client
clip
cliënt
cliënten
close
clown
club
clubs
cluster
cm
co
coach
coalitie
coalitiepartner
cocaïne
cockpit
cocktail
code
coffeeshop
cognac
cognitie
coke
col
cola
colbert
collage
collect
collectie
collectieve
collega
college
colonne
column
columnist
com
coma
combi
combinatie
combineer
combineren
comeback
comedy
comfort
comfortabel
comité
command
commandant
commando
comme
commentaar
commentar
commentator
commerce
commercie
commercieel
commerciële
commissaris
commissie
commotie
commun
communautair
communicatie
communiceer
communiceren
communie
communism
communist
communisten
communistisch
comp
compact
compagnie
compagnon
compensatie
compenseer
compenseren
competitie
competitieduel
compilatie
compleet
complete
complex
complexe
complexiteit
complicatie
compliment
complot
componeerde
componenten
componeren
componist
componisten
compositie
composities
compromis
computer
computers
computerspel
con
concentratie
concentreer
concentreerde
concentreren
concept
concern
concert
concerten
concessie
concessies
conciërge
concludeer
concludeerde
concluderen
conclusie
concreet
concrete
concurrent
concurrentie
concurreren
concurrerende
conditie
condoom
conducteur
conf
conferentie
conflict
conflicten
conform
confrontatie
confronteer
confronteren
congres
connectie
cons
consensus
consequent
consequentie
conserv
conservatief
conservatieve
conservatorium
consistent
consortium
constant
constante
constateer
constateerde
constater
constatering
constitu
constructeur
constructie
consul
consulaat
consultant
consultatie
consument
consumenten
consumeren
consumptie
contact
contacten
container
containers
contant
content
context
continent
continentale
contingent
continu
continuïteit
contour
contra
contract
contracten
contrast
contre
controle
controleer
controleerde
controleren
controles
controleur
controverse
controversie
controversiële
convenant
conventie
conversatie
cool
cor
corner
corporatie
correct
correcte
correctie
correction
correspondent
correspondentie
corrigeer
corrigeren
corrupt
corrupte
corruptie
cosmetica
coulissen
count
counter
country
coup
coupé
courant
coureur
coureurs
cover
cowboy
coördinatie
coördinator
coördineer
coördineren
cr
crack
crash
cre
creat
creatie
creatief
creatieve
creativiteit
creditcard
crematie
crew
creëer
creëerde
creëren
cricket
criminaliteit
crimineel
criminele
criminelen
criminolo
crises
crisis
criteria
criterium
critici
cro
cross
crucia
crucial
cruise
crypto
crèche
crème
culinair
cult
cultureel
culturele
cultuur
cur
curator
cursisten
cursus
cv
cyan
cyber
cyclisch
cyclo
cyclus
cynisch
cynisme
da
daad
daadkracht
daadwerkelijk
daalde
daalt
daar
daaraan
daarachter
daarbij
daarboven
daarbuiten
daardoor
daargind
daarin
daarmee
daarna
daarom
daaronder
daarop
daaropvolgend
daarover
daartegen
daartoe
daaruit
daarvan
daarvoor
dacht
dachten
dadelijk
daden
dader
daders
dag
dagblad
dagboek
dagelijks
dagen
dagenlang
dageraad
dagje
daglicht
dagvaarding
dak
daklozen
dal
dalen
dalend
daling
dam
dame
dames
dammen
damp
dampend
dan
dance
dank
dankbaar
dankbaarheid
dankt
dansen
danser
danseres
dansten
dansvloer
dapper
dappere
darm
dartel
dashboard
dat
databank
database
datum
daverend
de
deadline
dealer
debacle
debat
debatteer
debatten
debutant
debuteerde
debuut
debuutalbum
december
decenni
decennia
decennialang
decor
decoratie
decreet
deden
deed
deel
deelde
deelden
deelgemeente
deelgenomen
deelnam
deelname
deelnemen
deelnemende
deelnemer
deelnemers
deelneming
deels
deelstaat
deelstaten
deelt
deeltijd
deeltjes
defensie
defensieve
definitie
definitief
definitieve
definiëren
deftig
degelijk
degene
degradatie
degradeerde
deinsde
dekbed
deken
dekken
dekking
dekmantel
deksel
delegatie
delen
delicate
delict
dementerende
dementie
democra
democratie
democratisch
democratische
democratisering
demonen
demonstratie
demonstraties
demonstreer
demonstreren
denk
denkbeeld
denkbeeldig
denken
denkt
denktank
departement
deportatie
depressie
depressief
deprimerend
derby
derde
dergelijk
dergelijke
dertien
dertiende
dertig
desbetreffend
design
designate
deskundige
deskundigen
deskundigheid
dessert
destijds
detail
detailhandel
details
detective
deugd
deuk
deuntje
deur
deuren
deuropening
deurwaarder
deze
dezelfde
di
diabetes
diagnose
diagram
dialect
dialog
dialoog
diamant
diamanten
diameter
diarree
dicht
dichtbij
dichte
dichter
dichters
dichtst
dichtstbijzijn
dictat
dictator
dictee
die
dieet
diefstal
dienaar
dienblad
diende
dienden
dienen
diens
dienst
diensten
dienstmeisje
dienstplicht
dienstregeling
dienstverlener
dienstverlening
dient
diep
diepe
dieper
diepgaand
diepgang
diepste
diepte
dieptepunt
diepvries
dier
dierbaar
dierbare
dieren
dierenarts
dierentuin
dierlijke
diersoort
diertje
diesel
dieselmotor
dieven
different
diffu
digi
digitaal
digitale
dij
dijbeen
dijen
dijk
dik
dikke
dikker
dikte
dikwijls
dilemma
dimensie
diner
ding
dingen
dingetje
dinosauriër
dinosaurus
dinsdag
dinsdagavond
dioxine
dip
diploma
diplomaten
diplomatie
diplomatiek
diplomatieke
direct
directe
directeur
directie
dirigeerde
dirigent
disc
discipline
disco
discotheek
discreet
discrete
discreti
discriminatie
discrimineren
discussie
discussies
discussiëren
display
dissident
dist
distributie
district
dit
ditmaal
diva
divers
diverse
diversiteit
dividend
divisie
do
dobbel
dobbelstenen
dobber
doceer
docent
docenten
doch
dochter
dochters
dochtertje
doctor
document
documentaire
documentatie
documenten
dode
dodelijk
dodelijke
doden
dodental
doe
doek
doeken
doekje
doel
doelbewust
doeleinde
doelen
doelgericht
doelgroep
doelloos
doelman
doelmatig
doelpunt
doelpunten
doelsaldo
doelstelling
doelstellingen
doeltreffend
doelwit
doemde
doen
doet
dof
doffe
dogma
dokter
dokters
doktor
dol
dolblij
dolfijn
dolk
dollar
dollars
dolle
dom
domein
dominant
dominante
dominantie
dominee
domineerde
domineren
domme
dompel
don
donatie
donder
donderdag
donderdagavond
donderend
donderslag
donker
donkerblauw
donkerbruin
donkerder
donkere
donkergroen
donor
dood
doodgaan
doodgeschoten
doodmoe
doods
doodsangst
doodsbang
doodschiet
doodskist
doodslag
doodsoorzaak
doodstil
doodstraf
doodvonnis
doodziek
doof
doofde
doofpot
dooie
doolhof
doop
door
doorboord
doorbraak
doorbracht
doorbrak
doorbreken
doorbroken
doordat
doordeweeks
doordrenkt
doordringen
doordringend
doordrong
doorgaan
doorgaans
doorgang
doorgebracht
doorgevoerd
doorgrond
doorkruist
doorliep
doorlopen
doorschemeren
doorschijnend
doorslaggevend
doorsnede
doorsnee
doorstaan
doortastend
doorweekt
doorzettings
doorzichtig
doorzocht
doorzoeken
doos
doosje
dop
doping
dopingcontrole
dorp
dorpeling
dorpen
dorpje
dorps
dorpskern
dorre
dorst
dosis
dossier
dossiers
douane
douche
doven
down
download
dozen
dozijn
dr
draad
draadje
draafde
draag
draagbare
draagt
draagvlak
draai
draaide
draaien
draait
draak
draden
draf
dragen
draken
drama
dramatisch
dramatische
drang
drank
drankje
drastisch
dreef
dreigde
dreigement
dreigen
dreigend
dreigende
dreiging
dreigt
drempel
dreun
dreunend
dribbel
drie
driedelig
drieduizend
driehoek
driehoekig
driehonderd
driejarig
driekwart
driepunter
drietal
drievoudig
drieën
drieëntwintig
drift
driftig
drijf
drijft
drijfve
drijven
drijvende
dringen
dringend
dringende
drink
drinken
drinkt
drinkwater
drive
dro
droef
droeg
droevig
droge
drogen
droger
dromen
dromerig
drone
drong
dronk
dronken
droog
droogte
droom
droomde
drop
drug
drugs
drugsgebruik
drugshandel
druip
druipend
druiven
druk
drukke
drukken
drukker
drukkerij
drukt
drukte
drum
drummer
druppel
druppels
du
dubbel
dubbele
dubbelspel
dubbelzinnig
dubieuze
duel
duet
duid
duidelijk
duidelijke
duidelijker
duidelijkheid
duiden
duik
duiken
duikers
duikt
duim
duin
duinen
duister
duisternis
duivel
duivels
duiven
duizel
duizelig
duizend
duld
dump
dun
dunkt
dunne
duo
dupe
dure
duren
durf
durfde
durft
durven
dus
dusdanig
dusver
duur
duurde
duurder
duurt
duurzaam
duurzaamheid
duurzame
duw
duwde
duwen
duwt
dvd
dwaal
dwaalde
dwaas
dwalen
dwaling
dwang
dwangarbeid
dwangsom
dwarrelde
dwars
dwaze
dwe
dweil
dwerg
dwergen
dwing
dwingen
dwong
dynamiek
dynamisch
dynastie
dé
echo
echt
echte
echter
echtgenoot
echtgenote
echtpaar
echtscheiding
eco
ecologisch
ecologische
econo
econom
economie
economisch
economische
edel
edele
edelman
edelsten
editie
educatieve
eekhoorn
een
eenduidig
eenheden
eenheid
eenige
eenmalig
eenoogkreeftjes
eens
eensgezind
eensklaps
eentje
eentonig
eenvoud
eenvoudig
eenvoudige
eenvoudiger
eenzaam
eenzaamheid
eenzame
eenzijdig
eer
eerbeto
eerbied
eerbiedig
eerbiedwaardig
eerder
eergisteren
eerlijk
eerlijke
eerlijkheid
eerst
eerste
eerstejaars
eerstvolgend
eetkamer
eetlepel
eetlust
eetzaal
eeuw
eeuwen
eeuwenlang
eeuwenoude
eeuwig
eeuwige
eeuwigheid
eeuwse
effe
effect
effecten
effectenbeur
effectief
effectieve
effectiviteit
effen
efficiënt
efficiënter
efficiëntie
ego
egoïs
egoïstisch
eier
eieren
eigen
eigenaar
eigenaardig
eigenaardige
eigenaars
eigenare
eigenbelang
eigendom
eigenhandig
eigenlijk
eigenschap
eigenschappen
eigentijdse
eikel
eiken
eikenhout
eiland
eilanden
eilandje
eind
einde
eindejaars
eindelijk
eindeloos
eindexamen
eindig
eindigde
eindigen
eindje
eindklassement
eindpunt
eindronde
eindstand
eindzege
eisen
eist
eiste
eitje
eiwit
eiwitt
elastiek
elders
electoraa
electoral
electronic
elegan
elegant
elegante
elektr
elektriciteit
elektriciteits
elektrisch
elektrische
elektro
elektronen
elektronica
elektronisch
elektronische
element
elementaire
elementen
elf
elfde
elfen
elftal
elitair
elite
elk
elkaar
elkander
elke
ellebogen
elleboog
ellende
ellendig
ellendige
email
emancipatie
embleem
embryo
emeritus
emigreerde
emissie
emmer
emotie
emoties
emotioneel
emotionele
emplo
en
enclave
encyclopedie
endemisch
energie
energiek
engagement
engel
engelen
enig
enige
enigszin
enkel
enkele
enkeling
enkelspel
enorm
enqu
ensemble
entertainment
enthousiasme
enthousiast
entourage
entree
entreprise
envelop
enveloppe
enzovoort
enzym
epi
epidemie
episode
epo
equivalent
er
eraan
erachter
eraf
erbarmelijk
erbij
erdoor
eredivisie
erf
erfelijk
erfenis
erfgenaam
erfgename
erfgoed
erfpacht
erg
ergens
erger
ergerde
ergernis
ergste
erin
erkend
erkende
erkennen
erkenning
erkent
ermee
erna
ernaar
ernaast
ernst
ernstig
ernstige
erom
eronder
erop
erotiek
erotische
erover
ertegen
ertussen
eruit
eruitzag
eruitzie
ervan
ervaren
ervaring
ervoor
escalatie
escorte
espresso
essay
essentie
essentieel
essentiële
establishment
estafette
esthe
esthetisch
etablissement
etage
etalage
etappe
etc
eten
etentje
ether
ethisch
ethische
etiket
etmaal
etnisch
ettelijke
euforie
euforisch
euh
euro
eurocent
euroland
eurozone
euthanasie
euvel
evacuatie
evacue
evaluatie
evalueren
evangelie
even
evenals
evenement
evenementen
evenmin
evenredig
eventueel
evenveel
evenwel
evenwicht
evenwijdig
evident
evolueer
evolueren
evolutie
evolutionair
ex
exact
exacte
examen
exclusief
exclusieve
excursie
excuse
excuses
excuus
execut
executie
exemplaar
exemplaren
existent
exotisch
exotische
expansie
expeditie
experiment
experimentele
experimenten
experimenteren
expert
expertise
experts
expliciet
explo
explodeerde
exploderen
exploitatie
exploiteer
exploiteren
explosie
explosief
explosieve
explosieven
expo
exponent
export
exporteren
expositie
expres
expressie
extase
extern
externe
extra
extraatje
extreem
extreemrechts
extreme
extremisme
extremisten
extremistisch
ezel
fa
faalde
fabel
fabri
fabriek
fabrieken
fabrieks
fabrikant
fabrikanten
facette
facilit
faciliteiten
facto
factor
factoren
facturen
faculteit
failliet
faillissement
fair
fait
fakkel
fal
falen
fameu
familia
familiale
familie
familielid
families
fan
fanatiek
fanatieke
fanfare
fans
fantaseer
fantasie
fantasieën
fantastisch
fantastische
farao
farma
farmaceutisch
farmacie
fasci
fascinatie
fascineer
fascinerend
fascisme
fascistisch
fase
fastfood
fataal
fatale
fatsoen
fatsoenlijk
fatsoenlijke
fauna
fauteuil
favoriet
favoriete
favorieten
fax
februari
federa
federale
federatie
fee
feest
feestdag
feestdagen
feestelijk
feestelijke
feesten
feestje
feil
feit
feite
feitelijk
feiten
fel
felgekleurd
felicitatie
felicite
felle
feminis
feministisch
fenome
ferm
ferr
fervent
festival
festiviteit
fi
fictie
fictieve
fier
fiets
fietsen
fietser
fietsers
fietspad
fietste
figuren
figuur
figuurlijk
figuurtje
fijn
fijne
fik
fikse
fil
file
files
filiaal
filialen
film
filmfestival
filmmaker
filmpje
filmregisseur
films
filosofe
filosofen
filosofie
filosofisch
filosofische
filosoof
filter
fin
finale
finales
finalist
financi
financieel
financier
financiering
financiële
financiën
finish
finishte
firma
first
fiscaal
fiscale
fiscu
fit
fitness
fl
fladderde
fladderen
flakkerend
flamboyant
flank
flap
flard
flat
flatgebouw
flauw
flauwe
flauwekul
flavi
fles
flesje
flessen
flexibel
flexibele
flexibiliteit
flikker
flink
flinke
flip
flirt
flits
flitste
fluister
fluisterde
fluisteren
fluisterend
fluistert
fluit
fluiten
fluweel
fluwel
fo
focus
focusse
foetus
fok
folder
folk
folklore
folter
fon
fonds
fondsen
fonkel
fonkelde
fonkelend
fontein
fooi
football
for
forceerde
forceren
forensisch
form
formaat
formaliteit
formateur
formatie
formeel
formele
formidabel
formula
formule
formuleerde
formuleren
formulering
fornuis
fors
forse
fort
fortuin
forum
fosfor
fossiel
foto
fotograaf
fotografe
fotografeerde
fotografen
fotograferen
fotografie
fotokopie
fototoestel
fouiller
fout
foute
fouten
foutje
foyer
fr
fraai
fraaie
fractie
fractieleider
fragiel
fragment
fragmenten
frame
fran
franc
franchise
frank
frase
fraude
frazion
free
freelance
fregat
freguesia
frequent
frequentie
fresco
friet
fris
frisdrank
frisse
frituur
from
frons
fronsend
fronste
front
frontale
fruit
frustratie
frustrerend
fu
fuck
full
fulltime
fun
functie
functies
function
functionaris
functioneel
functioneer
functioneerde
functionele
functioneren
fundament
fundamentalist
fundamenteel
fundamentele
fundering
fungeer
fungeerde
fungeren
funk
furieu
furor
fuseerde
fuseren
fusie
future
futuristisch
fysiek
fysio
fysiotherapeut
ga
gaan
gaande
gaar
gaarne
gaas
gaat
gade
gadesloeg
gadget
gaf
gal
gala
galerie
galerij
galmde
game
games
gamma
gammele
gang
gangen
gangpad
gangster
gans
ganzen
gapend
garage
garandeer
garant
garantie
garde
garderobe
gardist
gareel
garnalen
garnizoen
gas
gast
gasten
gastheer
gastland
gastronomi
gastvrij
gastvrijheid
gastvrouw
gaswinning
gat
gaten
gauw
gave
gaven
gazon
ge
geaccepteerd
geacht
geactiveerd
geadopteerd
geadviseerd
gealarmeerd
geallieerde
geamuseerd
geanalyseerd
geanimeerd
geannuleerd
gearresteerd
gearriveerd
geassocieerd
geautomatiseerd
geavanceerde
geb
gebaa
gebaar
gebaarde
gebakken
gebald
gebaren
gebaseerd
gebed
gebeden
gebeeldhouwd
gebeld
gebergte
gebeten
gebeurd
gebeurde
gebeuren
gebeurt
gebeurtenis
gebeurtenissen
gebied
gebieden
gebit
gebleken
geblesseerd
gebleven
geblokkeerd
geboden
geboeid
geboekt
gebogen
gebombardeerd
gebonden
geboorte
geboorteplaats
geboortesta
geborduurd
geboren
geborgen
gebouw
gebouwd
gebouwen
gebracht
gebrand
gebreid
gebrek
gebrekkig
gebrekkige
gebroeder
gebroken
gebruik
gebruikelijk
gebruikelijke
gebruiken
gebruiker
gebruikers
gebruikmaken
gebruikt
gebruikte
gebruikten
gebruind
gebrul
gebukt
gebundeld
geciteerd
gecombineerd
gecompenseerd
gecompliceerd
gecomponeerd
gecon
geconcentreerd
geconfronteerd
geconstateerd
geconstrueerd
gecontroleerd
gecorrigeerd
gecoördineerd
gecreëerd
gedaagd
gedaald
gedaan
gedaante
gedacht
gedachte
gedachten
gedanst
gedateerd
gede
gedecideerd
gedecoreerd
gedeeld
gedeelte
gedeeltelijk
gedefinieerd
gedegen
gedegradeerd
gedekt
gedelegeerd
gedempt
gedempte
gedenk
gedenkteken
gedeporteerd
gedeputeerde
gedetailleerd
gedetailleerde
gedetineerde
gedetineerden
gedicht
gedichten
gediend
gedij
geding
gedisciplineerd
gediscrimineerd
gediscussieerd
gedo
gedocumenteerd
gedoe
gedoemd
gedomineerd
gedood
gedoofd
gedoog
gedoopt
gedownload
gedraag
gedraaid
gedrag
gedragen
gedragscode
gedreig
gedreven
gedroeg
gedronken
gedroogde
gedroomd
gedrukt
geduld
geduldig
gedumpt
gedupeerd
geduwd
gedwee
gedwongen
geef
geeft
geel
geen
geest
geestdrift
geestelijk
geestelijke
geesten
geestes
geestig
geestverwant
geeuw
gef
gefaald
gefascineerd
gefilmd
gefinancierd
geflankeerd
gefluister
gefocust
geforceerd
geformuleerd
gefotografeerd
gefronst
gefrustreerd
gegaan
gegadigde
gegarandeerd
gegeneerd
gegeten
gegeven
gegevens
gegijzeld
gegil
gegooid
gegraveerd
gegroeid
gegrom
gegrond
gehaa
gehaald
gehaast
gehad
gehakt
gehalveerd
gehandhaafd
gehandicapt
gehandicapte
gehandicapten
gehangen
gehanteerd
gehate
gehavend
gehecht
geheel
geheim
geheime
geheimen
geheimhouding
geheimzinnig
geheimzinnige
gehele
gehes
geheugen
gehinderd
geholpen
gehoopt
gehoor
gehoord
gehoorzaam
gehoorzaamde
gehoorzame
gehore
gehouden
gehucht
gehuil
gehuisvest
gehuld
gehuldigd
gehurkt
gehuurd
gehuwd
geil
geintje
geit
geiten
gejaagd
gejammer
gejuich
gek
gekaapt
gekapt
gekeerd
gekek
gekend
gekenmerkt
gekke
geklasseerd
gekleed
geklemd
geklets
gekleurd
gekleurde
geklonken
geklopt
gekneusd
geknield
geknipt
geknoei
gekocht
gekoesterd
gekomen
gekookt
gekopieerd
gekoppeld
gekost
gekozen
gekraak
gekregen
gekrenkt
gekreun
gekrijs
gekromd
gekroond
gekruist
gekund
gekwalificeerd
gekweekt
gekweld
gekwetst
gelaat
gelaatstrek
gelach
geladen
gelanceerd
geland
gelast
gelaten
geld
geldboete
gelden
geldig
geldschieter
geldt
gele
geleden
gelederen
geleefd
geleend
geleerd
geleerde
geleerden
gelegd
gelegen
gelegenheid
gelegerd
geleid
geleidelijk
gelekt
geleverd
gelezen
gelieerd
geliefd
geliefde
gelijk
gelijkaardig
gelijke
gelijkenis
gelijkheid
gelijkmaker
gelijkmatig
gelijknamig
gelijkspel
gelijktijdig
gelijkwaardig
gelinkt
gelofte
gelogen
geloof
geloofd
geloofde
geloofwaardig
geloov
gelost
geloven
gelovig
geluid
geluiden
geluids
geluk
gelukkig
gelukkige
gelukt
gelukzalig
gem
gemaakt
gemak
gemakkelijk
gemakkelijker
gemanipuleerd
gemarkeerd
gemarteld
gemaskerde
gematigd
gematigde
gemeen
gemeenschap
gemeenschappe
gemeente
gemeentebestuur
gemeentehuis
gemeentelijk
gemeenten
gemeenteraad
gemeld
gemene
gemengd
gemengde
gemerkt
gemeten
gemiddeld
gemiddelde
gemis
gemist
gemoderniseerd
gemoed
gemoedelijk
gemoeder
gemoedstoestand
gemoeid
gemompel
gemonteerd
gemotiveerd
genaamd
genade
genadeloos
genadig
genageld
gendarme
gene
genees
geneeshe
geneeskunde
geneesmiddel
geneesmiddelen
genegeerd
genegenheid
geneigd
genen
generaal
general
generatie
generaties
genereren
genesteld
genetisch
genetische
genezen
genezing
geniaal
geniale
genie
geniet
genieten
genocide
genodigd
genoeg
genoegen
genoemd
genoemde
genomen
genomineerd
genoodzaakt
genoot
genot
genoteerd
genoten
genre
genuanceerd
genummerd
geobsedeerd
geoefend
geografisch
geometri
geoordeeld
geoorloofd
geopenbaard
geopend
geopereerd
geopperd
geordend
georganiseerd
georganiseerde
georiënteerd
gep
gepaard
gepakt
gepantserd
geparkeerd
gepasseerd
gepassioneerd
gepast
gepensioneerd
gepensioneerde
gepest
gepiep
geplaagd
geplaatst
geplaatste
geplakt
gepland
gepleegd
geplei
geplunderd
gepolijst
geportretteerd
gepraa
gepresenteerd
gepresteerd
geprezen
geprikkeld
geprivatiseerd
geprobeerd
geproduceerd
geproefd
geprojecteerd
gepromoveerd
gepubliceerd
geraadpleegd
geraakt
geraamd
geraamte
geraas
geraffineerd
gerangschikt
gerapporteerd
gere
gerealiseerd
gerecht
gerechtelijk
gerechtigheid
gerechtsgebouw
gerechtshof
gerechtvaardigd
gered
gereden
gereduceerd
gereed
gereedschap
gereformeerde
geregeerd
geregeld
geregisseerd
geregistreerd
gerekend
gerelateerd
gerenommeerd
gerenoveerd
gerepareerd
gereserveerd
gerespecteerd
gerestaureerd
gericht
gerichte
gerimpeld
gering
geringe
geringste
gerinkel
geritsel
geroemd
geroepen
gerommel
geroofd
gerookt
geroosterd
gerucht
geruchten
geruchtmakend
geruime
geruis
gerund
gerust
geruststellend
geruststelling
gesch
geschaa
geschaard
geschapen
geschat
gescheiden
geschenk
geschetst
gescheurd
geschied
geschiedenis
geschiedschrijv
geschikt
geschikte
geschil
geschilderd
geschillen
geschokt
geschon
geschonden
geschopt
geschor
geschorst
geschoten
geschoven
geschrapt
geschreeuw
geschreeuwd
geschreven
geschriften
geschud
geschut
gescoord
gesegmenteerd
geselecteerd
geserveerd
gesignaleerd
gesitueerd
gesjoemel
geslaagd
geslaagde
geslacht
geslagen
gesleept
geslepen
geslingerd
gesloopt
gesloten
gesmet
gesmokkeld
gesmolten
gesmoord
gesneden
gesneuveld
gesp
gespaard
gespannen
gespecialiseerd
gespeculeer
gespeeld
gespierd
gespierde
gespleten
gesplitst
gesponsord
gespot
gespreid
gesprek
gesprekken
gesprekspartner
gestaag
gestaakt
gestalte
gestapeld
gestapt
gestart
gestationeerd
gesteente
gestegen
gesteld
gestemd
gesteund
gesticht
gestimuleerd
gestoken
gestolen
gestoord
gestopt
gestort
gestorven
gestraft
gestrand
gestrede
gestreept
gestrekt
gestructureerd
gestudeerd
gestuit
gestuurd
gesubsidieerd
gesuggereerd
getal
getallen
geteisterd
getekend
geteld
getergd
getest
getint
getipt
getiteld
getoetst
getogen
getooid
getoond
getracht
getraind
getransporteerd
getraumatiseerd
getroffen
getroost
getrouw
getrouwd
getto
getuig
getuigde
getuige
getuigen
getuigenis
geuit
geur
geuren
gevaar
gevaarlijk
gevaarlijke
gevaarlijker
gevaarlijkst
geval
gevallen
gevangen
gevangene
gevangenen
gevangenis
gevangenissen
gevangenisstraf
gevangenschap
gevaren
gevarieerd
gevat
gevecht
gevechten
gevechts
geveild
gevel
geveld
geven
geverfd
gevestigd
gevestigde
gevierd
gevleid
gevlekt
gevleugelde
gevlogen
gevlucht
gevoed
gevoegd
gevoel
gevoeld
gevoelens
gevoelig
gevoelige
gevoerd
gevoetbald
gevolg
gevolgd
gevolgen
gevonden
gevorderd
gevormd
gevraagd
gevreesd
gevuld
gevulde
gew
gewaa
gewaagd
gewaarborgd
gewaardeerd
gewaarschuwd
gewaarwording
gewapend
gewapende
gewassen
geweer
geweest
geweigerd
gewekt
geweld
gewelddadig
gewelddadige
geweldig
geweldige
gewelfd
gewend
gewenst
gewer
gewerkt
gewest
geweten
gewezen
gewicht
gewichtig
gewijd
gewijzigd
gewikkeld
gewild
gewillig
gewond
gewonde
gewonden
gewone
gewonnen
gewoon
gewoonlijk
gewoonte
gewoonweg
geworden
geworpen
geworteld
gewraakt
gewricht
gewurgd
gezag
gezagvoerder
gezakt
gezamenlijk
gezamenlijke
gezang
gezant
gezegd
gezegend
gezellig
gezellige
gezelligheid
gezelschap
gezet
gezeur
gezicht
gezichten
gezichtspunt
gezichtsveld
gezien
gezin
gezinnen
gezins
gezocht
gezoem
gezond
gezonde
gezondheid
gezondheids
gezondheidszorg
gezongen
gezorgd
gezuiverd
gezwo
gezworen
geë
geëerd
geëindigd
geëist
geëmotioneerd
geëngageerd
geërfd
geërgerd
geëvacueerd
geëvalueerd
geëxecuteerd
geëxperimenteer
geëxploiteerd
geëxporteerd
geïdentificeerd
geïllustreerd
geïmporteerd
geïmproviseerd
geïn
geïnfecteerd
geïnformeerd
geïnspireerd
geïnstalleerd
geïntegreerd
geïnteresseerd
geïnterpreteerd
geïnterviewd
geïntimideerd
geïntroduceerd
geïnvesteerd
geïrriteerd
geïsoleerd
gi
gids
giechel
giechelde
gier
gierend
giet
gietijzer
gif
gift
giftig
giftige
gigantisch
gigantische
gij
gijzelaars
gijzeling
gil
gilde
gillen
gillend
ginds
ging
gingen
gips
gister
gisteravond
gisteren
gistermorg
gitaar
gitaren
gitarist
gl
glaasje
glad
gladde
glamour
glans
glansde
glanzend
glanzende
glas
glasvezel
glazen
glazig
gletsjer
gleuf
glibberig
glij
glijd
glijden
glim
glimlach
glimlachen
glimlachend
glimlachje
glimlacht
glimlachte
glimmend
glimp
glinsterde
glinsterend
glippen
glipte
glitter
glo
globa
globale
globalisering
gloed
gloednieuw
gloeide
gloeiend
gloeiende
glom
glooiend
glorie
glorieuze
glunder
gluren
gluurde
go
goal
goals
god
goddelijk
goddelijke
goden
godin
godsdienst
godsdienstige
godverdomme
goed
goede
goederen
goedgekeurd
goedkeur
goedkeurend
goedkeuring
goedkoop
goedkoopst
goedkope
goedkoper
goeie
gok
gokke
gold
golf
golfbaan
golflengte
golven
golvende
gonsde
goochel
good
goodwill
gooi
gooide
gooien
gooit
goot
gootsteen
gordel
gordijn
gordijnen
gorilla
gotisch
goud
gouden
goudkleurig
goudmijn
gouvernement
gouverneur
govern
gps
gr
gra
graad
graaf
graafschap
graag
graai
graaide
graan
grabbel
gracht
grachten
gracieu
graden
graf
graffiti
grafiek
gram
grammatica
granaat
grand
grandio
grandslam
graniet
grap
grapje
grappen
grappig
grappige
grapt
gras
grasland
grasveld
gratie
gratis
grauw
grauwe
gravel
graven
gravin
grazen
greep
grein
grendel
grens
grensgebied
grenst
grenzelo
grenzen
greppel
gretig
grie
griep
griezel
griezelig
grif
griffier
grijns
grijnsde
grijnzen
grijnzend
grijpen
grijpt
grijs
grijze
grill
grillig
grillige
grimas
grimmig
grind
grinniken
grinnikend
grinnikt
grinnikte
grip
griste
groef
groei
groeide
groeien
groeiend
groeit
groen
groene
groente
groenten
groep
groepen
groepering
groepje
groeps
groepsfase
groepswedstrijd
groet
groeten
groette
groeve
groezelig
grof
gromde
grond
gronden
grondgebied
grondig
grondige
grondlegger
grondslag
grondstof
grondstoffen
grondwater
grondwet
grondwettelijk
groot
groothandel
groothertog
grootmacht
grootmeester
grootmoeder
grootouder
grootschalig
grootschalige
grootscheepse
grootse
grootst
grootste
grootte
grootvader
gros
grot
grote
grotendeels
groter
grotere
grotten
grove
gruwel
gruwelijk
gruwelijke
gsm
gu
guerrilla
gul
gulden
gulle
gulzig
gunde
gunnen
gunst
gunste
gunstig
gunstige
gym
gymnasium
gynaecolo
gé
ha
haa
haaien
haak
haakjes
haakte
haal
haalbaar
haalde
haalt
haar
haast
haastig
haastte
haat
haatte
habitat
hack
hackers
had
hadden
hagedissen
hagel
hak
haken
hakken
hal
halen
half
halfbroer
halfgeleider
halfjaar
halfrond
halfuur
hallo
hals
halsband
halt
halte
halve
halverwege
ham
hamburger
hamer
hamstring
hand
handbal
handboeien
handdoek
handel
handelaar
handelaars
handelde
handelen
handeling
handelingen
handels
handelsmerk
handelwijze
handen
handhaaf
handhaven
handhaving
handicap
handig
handje
handlanger
handpalm
handschoenen
handschrift
handtas
handtekening
handtekeningen
hang
hangar
hangen
hangmat
hangt
hanteer
hanteren
hap
haper
hapje
happen
happy
hapte
har
hard
harde
harder
hardhandig
hardlopen
hardnekkig
hardst
hardware
hardwerkend
hare
haren
haring
harmonie
harnas
harp
hart
hartaanval
harte
hartelijk
harten
hartinfarct
hartje
hartslag
hartstilstand
hartstocht
hartstochtelijk
hasj
hatelijk
haten
have
haven
havens
havenstad
havik
havo
hazen
hbo
he
headlines
heb
hebben
hebt
hecht
hechten
hechtenis
hechtte
hectare
hectisch
heden
hedendaags
hedendaagse
heeft
heel
heelal
heen
heer
heerlijk
heerlijke
heerlijkheid
heerschappij
heersen
heersend
heerser
heerst
heerste
hees
heet
heette
hefboom
heffen
heffing
heft
heftig
heftige
heide
heidens
heikel
heil
heilig
heiligdom
heilige
heiligen
heimelijk
heimwee
hek
hekel
hekken
hekkensluiter
heks
heksen
hel
helaas
held
helden
helder
helderder
heldere
helderheid
helderziend
heldhaftig
hele
heleboel
helemaal
helft
helikopter
helikopters
helle
hellend
helling
hellingen
helm
help
helpen
helper
helpt
helse
hem
hemel
hemels
hen
hengel
hengst
hennep
her
heraanleg
herbe
herberg
herbergier
herbouwd
herdacht
herdenk
herdenking
herdenkings
herder
heren
herenhui
herenigd
hereniging
herfst
hergebruik
herhaal
herhaald
herhaalde
herhaaldelijk
herhaalt
herhalen
herhaling
herindeling
herinner
herinnerd
herinnerde
herinneren
herinnering
herinrichting
herkansing
herken
herkenbaar
herkend
herkende
herkennen
herkenning
herkomst
herkozen
herleid
hermetisch
hernam
hernieuw
hernieuwde
hernoemd
herop
heropend
herover
heroïne
heroïsch
herrie
hersen
hersenbloeding
hersenen
hersens
herstel
hersteld
herstelde
herstellen
herten
hertog
hertogdom
hertogin
hertrouw
hervat
hervatte
hervond
hervormd
hervormen
hervorming
herzien
het
hetero
hetzelfde
hetzij
heup
heur
heus
heuvel
heuvels
hevig
hevige
hi
hield
hielden
hielen
hielp
hier
hieraan
hierbij
hierboven
hierdoor
hierme
hierna
hieronder
hierop
hierover
hieruit
hiervan
high
hightech
hij
hijgde
hijgend
hilarisch
hinder
hinderlaag
hinderlijk
hindernis
hindernissen
hindoe
hing
hink
hint
hip
hiphop
hippe
hippie
historici
historicu
historie
historisch
historische
hit
hitparade
hits
hitte
hittegol
hiv
hiërarchie
ho
hobbel
hobby
hockey
hoe
hoed
hoedanig
hoede
hoedje
hoef
hoefde
hoeft
hoek
hoeken
hoekje
hoekschop
hoeren
hoesten
hoestte
hoeveel
hoeveelheid
hoeven
hoewel
hof
hoffelijk
hoge
hogepriester
hoger
hogere
hogescholen
hogeschool
hok
hokje
hol
holde
holding
holes
holle
hollen
holocaust
home
hommage
homme
hommels
homo
homohuwelijk
homoseksueel
homoseksuele
hond
honden
honderd
honderdduizend
honderden
honderdste
hondje
honger
hongerig
hongersnood
hongerstaking
honing
honkbal
honor
hoofd
hoofddoek
hoofden
hoofdingang
hoofdinspecteur
hoofdkantoor
hoofdklasse
hoofdkwartier
hoofdperson
hoofdpersonage
hoofdpersoon
hoofdpijn
hoofdplaats
hoofdprijs
hoofdpunten
hoofdredacteur
hoofdrol
hoofdrolspeler
hoofdschuddend
hoofdsponsor
hoofdstad
hoofdstuk
hoofdtrainer
hoofdverdachte
hoofdzakelijk
hoog
hooggeplaatste
hooghartig
hoogleraar
hoogleraren
hoogopgeleide
hoogspannings
hoogst
hoogstaand
hoogste
hoogsten
hoogte
hoogtepunt
hoogtijdag
hoogwaardig
hooi
hooiwagen
hooligan
hoop
hoopt
hoopte
hoopvol
hoor
hoorbaar
hoorde
hoorn
hoort
hoorzitting
hop
hopelijk
hopeloos
hopen
hor
horde
horden
horeca
horen
horizon
horizontaal
horizontale
horloge
hormonen
horror
horrorfilm
hospita
host
hot
hotel
hotelkamer
hotels
hou
houd
houdbaar
houden
houding
house
hout
houten
houtje
houtskool
hoveling
http
hu
hufter
huid
huidig
huidige
huil
huilde
huilen
huilend
huilt
huis
huisarts
huisartsen
huisdier
huiselijk
huishoud
huishoudelijk
huishouden
huishoudens
huishoudster
huisje
huisjes
huiskamer
huisvest
huisvesting
huisvrouw
huiswerk
huiszoeking
huiver
huiverde
huiverend
huivering
huize
huizen
hulde
huldig
hulp
hulpdiensten
hulpeloos
hulpmiddel
hulporganisatie
hulpverlener
hulpverleners
hulpverlening
human
humanitaire
humeur
humor
hun
hunne
hunner
hup
huren
hurken
hurkte
hut
hutten
huur
huurde
huurder
huurders
huurlingen
huurmoordenaar
huurwoningen
huw
huwde
huwelijk
huwelijks
huwelijksrei
hy
hybride
hydro
hygiëne
hype
hyper
hypo
hypocriet
hypotheek
hypotheekrente
hypotheken
hypothese
hysterie
hysterisch
hè
hé
hém
hét
héé
hó
iPad
iPhone
iPod
iTunes
iconen
icoon
ide
ideaal
ideale
idealisme
idealist
idee
ideeën
identiek
identificatie
identificeer
identificeren
identiteit
ideologie
ideologisch
idioo
idioot
idiote
idool
idyllisch
ieder
iedere
iedereen
iemand
iets
ijdel
ijle
ijs
ijsberen
ijsberg
ijshockey
ijsje
ijskast
ijskoud
ijver
ijverig
ijzer
ijzeren
ijzersterk
ijzig
ijzige
ik
illegaal
illegale
illegalen
illusie
illuster
illustratie
illustrator
illustreer
illustreren
imago
imam
imitatie
imiteren
imm
immens
immense
immer
immers
immigranten
immigratie
immuniteit
immuun
imp
impact
impasse
imperialis
imperium
implicatie
impliceer
impliciet
imponeren
import
importeur
imposante
impressionist
improvisatie
improviseren
impuls
impulsie
in
inboedel
inboorlingen
inbraak
inbraken
inbrekers
inbreng
inbreuk
inburgering
incasseerde
incasser
incest
incident
incidenten
inclu
indeling
inderdaad
index
indiaan
indianen
indicatie
indien
indirect
individu
individueel
individuele
individuen
indringend
indringer
indruk
indrukwekkend
indrukwekkende
industrie
industriële
ineenge
ineens
ineenstorting
infanterie
infectie
inflatie
info
informant
informateur
informatica
informatie
informeer
informeerde
informele
informeren
infrarood
infrastructuur
infuus
ingaan
ingang
inge
ingeburgerd
ingedeeld
ingediend
ingehaald
ingehuurd
ingekort
ingeleverd
ingelicht
ingelijfd
ingelijst
ingenieur
ingenieurs
ingenomen
ingericht
ingeschakeld
ingeschat
ingeschreven
ingesteld
ingestort
ingetogen
ingetrokken
ingevoerd
ingevuld
ingewand
ingewijd
ingewikkeld
ingewikkelde
ingewikkelder
ingezameld
ingezet
ingrediënten
ingrijpen
ingrijpend
ingrijpende
inhaal
inheemse
inhoud
inhoudelijk
inhoudelijke
inhouden
initial
initiatie
initiatief
initiatiefnemer
injectie
inkomen
inkomens
inkomsten
inkt
inktvis
inleveren
inlichtingen
inmenging
inmiddels
innemen
innerlijk
innig
innovatie
innovatieve
inrichting
inschrijving
insect
insecten
insider
inspanning
inspecteerde
inspecteren
inspecteur
inspectie
inspiratie
inspiratiebron
inspireer
inspireren
inspirerend
instabiel
installatie
installaties
installeerde
installeren
instantie
instelling
instellingen
instemmend
instemming
instinct
instinctie
instituten
institutie
institutionele
instituut
instorten
instorting
instortte
instructie
instructies
instrument
instrumenten
insuline
intact
integer
integraal
integrale
integratie
integreren
integriteit
intellect
intellectueel
intellectuele
intelligent
intelligente
intelligentie
intens
intense
intensief
intensieve
intensiteit
intensive
intentie
inter
interactie
interactieve
intercom
interessant
interessante
interessanter
interesse
interesseer
interesseerde
interieur
interim
interland
interlands
intern
internaat
internationaal
international
internationale
interne
internet
internetsite
interpretatie
interpreteer
interpreteren
interventie
interview
interviews
intiem
intieme
intimidatie
intimideren
intimiteit
intrede
intrige
intrigerend
intrinsiek
intro
introduce
introduceerde
introductie
intuïtie
inval
invalide
invallen
invaller
invalshoek
invasie
inventaris
inventarisatie
investeer
investeerde
investeerder
investeerders
investeren
investering
investeringen
investerings
invloed
invloedrijke
invoer
invoeren
invoering
invulling
inwendig
inwendige
inwoner
inwoneraantal
inwoners
inwonertal
inzage
inzet
inzetbaar
inzetten
inzicht
inzien
inzittenden
ironie
ironisch
irr
irratione
irrelevant
irritant
irritatie
irriteer
irriteren
is
islam
islamitisch
isolatie
isolement
isoleren
item
ivoor
ivoren
ja
jaag
jaar
jaarlijks
jaarverslag
jaarwisseling
jacht
jachthaven
jack
jagen
jager
jagers
jaloers
jaloezie
jammer
jammerde
jammerlijk
janken
januari
japon
jaren
jarenlang
jarig
jarige
jas
jasje
jaszak
jazz
je
jeep
jegen
jenever
jeugd
jeugdige
jeugdopleiding
jeuk
jezelf
jezuïet
jihad
jihadist
jij
jo
job
joch
jochie
joden
joeg
jogging
joh
joint
jong
jonge
jongedame
jongeling
jongeman
jongemannen
jongen
jongens
jonger
jongere
jongeren
jongetje
jongste
jonk
jonkvrouw
jood
joods
joodse
jou
journaal
journalist
journalisten
journalistiek
journalistieke
jouw
ju
jubileum
judo
judoka
juf
juffrouw
juichen
juicht
juist
juiste
jukbeen
juli
jullie
jungle
juni
junior
junioren
junk
junta
juridisch
jurist
jurk
jurkje
jury
jurylid
just
justiti
justitie
juweel
juwelen
juwelier
jó
kW
ka
kaak
kaal
kaap
kaars
kaarsen
kaarsrecht
kaart
kaarten
kaartje
kaartjes
kaas
kabaa
kabel
kabeljauw
kabinet
kabouter
kachel
kadaver
kade
kader
kaft
kajuit
kak
kakkerlak
kale
kalender
kalf
kaliber
kalk
kalkoen
kalksteen
kalm
kalme
kalmeren
kalmte
kalveren
kam
kameel
kamelen
kamer
kameraad
kameraden
kamerlid
kamers
kamertje
kamp
kampeer
kampen
kampioen
kampioenschap
kampt
kampvuur
kan
kanaal
kanalen
kandelaar
kandidaat
kandidaten
kandidatenlijst
kandidatuur
kanker
kankerpatiënt
kanon
kanonnen
kans
kansarme
kanselier
kansen
kanshebber
kansloos
kant
kanten
kantine
kanton
kantonrechter
kantoor
kantoorgebouw
kantoortje
kantoren
kanttekening
kap
kapel
kapers
kapitaal
kapitalisme
kapitalistisch
kapitein
kapittel
kapot
kapott
kappen
kapper
kapsel
kapstok
kar
karakter
karakteristiek
karakteristieke
karate
kardinaal
kardinalen
karikatuur
karkas
karren
karretje
kartel
karton
kartonne
karwei
kas
kassa
kassei
kast
kastanje
kastanjebruin
kasteel
kastelen
kasten
kastje
kat
katalysator
kater
kathedraal
katholi
katholiek
katholieke
katoen
katten
kauwde
kauwen
kauwgom
kazerne
keek
keel
keep
keeper
keer
keerde
keert
kegel
kei
keihard
keizer
keizerin
keizerlijke
keizerrijk
keken
kelder
kelk
kelner
ken
kenbaar
kende
kenden
kenmerk
kenmerken
kenmerkend
kenmerkt
kennelijk
kennen
kenners
kennis
kennismak
kennismaking
kennissen
kent
kenteken
kep
keramiek
kerel
keren
kerk
kerkelijke
kerken
kerkgebouw
kerkhof
kermis
kern
kerncentrale
kernenergie
kernwapens
kersen
kerst
kerstboom
kerstdag
kersvers
ket
ketel
keten
ketter
ketting
keuken
keukendeur
keukentafel
keur
keurde
keuren
keurig
keuring
keurmerk
keurvorst
keus
keuze
keuzes
kever
keversoort
ki
kick
kidnap
kids
kiekje
kiel
kiem
kier
kies
kiesdistrict
kiest
kiezel
kiezen
kiezer
kiezers
kijk
kijkcijfers
kijken
kijkend
kijker
kijkers
kijkt
kikker
kil
kille
kilo
kilogram
kilometer
kilometers
kin
kind
kinder
kinderachtig
kinderbijslag
kinderen
kinderlijk
kinderopvang
kinderporno
kindertijd
kinderwagen
kindje
kip
kippen
kippenvel
kist
kisten
kistje
kitsch
kl
klaagde
klaagt
klaar
klaarblijkelijk
klaargemaakt
klaarlichte
klaarmaken
klaarwakker
klacht
klachten
klad
klagen
klager
klam
klampte
klank
klanken
klant
klanten
klap
klappen
klapper
klapte
klare
klarinet
klas
klasgenote
klasse
klassement
klassen
klassiek
klassieke
klassieker
klassiekers
klauterde
klauw
klauwen
klauwzeer
klaver
kleden
kleding
kledingstuk
kledingstukken
kleed
kleedde
kleedkamer
kleefde
kleer
kleermaker
klei
klein
kleindochter
kleine
kleiner
kleinere
kleinkinderen
kleinschalig
kleinste
kleintjes
kleinzoon
klem
klemde
klep
kleren
klerk
kletsen
kletsnat
kletst
kletterde
kleur
kleuren
kleurrijke
kleuter
kleuterschool
kleven
kleverig
klif
klik
klikken
klikte
klim
klimaat
klimmen
kliniek
klinisch
klink
klinken
klinkende
klinkt
klip
klippen
klok
klokken
klokkenluider
klom
klompen
klon
klonk
kloof
klooster
klootzak
kloppen
klopt
klopte
klote
klucht
kluis
kluit
kluizenaar
klus
klusjes
klussen
kluwen
km
km2
knaagdier
knaap
knabbel
knagen
knak
knal
knalde
knallen
knap
knappe
knarsen
knarste
knecht
kneed
kneep
knel
knetter
kneuzing
knie
knieblessure
knielde
knieën
knijpen
knik
knikje
knikken
knikker
knikt
knikte
knip
knipoog
knippen
knipperde
knipperen
knipte
knock
knoei
knoflook
knokkel
knokken
knol
knoop
knooppunt
knoopte
knop
knopen
knopje
knoppen
knor
knorrig
knot
know
knu
knuffel
knul
knuppel
knutsel
ko
kocht
koe
koeien
koek
koekenpan
koekjes
koel
koelbloedig
koele
koelkast
koepel
koerier
koers
koersdaling
koersdoel
koersen
koerswinst
koesterde
koesteren
koestert
koets
koetsier
koffer
kofferbak
koffers
koffertje
koffie
kogel
kogels
kok
koken
kokend
koker
kokos
kol
kolen
kolf
kolomme
kolonel
koloniale
kolonie
kolonisten
koloniën
kolossale
kom
komedie
komeet
komen
komend
komende
komiek
komisch
komische
komkommer
kompa
komst
komt
kon
konden
kondigde
kondigt
konijn
konijnen
koning
koningen
koningin
konings
koningshuis
koninklijk
koninklijke
koninkrijk
konvooi
kooi
kook
kookboek
kool
koolstof
koop
koopkracht
kooplieden
koopman
koopt
koopwoning
koor
koord
koorts
koortsachtig
koos
kop
kopbal
kopen
koper
koperen
kopers
kopie
kopiër
kopje
koplamp
koploper
kopman
koppel
koppeling
koppen
koppig
kopstukken
kopte
koptelefoon
koraal
koran
kordaat
koren
korfbal
korporaal
korps
korpschef
korrel
korst
kort
kortaf
korte
korter
korting
kortste
kortstondig
kortweg
kortzichtig
kosmisch
kost
kostbaar
kostbar
koste
kosten
kostenbesparing
kostprijs
kostschool
kostte
kostuum
kots
kou
koud
koude
kouder
kousen
kozijn
kr
kraag
kraai
kraak
kraakte
kraam
kraampje
kraan
krab
krabbelde
krabben
krabbensoort
krabde
kracht
krachten
krachtig
krachtige
krachtiger
kraken
krakend
krakers
kralen
krampachtig
krankzinnig
krankzinnige
krans
krant
kranten
krap
krappe
kras
krassen
krater
krediet
kreeft
kreeftachtigen
kreeg
kreet
kregen
krekel
kreng
kreten
kreun
kreunde
kreunend
kreupel
kreupelhout
kri
kriebel
krijg
krijgen
krijger
krijgers
krijgsgevangen
krijgshe
krijgsmacht
krijgt
krijsend
krijste
krijt
krimp
kring
krioel
kristal
kristalle
kritiek
kritisch
kritische
kro
kroeg
krokodillen
krom
kromme
kromp
kronen
kroniek
kroning
kronkel
kronkelde
kronkelend
kroon
kroongetuige
kroonluchter
kroonprins
kroost
kruid
kruiden
kruidenier
kruik
kruin
kruipen
kruipt
kruis
kruising
kruispunt
kruist
kruistocht
kruisvaarders
kruit
kruiwagen
kruk
krukken
krul
krulde
krullen
ku
kubi
kubus
kuchte
kudde
kuil
kuip
kuit
kun
kunnen
kunst
kunsten
kunstenaar
kunstenaars
kunstenares
kunstgras
kunsthistoric
kunstmatig
kunstmatige
kunstschilder
kunststof
kunstwerk
kunstwerken
kunt
kurk
kus
kussen
kussens
kust
kuste
kustwacht
kut
kw
kwa
kwaad
kwaadaardig
kwaal
kwade
kwal
kwalificatie
kwalificeerde
kwalificeren
kwalijk
kwalitatie
kwaliteit
kwaliteits
kwam
kwart
kwartaal
kwartet
kwartfinale
kwartfinales
kwartier
kwartje
kwast
kweek
kweken
kwel
kwellen
kwelling
kwestie
kwetsbaar
kwetsbaarheid
kwetsbare
kwetsen
kwijl
kwijt
kwijtgeraakt
kwijtraakt
kwik
kwispel
la
laad
laag
laagje
laagste
laaide
laaiend
laars
laarzen
laat
laatst
laatste
laatstgenoemde
lab
label
laboratori
laboratorium
labyrint
lach
lachen
lachend
lachje
lacht
lachte
lachten
lachwekkend
laconiek
ladder
laden
lading
lady
laf
lafaard
laffe
lag
lage
lagen
lager
lagere
lak
laken
lakens
lam
lamp
lampen
lampje
lanceer
lanceerde
lancering
land
landbouw
landbouwgrond
landbouwproduct
landde
landelijk
landelijke
landen
landgenoot
landgenote
landgenoten
landgoed
landhuis
landing
landings
landingsba
landinwaarts
landschap
landschappen
landskampioen
landstitel
lang
langdurig
langdurige
lange
langeafstands
langer
langere
langetermijn
langs
langskomen
langskwam
langste
langverwacht
langwerpig
langzaam
langzame
langzamer
langzamerhand
lans
lantaarn
lap
lapje
lappen
laptop
las
laser
last
lasten
lastig
lastige
lastiger
lat
late
laten
later
latere
lauw
lava
lavendel
lawaai
lawine
lazen
le
lead
ledema
leden
leder
leed
leef
leefde
leefgebied
leeft
leeftijd
leeg
leegstaand
leegte
leek
leen
leende
leer
leerde
leerkracht
leerkrachten
leerling
leerlingen
leermeester
leert
lees
leesbaar
leest
leeuw
leeuwen
lef
leg
legaal
legale
legaliser
legde
lege
legendarisch
legende
leger
leggen
legislatuur
legitiem
legitim
legitimatie
lei
leid
leidde
leiden
leider
leiders
leiderschap
leiderstrui
leiding
leidinggevende
leidt
lek
leken
lekke
lekken
lekker
lekkernij
lekte
lelie
lelijk
lelijke
lemmet
lenen
lengte
lenig
lening
lens
lente
lenzen
lepel
leraar
leraren
lerares
leren
les
lesbisch
lesgeven
lesje
lessen
let
letsel
lette
letten
letter
letterkunde
letterlijk
letters
leugen
leugenaar
leugens
leuk
leuke
leuker
leukst
leunde
leunen
leuning
leunstoel
leuze
level
leven
levend
levende
levendig
levendige
levens
levensbeschouw
levensduur
levensgevaar
levenslang
levensloop
levenslust
levensmiddelen
levensstijl
levensverhaal
levenswijze
lever
leverancier
leveranciers
leverbaar
leverde
leveren
levering
levert
lezen
lezer
lezers
lezing
lezingen
li
lib
libellen
liberaal
liberale
liberalisering
licentie
lichaam
lichaams
lichamelijk
licht
lichtblauw
lichtbruin
lichte
lichtelijk
lichten
lichter
lichtgewond
lichtjes
lichtpuntje
lichtte
lichtvoetig
lid
lidmaatschap
lidstaat
lidstaten
lied
liederen
liedje
liedjes
lief
liefdadigheid
liefde
liefdes
liefdevol
liefdevolle
liefhebben
liefhebber
liefhebbers
liefje
lieflijk
liefst
lieg
liegen
liep
liepen
lies
liet
lieve
lieveling
lievelings
liever
lieverd
life
lifestyle
lift
lig
liggen
liggende
ligging
ligt
lijd
lijden
lijf
lijfwacht
lijk
lijken
lijkschouwer
lijkt
lijm
lijn
lijnen
lijntje
lijst
lijsten
lijstje
lijsttrekker
lijve
like
likken
likte
limiet
limonade
limousine
line
lineair
lingerie
linie
link
linker
linkerar
linkerhand
linkerzij
links
linksaf
linksback
linkse
linnen
lint
lip
lippen
lippenstift
liquidatie
liquide
liquiditeit
list
liter
literair
literaire
literatuur
litteken
live
lo
lobby
local
locatie
locaties
locomotief
locomotieven
loep
loer
lof
log
logeer
logeerde
logeerkamer
logeren
logge
logica
logisch
logische
logistiek
logo
lok
lokaal
lokale
loket
lokken
lol
lomp
lonen
long
longen
longi
longkanker
longontsteking
lonkt
lood
loodgieter
loodrecht
loods
loodsen
loog
look
loom
loon
loonkosten
loonsverhoging
loop
loopbaan
loopgraven
loopkever
loopt
looptijd
lopen
lopend
lopende
lord
los
losbarst
losgelaten
losgeld
losgemaakt
loslaten
losliet
losmaakte
losmak
losse
lossen
lot
loting
lounge
louter
love
lovend
loyaal
loyaliteit
lu
lucht
luchtaanvallen
luchthaven
luchtig
luchtmacht
luchtruim
luchtvaart
lucifer
lucratieve
luguber
lui
luid
luidde
luide
luider
luidkeels
luidruchtig
luidspreker
luidt
luier
luik
luiken
luipaard
luister
luisteraar
luisteraars
luisterde
luisteren
luistert
luitenant
lukra
lukt
lukte
lul
lullig
lunch
lust
lusteloos
luttel
luxe
luxueuze
lyrisch
m2
ma
maag
maagd
maagdelijk
maaien
maak
maakt
maakte
maal
maaltijd
maaltijden
maan
maand
maandag
maandagavond
maandagochtend
maandelijks
maanden
maandenlang
maanlicht
maar
maart
maat
maatje
maatregel
maatregelen
maatschappelijk
maatschappij
maatsta
machine
machinegewe
machines
machinist
macho
macht
machteloos
machthebber
machtig
machtige
machtigste
machts
machtsmisbruik
machtspositie
macro
madame
maffia
mag
magazijn
magazine
mager
magere
magie
magisch
magische
magistrat
magiër
magneet
magnetische
magnetron
mail
mailadres
mailbox
mails
mailtje
mais
majesteit
majestueu
majoor
major
make
makelaar
maken
maker
makers
makkelijk
makkelijker
makker
mal
malaise
malaria
malen
malle
mam
mama
mamma
mammie
mammoet
man
management
manager
managers
manche
mand
mandaat
mandje
maniak
manier
manieren
manifest
manifestatie
manifesteer
manipulatie
manipuleren
mankeer
mankement
mannelijk
mannelijke
mannen
mannetje
mannetjes
manoeuvre
manschappen
mantel
manuscript
map
mar
marathon
marcheerde
marcheren
marché
marechaussee
marge
margin
marginale
mari
marihuana
marine
marinier
mariniers
marionet
maritiem
mark
markante
marketing
markie
markt
markten
marktleider
marktwerking
marmer
mars
martel
martelaar
marteling
marxis
masker
massa
massage
massal
massamoord
massaver
masse
massief
massieve
mast
master
mat
match
mate
maten
materiaal
materialen
materie
materieel
matig
matige
matras
matroos
matrozen
matte
maxima
maximaal
maximale
maximum
may
mayonaise
maïs
me
mechanisch
mechanische
mechanisme
medaille
medailles
medaillon
mede
mededeling
mededelingen
mededogen
medeleven
medelijden
medemens
medeoprichter
medeplichtig
medestander
medewerker
medewerkers
medewerking
medewerkster
media
medicatie
medici
medicijn
medicijnen
medio
medisch
meditatie
mediterrane
medium
mee
meebreng
meebrengen
meedoe
meedogenloos
meedogenloze
meegaan
meege
meegebracht
meegedeeld
meegemaakt
meegenomen
meegewerkt
meelevend
meemaken
meenam
meende
meenemen
meent
meer
meerdere
meerderheid
meerderjarig
meermal
meervoud
meerwaarde
meeslepen
meeslepend
meespelen
meest
meestal
meeste
meesten
meester
meesterlijk
meesters
meesterwerk
meevaller
meewarig
meewerken
meewerkt
mega
mei
meid
meiden
meisje
meisjes
mekaar
melancholie
melano
meldde
melden
melding
meldpunt
melk
melodie
melodrama
memo
memoires
men
meneer
menen
meng
mengde
mengeling
mengen
mengsel
menig
menige
menigte
mening
meningen
meningsuiting
meningsverschil
mens
mensch
menschelijk
menschen
menselijk
menselijke
mensen
mensenleven
mensenrechten
mensheid
mentale
mentaliteit
mentor
menu
menukaart
meren
merendeel
merg
merk
merkbaar
merken
merknaam
merkt
merkte
merkwaardig
merkwaardige
merrie
messen
mest
met
metaal
metamorfose
meteen
meteoriet
meteorolog
meter
meters
metgezel
method
methode
methoden
metro
metropool
metrostation
meubel
meubels
meubil
meute
mevrouw
mezelf
mi
micro
microfoon
microscoop
microscopisch
mid
middag
middags
middel
middelbaar
middelbare
middeleeuwen
middeleeuws
middelen
middellange
middelmatig
middelpunt
midden
middenin
middenklasse
middenmoot
middenstand
middenveld
middenvelder
middernacht
mieren
mierensoort
migranten
migratie
mij
mijl
mijlen
mijlpa
mijmer
mijn
mijnheer
mijnwerkers
mikke
mikt
mil
mild
milde
milder
milieu
militair
militaire
militairen
militie
milities
miljard
miljardair
miljarden
miljoen
miljoenen
miljonair
millennium
millimeter
min
minacht
minachtend
minder
minderheden
minderheid
minderjarige
minderwaardig
mineraal
mineralen
mini
miniatuur
miniem
minima
minimaal
minimale
minimum
minimumloon
minister
ministerie
ministerraad
ministers
minnaar
minnares
minne
minst
minste
minstens
minuscule
minuten
minutieu
minuut
minzaam
mirakel
mis
misbruik
misbruikt
misdaad
misdad
misdadig
misdadiger
misdadigers
misdrijf
misdrijven
misgaa
mishandeld
mishandeling
misleid
misleidend
mislukken
mislukking
mislukt
mislukte
misplaatst
misschien
misselijk
missen
missie
missionaris
misstand
mist
miste
mistig
misvatting
misverstand
misvormd
mit
mits
mix
mm
mo
mobiel
mobiele
mobieltje
mobiliseren
mobiliteit
mocht
mod
modder
modderig
mode
model
modellen
modern
moderne
moderniseren
modernisering
modieuze
moe
moed
moedeloos
moeder
moeders
moedig
moeilijk
moeilijke
moeilijker
moeilijkheden
moeite
moeiteloos
moeiza
moeizame
moer
moeras
moerassen
moest
moesten
moestuin
moet
moeten
moge
mogelijk
mogelijke
mogelijkheden
mogelijkheid
mogen
moi
mok
mokken
mol
moleculair
molen
molenaar
mollig
moment
momenteel
mompel
mompelde
mon
monarch
monarchie
mond
mondeling
mondhoek
mondiale
mondopening
monetair
monitor
monnik
monniken
mono
monoloog
monopolie
monotypisch
monsieur
monster
monsters
montage
monter
monteur
monument
monumentale
monumenten
mooi
mooie
mooier
mooiste
moord
moordaanslag
moorden
moordenaar
moordenaars
moordzaak
mop
mopperde
mor
moraal
moralis
moreel
morele
morfine
morgen
morgenochtend
morgens
mortier
mortuarium
mos
mosdiertjes
moskee
moslim
moslims
mossel
mosselkreeftjes
mosterd
mot
motel
motie
motief
motieven
motivatie
motiveer
motiveren
motor
motoren
motorfiets
motorfietsen
motorkap
motorrijder
motregen
mountainbike
mouw
mozaïek
mp3
mu
muggensoort
muil
muilezel
muis
muisbe
muizen
multi
multiculture
multimedia
multinational
mum
mummie
munitie
munt
munten
muren
mus
musea
museum
music
musical
musici
musket
must
mutant
muts
muur
muurschildering
muziek
muzikaal
muzikale
muzikant
muzikanten
my
myst
mysterie
mysterieus
mysterieuze
mystiek
mythe
mythische
mythologie
mét
méér
móet
móé
na
naadlo
naai
naakt
naakte
naald
naam
naar
naargeestig
naartoe
naast
nabestaanden
nabij
nabijheid
naburige
nacht
nachtclub
nachtelijke
nachten
nachthemd
nachtkastje
nachtmerrie
nachts
nadacht
nadat
nadeel
nadelig
nadenk
nadenken
nadenkend
nader
naderde
nadere
naderen
naderend
nadert
nadruk
nadrukkelijk
nagedacht
nagel
nagels
nageslacht
najaar
nakijken
nakomelingen
nalaten
nalatenschap
nam
namaak
name
namelijk
namen
namens
namiddag
nano
naoorlogs
narcis
nare
nastreef
nastreven
nat
natie
nationaal
national
nationale
nationalisme
nationalisten
nationaliteit
natrium
natte
natural
nature
natuur
natuurbescherm
natuurgebied
natuurkunde
natuurkundige
natuurlijk
natuurlijke
nauw
nauwe
nauwelijks
nauwgezet
nauwkeurig
nauwlettend
navigatie
navolging
nazi
naïef
naïeve
naïv
neder
nederig
nederlaag
nederlagen
nederzetting
nederzettingen
nee
neef
neefje
neem
neemt
neer
neerbuigend
neerge
neergelegd
neergestoken
neergestort
neergezet
neerkomen
neerlegde
neerleggen
neerschiet
neerslachtig
neerslag
neerstorten
neerwaarts
neerzette
neerzetten
neg
negatief
negatieve
negeer
negeerde
negen
negende
negentien
negentiend
negentienjarig
negentig
neger
negeren
neig
neiging
nek
nemen
neo
neogotisch
nep
nergens
nerveu
nerveuze
nervos
nest
nestelde
net
nette
netten
netto
nettowinst
netvleugelig
netvlies
netwerk
netwerken
neu
neuken
neuriën
neuro
neus
neusgat
neushoorn
neutraal
neutrale
nevel
neven
new
niche
nicht
nichtje
nicotine
nie
niemand
nier
niet
niets
nietsvermoedend
nietszeggend
nieuw
nieuwbouw
nieuwe
nieuwelingen
nieuwjaar
nieuwkomer
nieuwkomers
nieuws
nieuwsgierig
nieuwslezer
nieuwste
nieuwszender
night
nigri
nigro
nihil
nijdig
nijpend
niks
nimmer
nipt
niveau
niét
no
nobel
noch
nochtans
node
nodig
nodige
noem
noemde
noemen
noemenswaardig
noemer
noemt
nog
nogal
nogmaals
noir
nomaden
nominatie
non
nonchalant
nonnen
nonsens
nood
noodig
noodlijdende
noodlot
noodlottig
noodsituatie
noodtoestand
noodweer
noodzaak
noodzakelijk
noodzakelijke
nooit
noord
noordelijk
noordelijke
noorden
noordoost
noordoostelijke
noordoosten
noordwaarts
noordwest
noordwestelijke
noordwesten
noot
norm
normaal
normale
normalite
normen
nors
nostalgie
nostalgisch
not
nota
notaris
noteer
noteerde
noten
noteren
notering
notitie
notitieboekje
notulen
nou
nouveau
novelle
november
nu
nuance
nuchter
nucleair
nul
nummer
nummers
nutteloos
nutteloze
nuttig
nuttige
nylon
nét
nó
oase
ob
ober
object
objecten
objectief
objectieve
oblast
obligatie
obligaties
obscur
observatie
observeer
observeren
obsessie
obstakel
occ
oceaan
ocean
ochtend
ochtends
octrooi
oefen
oefende
oefenduel
oefenen
oefening
oefeninterland
oefenwedstrijd
oerwoud
oester
oeuvre
oever
oevers
of
off
offensief
offensieve
offer
official
officieel
officier
officieren
officieu
officiële
offs
offshore
ofschoon
oftewel
ofwel
ogen
ogenblik
ogenblikkelijk
ogenschijnlijk
oksel
oktober
oké
olie
olieprijs
olieprijzen
olieverf
olifant
olifanten
olijf
olijfolie
olijven
olympisch
olympische
om
omarmd
omdat
omdraaide
omdraaien
omgaan
omgang
omgebouwd
omgedoopt
omgedraaid
omgekeerd
omgekeerde
omgekomen
omgerekend
omgeven
omgeving
omgevormd
omgezet
omheen
omheining
omhelsd
omhelsde
omhelz
omhelzing
omhoog
omhuld
omhulsel
omklemde
omkoping
omlaag
omloop
ommeke
omringd
omringend
omroep
omroepen
omschreef
omschrijven
omschrijving
omsingeld
omslachtig
omslag
omstander
omstandigheden
omstandigheid
omstreden
omstreeks
omtrek
omvang
omvangrijk
omvangrijke
omvat
omvatte
omvatten
omver
omwenteling
omwonende
omzeil
omzet
omzetgroei
omzetten
omzichtig
omzoomd
on
onaangekondigd
onaangenaam
onaangename
onaangeroerd
onaantastba
onaantrekkelijk
onaanvaardbaar
onaardig
onacceptabel
onafhankelijk
onafhankelijke
onafscheidelijk
onbe
onbeantwoord
onbedoeld
onbeduidend
onbegrijpelijk
onbehaaglijk
onbehage
onbeholpen
onbekend
onbekende
onbekommerd
onbelangrijk
onbeleefd
onbemand
onbenullig
onbenut
onbepaald
onbeperkt
onbereikbaar
onberispelijk
onbeschaamd
onbeschermd
onbeschoft
onbestemd
onbetaalbaar
onbetrouwbaar
onbetwist
onbevangen
onbeweeglijk
onbewogen
onbewoond
onbewust
onbezorgd
onbruikbaar
ondenkba
onder
onderaan
onderaards
onderarm
onderbouw
onderbrak
onderbreken
onderbreking
onderbroek
onderbroken
onderdanen
onderdanig
onderdeel
onderdelen
onderdrukken
onderdrukking
onderdrukt
onderdrukte
onderfamilie
ondergaan
ondergang
ondergeschikt
onderging
ondergoed
ondergrond
ondergrondse
onderhand
onderhandelaar
onderhandeld
onderhandelen
onderhandeling
onderhavig
onderhevig
onderhield
onderhoud
onderhouden
onderhouds
onderkaak
onderkant
onderkomen
onderliggend
onderling
onderlinge
onderlip
ondermaats
ondermijnen
ondernam
ondernemen
ondernemer
ondernemers
onderneming
ondernemingen
ondernomen
onderschat
onderschatte
onderscheid
onderscheiden
onderscheiding
onderscheidt
onderschept
ondersoorten
onderspit
onderstaande
onderste
ondersteun
ondersteund
ondersteunen
ondersteuning
onderstreept
onderstrepen
ondertekend
ondertekenen
ondertitel
ondertoon
ondertussen
onderuit
onderverdeeld
ondervind
ondervinden
ondervond
ondervraagd
ondervraging
onderweg
onderwereld
onderwerp
onderwijs
onderwijzer
onderworpen
onderzeeboot
onderzeeër
onderzocht
onderzoek
onderzoeken
onderzoekend
onderzoeker
onderzoeks
onderzoeksteam
onderzoekt
ondeugd
ondeugend
ondiep
ondiepe
ondoordringba
ondoorzichtig
ondraaglijk
ondubbelzinnig
onduidelijk
oneerlijk
oneffen
oneindig
onenigheid
onervaren
onfortuinlijk
onge
ongebreideld
ongebruikelijk
ongebruikt
ongecontroleerd
ongedaan
ongedeerd
ongedierte
ongeduld
ongeduldig
ongegrond
ongehinderd
ongehoord
ongehuwd
ongekend
ongeldig
ongelijk
ongelijkheid
ongelofelijk
ongeloof
ongelooflijk
ongelooflijke
ongeloofwaardig
ongelovig
ongeluk
ongelukkig
ongelukkige
ongemak
ongemakkelijk
ongemerkt
ongenaakba
ongenad
ongeneeslijk
ongenoegen
ongeoorloofd
ongepast
ongeregeld
ongerust
ongeschikt
ongeschonden
ongeslagen
ongestoord
ongetrouwd
ongevaarlijk
ongeval
ongevallen
ongeveer
ongevoelig
ongevraagd
ongewapend
ongewenst
ongewenste
ongewijzigd
ongewild
ongewis
ongewone
ongewoon
ongezien
ongezond
ongrijpbaar
ongunstig
onhandig
onheil
onheilspellend
onherroepelijk
onhoorbaar
onhoudbaar
onjuist
onkruid
online
onlosmakelijk
onmacht
onmenselijk
onmetelijk
onmiddellijk
onmisbaar
onmiskenba
onmogelijk
onnatuurlijk
onnavolgba
onnodig
onnozel
onom
onontbeerlijk
onontkoombaar
onopgelost
onopgemerkt
onophoudelijk
onopvallend
onoverkomelijk
onoverwinnelijk
onpartijdig
onprettig
onrecht
onrechte
onrechtmatig
onrechtvaardig
onredelijk
onregelmatig
onroerend
onrust
onrustig
ons
onsamenhangend
onschadelijk
onschatba
onschuld
onschuldig
onschuldige
onsterfelijk
onstuimig
ont
ontaard
ontbering
ontbijt
ontbinden
ontbinding
ontbloot
ontbond
ontbrak
ontbreekt
ontbreken
ontcijfer
ontda
ontdek
ontdekken
ontdekking
ontdekt
ontdekte
ontdoe
ontelbare
onterecht
ontevreden
ontferm
ontfutsel
ontgaa
ontging
ontgoocheld
ontgoocheling
onthaal
onthaald
ontheemd
onthoofd
onthouden
onthul
onthuld
onthulde
onthullen
onthulling
onthutsend
onthutst
ontkend
ontkende
ontkennen
ontkenning
ontkent
ontketend
ontknoping
ontkom
ontleen
ontleend
ontlenen
ontlopen
ontmaskerd
ontmaskeren
ontmoedigd
ontmoedigen
ontmoet
ontmoeten
ontmoeting
ontmoette
ontnem
ontoegankelijk
ontoereikend
ontploffen
ontploffing
ontploft
ontplofte
ontplooien
ontpopt
ontrafel
ontroerd
ontroerend
ontroering
ontrouw
ontruimd
ontruiming
ontslaa
ontslag
ontslagen
ontsnappen
ontsnapping
ontsnapt
ontsnapte
ontspande
ontspannen
ontspanning
ontspoord
ontspring
ontstaan
ontstaat
ontsteking
ontsteld
ontsteltenis
ontstemd
ontstond
ontstonden
onttrokken
ontucht
ontvang
ontvangen
ontvanger
ontvangst
ontvangt
ontvankelijk
ontving
ontvlucht
ontvoer
ontvoerd
ontvoerders
ontvoering
ontvouw
ontvreemd
ontwaakt
ontwaken
ontwapenen
ontwapening
ontwar
ontwerp
ontwerpen
ontwerper
ontwerpers
ontwierp
ontwijken
ontwikkeld
ontwikkelde
ontwikkelen
ontwikkeling
ontwikkelingen
ontwikkelings
ontwikkelt
ontwor
ontwricht
ontzag
ontzegd
ontzet
ontzettend
ontzetting
ontzien
onuit
onuitputtelijk
onveilig
onver
onveranderd
onveranderlijk
onverantwoord
onverbiddelijk
onverdraaglijk
onvergetelijk
onverklaar
onvermijdelijk
onvermijdelijke
onverminderd
onvermogen
onverschillig
onverschrokken
onverstaanbaar
onverstandig
onverstoorbaar
onvervalst
onverwacht
onverwachte
onverwachts
onverwijld
onverzettelijk
onvindbaar
onvoldoende
onvolkomenhe
onvolledig
onvoorspelbaar
onvoorstelba
onvoorstelbaar
onvoorzichtig
onvoorzien
onvrede
onvriendelijk
onvruchtbaar
onweer
onweersbui
onweerstaanba
onweerstaanbaar
onwel
onwennig
onwerkelijk
onwetend
onwettig
onwillekeurig
onwillig
onwrikba
onze
onzeker
onzekerheid
onzer
onzichtbaar
onzichtbare
onzin
onzinnig
onzorgvuldig
oog
oogen
oogenblik
ooggetuige
ooghoek
oogje
oogst
oogt
ooievaar
ooit
ook
oom
oorbelle
oordeel
oordeelde
oordelen
oorkonde
oorlog
oorlogen
oorlogs
oorlogsmisdad
oorsprong
oorspronkelijk
oorspronkelijke
oortje
oorverdovend
oorzaak
oorzaken
oost
oostelijk
oostelijke
oosten
oosters
oostkant
oostkust
op
opbouw
opbouwen
opbrengen
opbrengst
opdoemen
opdracht
opdrachten
opdrachtgever
opdringerig
opduiken
opeens
opeenvolgend
opeenvolging
open
openbaar
openbaarheid
openbare
openbaring
opende
opendoe
openen
opengaan
opengesperd
opengesteld
openging
openhartig
openheid
opening
openings
openlijk
openlucht
openstaand
opent
opera
operatie
operaties
operatione
operator
opereerde
opereren
opgave
opge
opgebeld
opgeblazen
opgeborgen
opgebouwd
opgedeeld
opgedoken
opgegroeid
opgehaald
opgeheven
opgeknapt
opgelegd
opgeleid
opgeleverd
opgelost
opgelucht
opgemaakt
opgemerkt
opgenomen
opgepakt
opgepikt
opgericht
opgeroepen
opgerold
opgeruimd
opgeschort
opgesloten
opgesplitst
opgespoord
opgestapeld
opgestart
opgesteld
opgetogen
opgevat
opgeven
opgevoed
opgevoerd
opgevolgd
opgevouw
opgewekt
opgewonden
opgezet
opgeëist
opgraving
opgroeide
opgroeien
ophalen
ophef
opheffen
opheffing
opheldering
ophield
ophouden
opinie
opiniepeiling
opklaring
opknapbeurt
opkomen
opkomende
opkomst
oplaaien
oplage
opleiden
opleiding
opleidingen
opletten
oplettend
opleverde
opleveren
oplichter
opliep
oplopen
oplossen
oplossing
oplossingen
oplost
opmars
opmerkelijk
opmerkelijke
opmerking
opmerkte
opnam
opname
opnamen
opnames
opnemen
opnieuw
opoffering
oppakken
oppassen
opper
opperde
opperhoofd
oppermachtig
oppervlak
oppervlakkig
oppervlakte
opponent
opportu
opportunis
oppositie
oppositieleider
oppositiepartij
oprecht
oprichten
oprichter
oprichting
oprichtte
opriep
oprijla
oprit
oproep
oproepen
oproept
opruimen
opschieten
opschudd
opslag
opslagplaats
opslagruimte
opsomming
opsporing
opsporings
opstaan
opstand
opstandelingen
opstandige
opstapt
opstellen
opstelling
opstijgen
opstond
optie
opties
optillen
optima
optimale
optimisme
optimistisch
optrad
optreden
optrekken
opvallend
opvallende
opvang
opvangen
opvarende
opvatting
opvoeden
opvoeding
opvolgde
opvolgen
opvolger
opvolging
opwarming
opwekken
opwekt
opwelling
opwindend
opwinding
opzet
opzettelijk
opzicht
opzichte
opzichten
opzichtig
opzienbarend
opzij
opzoeken
orakel
orang
oranje
orde
ordening
order
orders
ordinair
oren
org
orgaan
organisatie
organisaties
organisator
organisatorisch
organische
organiseer
organiseerde
organiseren
organisme
organismen
orgasme
orgel
origine
origineel
originele
oriënteren
orkaan
orkest
ornament
ortho
orthodox
orthodoxe
ossen
other
oud
oude
oudejaars
ouder
ouderdom
oudere
ouderen
ouderlijk
ouders
ouderwets
ouderwetse
oudheid
oudsher
oudste
out
outfit
outsider
ouwe
ovaal
ovale
ovatie
over
overal
overall
overbelast
overblijfsel
overblijven
overbodig
overboord
overbruggen
overdag
overdekt
overdekte
overdosis
overdracht
overdreven
overduidelijk
overeen
overeenkom
overeenkomst
overeenkomsten
overeenkomstig
overeenstemming
overeind
overgaan
overgang
overgangs
overgave
overgebleven
overgebracht
overgehe
overgeleverd
overgenomen
overgeplaatst
overgeven
overgewicht
overging
overhaast
overhandigd
overhandigde
overhandigen
overheden
overheen
overheersen
overheersing
overheerst
overheid
overheids
overheidsdienst
overhemd
overhoop
overige
overigen
overkoepelend
overkomen
overkwam
overlast
overlaten
overleden
overleed
overleef
overleefd
overleefde
overleg
overleggen
overleven
overlevende
overlevering
overlevings
overlijd
overlijden
overmacht
overmeesterd
overnachten
overnachting
overnam
overname
overnames
overnemen
overpeinzing
overrompeld
overschaduwd
overschot
overschre
overschrijd
overspoeld
overstap
overstappen
oversteek
oversteken
overstemd
overstromingen
overstroomd
overstuur
overtollig
overtreden
overtreder
overtreding
overtreffen
overtuigd
overtuigen
overtuigend
overtuiging
overval
overvallen
overvaller
overvallers
overviel
overvloed
overvloedig
overweeg
overwegen
overwegend
overweging
overweldigd
overweldigend
overwinnen
overwinning
overwinningen
overwint
overwoekerd
overwogen
overwonnen
overzees
overzicht
overzichtelijk
overzien
ozon
pa
paal
paaltje
paar
paard
paarden
paardenstaart
paarse
paas
pacht
pacifis
pad
paddenstoel
paden
page
pagina
pak
pakhuis
pakje
pakjes
pakken
pakket
pakketje
pakt
pakte
pal
paleis
paleizen
palen
paling
palm
palp
pamflet
pan
pand
panden
panel
paniek
paniekerig
pannen
panorama
pantoffels
pantser
pap
papa
papegaai
paper
papier
papieren
papiertje
pappa
paprika
par
para
paraat
parachute
parade
paradijs
paradox
paragraaf
parallel
parallelle
paramilitaire
paranoïde
paraplu
parasiet
parasol
parcours
pardon
parel
paren
parfum
parish
park
parkeer
parkeerde
parkeergarage
parkeerplaats
parkeerterrein
parkeren
parket
parking
parlement
parlementaire
parlementariër
parlementslid
parochie
parochiekerk
parodie
part
parten
parti
participatie
particulier
particuliere
partij
partijbestuur
partijen
partijgenoot
partijgenote
partijleider
partner
partners
parttime
party
pas
pasgeboren
paspoort
passage
passages
passagier
passagiers
passant
passeer
passeerde
passen
passend
passende
passeren
passie
passief
passieve
past
pasta
paste
pastoor
pastorie
pat
patat
patent
pater
patho
patiënt
patiënten
patriarch
patriottis
patron
patronen
patroon
patrouille
paus
pauselijk
pauze
paviljoen
pc
pe
pech
pedago
pedagogisch
peddel
pedofiel
peer
peil
peiling
peins
peinzend
pelgrims
peloton
penalty
pendel
penetr
penis
pennen
penningmeester
penseel
pensioen
pensioenen
pensioenfonds
pension
pensionering
people
peper
per
perceel
percelen
percentage
perfect
perfecte
perfectie
performance
periode
periodiek
peristom
perkament
permanent
permanente
perron
pers
persbericht
persbureau
persconferentie
person
personage
personages
personal
personeel
personeels
personeelsleden
personen
personenauto
personenwagen
persoon
persoonlijk
persoonlijke
persoonlijkheid
persoonsgegeven
perspectief
perzik
pessimistisch
pest
pet
peterselie
petitie
petroleum
peuter
pi
pianist
piano
pic
pick
picknick
piek
piekeren
piep
piepend
piepklein
piepte
pier
pigment
pijl
pijlen
pijlers
pijn
pijnlijk
pijnlijke
pijnstiller
pijp
pijpen
pijpleiding
pik
pikant
pil
pilaren
pillen
piloot
pilot
piloten
pin
pinda
pink
pinnen
pionier
piramide
piraten
pissebed
piste
pistool
pit
pittig
pittoresk
pizza
pk
pl
pla
plaag
plaat
plaatje
plaatjes
plaats
plaatselijk
plaatselijke
plaatsen
plaatsgevonden
plaatsing
plaatsje
plaatste
plaatsvervanger
plaatsvind
plaatsvinden
plaatsvond
place
placht
plafond
plagen
plak
plakje
plakken
plan
planeet
planeten
planetoïde
plank
planken
plannen
planning
plant
plantaardig
plantage
planten
plas
plasma
plassen
plastic
plastisch
plat
plateau
platen
platenlabel
platform
platina
platte
plattegrond
platteland
play
plechtig
plee
pleegde
plegen
pleidooi
plein
pleister
pleit
pleitbezorger
pleitte
plek
plekje
plekke
plekken
pletter
plezant
plezier
plezierig
plicht
plo
ploeg
ploegen
ploeggenote
ploegleider
ploegmaat
plof
plofte
plomp
plooi
plooien
plot
plots
plotseling
pluche
pluim
pluimvee
pluis
pluk
plukken
plukte
plunderen
plundering
plus
plussers
po
pocket
podcast
podium
poeder
poep
poes
poets
poetsen
poging
pogingen
poker
polder
pole
polit
politica
politici
politicolo
politicus
politie
politieagent
politieagenten
politieauto
politiebureau
politiechef
politiek
politieke
politiekorps
politieman
politiewagen
poll
pols
poly
pomp
pompen
pompoen
pond
pont
pony
poogde
pooier
pool
poort
poorten
poos
poosje
poot
pootje
pop
popmuziek
poppen
poppetje
popster
populair
populairder
populaire
populairst
populariteit
populatie
populis
populistisch
por
porno
porselein
port
portefeuille
portemonnee
portie
portiek
portier
portret
portretten
pose
poseren
positie
positief
posities
positieve
post
postbode
posten
poster
postkantoor
postuum
postuur
postzegel
pot
poten
potentie
potentieel
potje
potlood
potten
poule
pour
power
powiat
poëtisch
poëzie
pr
praal
praat
praatje
praatjes
praatte
pracht
prachtig
prachtige
practi
prae
pragmatisch
prairie
prak
praktijk
praktisch
praktische
prat
praten
pre
precedent
precies
precieze
precisie
predikant
predikt
preek
prees
prehistorisch
premie
premier
premies
première
prenten
present
presentatie
presentator
presentatrice
presenteer
presenteerde
presenteren
president
prestatie
prestaties
presteer
presteerde
presteren
prestige
prestigieuze
pret
pretentie
pretpark
prettig
prettige
prevelde
preventie
preventief
preventiev
pri
priester
priesters
prijk
prijkt
prijs
prijskaartje
prijsstijging
prijzen
prijzengeld
prik
prikkel
prikkeldraad
prikkelend
prikken
prikte
prima
primair
primaire
primeur
primitief
primitieve
principe
principes
principi
prins
prinses
print
printer
prior
prioriteit
prioriteiten
privaat
privacy
private
privatisering
privilege
privé
privéleven
pro
probeer
probeerde
probeert
proberen
probleem
problematiek
problematisch
problemen
proc
procedure
procedures
procent
procentpunt
proces
processen
processie
processor
procureur
produceer
produceerde
producent
producenten
producer
produceren
product
producten
productie
productiviteit
produkt
proef
proefde
proefschrift
proeven
prof
profeet
professional
professioneel
professionele
professor
profeten
profetie
profiel
profijt
profileer
profileren
profit
profiteer
profiteerde
profiteren
profvoetballer
prognose
programma
programmamaker
programmeer
programmeren
programmering
progressie
progressieve
project
projecten
projectie
projectiel
proloog
prominent
prominente
promo
promoten
promotie
promoveerde
promover
prompt
pronk
prooi
proost
prop
propaganda
proportie
proppe
prost
prostituee
prostituees
prostitutie
protest
protestant
protestants
protesteer
protesteerde
protesten
protesteren
proto
protocol
prototype
proviand
provinciaal
provinciale
provincie
provincies
provisie
provisorisch
provocatie
provoceren
proza
pruik
pruil
pruimen
prullenbak
prut
pré
psalm
pseudo
pseudoniem
psychiater
psychiatrisch
psychisch
psycho
psychologie
psychologisch
psychologische
psycholoog
psychopa
pu
pub
puber
puberteit
publicatie
publicaties
publiceer
publiceerde
publiceren
publicist
publiciteit
publiek
publieke
publiekelijk
puilde
puin
puinho
pul
punct
punk
punt
punten
puntje
pupil
pupillen
pure
purper
push
put
putten
puur
puzzel
py
pyjama
qu
qua
quadri
quarantaine
quasi
que
qui
quiz
quo
quota
raad
raadkamer
raadpleeg
raadplegen
raadsel
raadselachtig
raadshe
raadslid
raadsman
raaf
raak
raakt
raakte
raam
raampje
raapte
raar
raas
raasde
rabbijn
race
races
racisme
racist
racistisch
rad
radar
radeloos
raden
radiator
radicaal
radicale
radicalis
radio
radioactief
radioactieve
radioprogramma
radiostation
radiozender
raffinaderij
rails
rake
raken
raket
raketten
rally
ram
ramadan
ramde
ramen
raming
rammel
rammen
ramp
rampen
rampzalig
ranch
rancune
rand
randje
rang
ranglijst
rangschikking
ranke
ranking
ransel
ranzig
rap
rapper
rapport
rapportage
rapporten
rapporteur
rare
ras
rassen
rat
ratelde
rating
ratione
ratten
rauw
rauwe
rav
ravage
ravijn
razend
razendsnel
rea
reactie
reacties
reageer
reageerde
reageert
reageren
real
realisatie
realiseer
realiseerde
realiseren
realism
realistisch
realiteit
reality
rebel
rebellen
rebound
rec
recensie
recent
recente
recentelijk
recept
recepten
receptie
receptionist
recessie
recherche
rechercheur
recht
rechtbank
rechte
rechten
rechter
rechterarm
rechterhand
rechterkan
rechterlijk
rechters
rechtmatig
rechtop
rechts
rechtsaf
rechtsback
rechtse
rechtsomkeer
rechtsstaat
rechtstreeks
rechtstreekse
rechtszaak
rechtszaal
rechtvaardig
rechtvaardigen
rechtvleugelig
reclame
reclamebureau
reclamecampagne
reclassering
reconstructie
reconstrue
record
recreatie
rector
red
redacteur
redacteuren
redactie
redde
redden
redder
redding
reddings
rede
redelijk
redelijke
reden
redenen
redenering
rederij
redt
reduceren
ree
reed
reeds
reeks
rees
ref
refereer
referendum
referentie
reflex
reform
refrein
reg
regeerakkoord
regeerde
regeerperiode
regeert
regel
regelde
regelen
regelgeving
regeling
regelingen
regelmatig
regelrecht
regels
regelt
regen
regenachtig
regenboog
regenbui
regende
regenen
regenjas
regent
regentschap
regenwoud
regeren
regerend
regering
regeringen
regerings
regeringsleider
regeringspartij
reggae
regie
regime
regiment
regio
regionaal
regionale
regisseerde
regisseren
regisseur
register
registratie
registreer
registreerde
registreren
reglement
reguleren
reguliere
reiger
reik
reiken
reikt
reikte
rein
reinigen
reis
reisbureau
reisde
reist
reizen
reiziger
reizigers
rek
reken
rekende
rekenen
rekening
rekeningen
rekent
rekken
rekrute
rekte
rel
relatie
relatief
relaties
relatieve
relation
relativeer
relativeren
relax
release
relevant
relevante
religie
religieus
religieuze
relikwie
reling
reliëf
rellen
relschoppers
rem
remake
remedie
remise
remmen
renaissance
rendabel
rende
rendement
renden
rendier
rennen
renner
renners
renovatie
rent
rente
renteverhoging
renteverlaging
reorganisatie
rep
reparatie
repareren
repertoire
repeteren
repetitie
replica
repliek
reportage
reporter
representatie
repressie
reproductie
rept
republiek
republikein
reputatie
res
research
reserve
reserveren
reserves
reservoir
resident
residentie
resistent
resolutie
resoluut
respect
respecteer
respecteren
respectievelijk
respons
rest
restant
restanten
restaurant
restaurants
restauratie
resten
resterend
restje
restrictie
resultaat
resultaten
resulteer
resulteerde
resulteren
retail
retor
retorisch
retour
retro
retrospectie
return
reu
reuk
reuma
reus
reusachtig
reusachtige
reuze
reuzen
rev
revalidatie
revanche
revolutie
revolutionair
revolutionaire
revolver
revue
reëel
reële
reïntegratie
ri
riant
ribben
richel
richt
richten
richting
richtingen
richtlijn
richtlijnen
richtte
ridder
ridders
riem
riep
riet
rij
rijbaan
rijbewijs
rijd
rijden
rijdt
rijen
rijk
rijkdom
rijke
rijkelijk
rijker
rijks
rijksmonument
rijksmonumenten
rijkste
rijkswacht
rijp
rijst
rijtje
rijtuig
rijzen
rilde
rillen
rilling
rimpel
ring
rinkelde
rinkelen
riolering
riool
risico
riskant
riskeer
riskeren
rit
ritje
ritme
ritmisch
ritselen
ritueel
rituele
rituelen
ritzege
riva
rivaliserend
rivaliteit
rivier
rivieren
riviertje
ro
robijn
robot
robots
robuust
rock
rockband
roddel
rode
roebel
roedel
roei
roeien
roekeloos
roem
roemrucht
roep
roepen
roeping
roept
roer
roerend
roerloos
roest
roet
roffel
rok
roken
rokers
rokje
rol
rolde
roll
rollen
rolstoel
rom
roman
romance
romans
romantiek
romantisch
romantische
rommel
rommelig
romp
rond
ronde
ronden
rondhangen
rondje
rondleiding
rondliep
rondlopen
rondom
rondwormen
ronsel
rood
roodbruin
roodharige
roof
roofdier
roofvlieg
roofvogel
rooie
rook
rookte
rookwolk
room
rooms
roos
rooskleurig
rooster
roots
rossig
rot
rotonde
rots
rotsblok
rotsen
rotswand
rottend
rotzak
rotzooi
route
routine
routinier
rouw
rovers
roya
royalty
roze
rozen
ru
rub
rubber
rubriek
rufi
rug
rugby
ruggen
ruggengraat
rugleuning
rugzak
ruig
ruige
ruik
ruiken
ruil
ruim
ruime
ruimen
ruimer
ruimschoots
ruimte
ruimtelijke
ruimteschepen
ruimteschip
ruimtestation
ruimtevaart
ruis
ruit
ruiten
ruiter
ruiters
ruk
rukken
rukte
rumoer
run
rund
runder
rundvlees
running
rups
rust
rusteloos
rusten
rusthuis
rustig
rustige
rustiger
rustte
ruw
ruwe
ruzie
ruziën
ruïne
ruïnes
ré
röntgen
saai
saaie
saamhorigheid
sab
sabbat
sabel
sabelsprinkha
sabotage
sac
safe
sai
sal
salade
salaris
salariss
saldo
salon
salontafel
sam
samen
samengaan
samengesteld
samengevat
samengevoegd
samengewerkt
samenhang
samenhangend
samenleving
samenstellen
samenstelling
samenvatting
samenvoeging
samenwerken
samenwerking
samenwerkt
samenwonen
samenzwering
sample
san
sanctie
sancties
sandalen
sandwich
sanering
sanitair
sap
sappig
sar
sarcastisch
sat
satelliet
satijn
satire
satirisch
sauna
saus
saxofonist
saxofoon
sc
scala
scan
scenario
scenarist
scepter
sceptisch
sch
schaak
schaal
schaam
schaamde
schaamte
schaamteloos
schaap
schaapachtig
schaar
schaars
schaats
schaatsen
schaatser
schacht
schade
schadeclaim
schadelijk
schadelijke
schaduw
schakel
schakelde
schakelen
schaken
schaker
schalde
schalen
schamel
schamen
schamper
schandaal
schandale
schandalig
schande
schandelijk
schapen
scharen
scharnier
scharrel
schat
schatje
schatkist
schatte
schatten
schattig
schatting
schede
schedel
scheef
scheel
scheelde
scheen
scheep
scheeps
scheepsbouw
scheepswerf
scheepvaart
scheer
scheermes
scheidde
scheiden
scheiding
scheidsrechter
scheikunde
schel
schelden
scheldwoord
schelle
schelp
schema
schemer
schemerig
schemering
schending
schenk
schenken
schenking
schep
schepen
schepencollege
scheppen
schepping
schepsel
schept
scheren
scherm
schermen
schermpje
schermutseling
scherp
scherpe
scherper
scherpschutter
scherpte
scherpzinnig
scherts
schets
schetst
scheur
scheurde
scheuren
scheut
scheve
schichtig
schiep
schier
schiereiland
schiet
schieten
schietpartij
schijf
schijfje
schijn
schijnbaar
schijnen
schijnsel
schijnt
schijnwerper
schijt
schikken
schikking
schikte
schil
schild
schilder
schilderachtig
schilderde
schilderen
schilderij
schilderijen
schilderkunst
schilders
schildpad
schildwacht
schim
schimmel
schimmen
schip
schipbreuk
schipper
schitterde
schitteren
schitterend
schitterende
schittering
schizofre
schoen
schoenen
schoft
schok
schokken
schokkend
schokte
schold
scholen
scholier
scholieren
schommel
schone
schonk
schoof
school
schoolgebouw
schooljaar
schoolplein
schooltijd
schoon
schoondochter
schoongemaakt
schoonheid
schoonmaak
schoonmaken
schoonmoeder
schoonzoon
schoonzus
schoorsteen
schoorvoetend
schoot
schop
schoppen
schopte
schor
schorpioen
schorre
schorsing
schort
schot
schotel
schoten
schouder
schouderophalen
schouders
schout
schouwspel
schraapte
schrale
schrap
schrapp
schrapt
schrede
schreef
schreeuw
schreeuwde
schreeuwen
schreeuwend
schreeuwt
schrift
schriftelijk
schrijf
schrijfster
schrijft
schrijftafel
schrijnend
schrijven
schrijver
schrijvers
schrik
schrikt
schril
schrille
schroef
schroeven
schrok
schroom
schroot
schub
schubben
schuchter
schud
schudde
schudden
schuif
schuifdeur
schuifelde
schuift
schuil
schuilplaats
schuilt
schuim
schuin
schuiven
schuld
schuldeiser
schulden
schuldenlast
schuldgevoel
schuldig
schuren
schurk
schurken
schutter
schutting
schuur
schuw
sciencefiction
scoorde
scoort
scooter
score
scoren
scouts
screen
script
sculpturen
sculptuur
scène
sec
seconde
seconden
secret
secretaresse
secretariaat
secretaris
sectie
sector
seculiere
secundair
sedert
sediment
segment
sei
sein
seizoen
seizoenen
seks
seksuele
sekte
select
selecte
selectie
semi
seminar
senaat
senator
senior
senioren
sensatie
sentiment
sentimenteel
sep
separatist
sept
september
sergeant
serie
seriemoordenaar
series
serieus
serieuze
serre
serveer
serveerster
serveren
servet
service
servies
sessie
set
sets
sex
sexy
sfeer
sha
shampoo
she
sheriff
sherry
shi
shirt
shirts
shit
sho
shock
shoot
shoppen
short
shorttrack
shot
show
shows
shuttle
sidderen
sier
sieraad
sieraden
sierlijk
sierlijke
sigaar
sigaren
sigaret
sigaretten
signaal
signal
signaleer
signalement
signatuur
significant
sijpelde
sikkel
sil
silhouet
simpel
simpele
simpl
sin
sinaasappel
sinds
single
singles
sinister
sinterklaas
sir
sirene
sissend
siste
site
situatie
situaties
sjaal
sjamaan
sjeik
sjiitisch
sjo
sjokte
sjouwen
skate
skelet
sketch
ski
skiën
sla
slaaf
slaag
slaagde
slaakte
slaan
slaap
slaapkamer
slaapt
slaat
slacht
slachting
slachtoffer
slachtoffers
slag
slagen
slager
slagroom
slagveld
slak
slakken
slakkensoort
slalom
slang
slangen
slank
slanke
slap
slapen
slapende
slaperig
slappe
slaven
slavernij
slavin
slecht
slechte
slechter
slechts
slechtste
slee
sleep
sleepte
sleeptouw
slenter
slenterde
slepen
slepende
sleur
sleurde
sleutel
sleutelbeen
sleutels
slib
sliep
sliert
slijm
slijp
slijt
slijtage
slik
slikken
slikte
slim
slimme
slimmer
slinger
slingerde
slip
slipje
sloeg
sloep
sloffen
slogan
slok
slokje
sloop
sloot
slop
slopen
sloppenwijk
slordig
slot
sloten
slotte
sluier
sluimer
sluip
sluipen
sluipwesp
sluis
sluit
sluiten
sluiting
sluitingstijd
sluizen
slungel
slurf
sluw
smaad
smaak
smaakt
smak
smakelijk
smaken
smal
smalend
smalle
smaragd
smart
smartphone
smeden
smeek
smeekbede
smeekte
smeer
smeergeld
smeerlap
smeken
smekend
smelt
smelten
smeren
smerig
smerige
smeris
smet
smette
smeulend
smid
smijt
smoel
smoes
smoking
smokkel
smoor
smoren
sms
snaar
snack
snackbar
snak
snakte
snap
snapt
snauw
snavel
sne
snee
sneed
sneeuw
sneeuwstorm
snel
snelheid
snelle
sneller
snelste
snelweg
sneuvel
sneuvelde
snij
snijd
snijden
snik
snikken
snikt
snoe
snoep
snoer
snoo
snor
snot
snowboard
snuf
snuit
snuiven
snurken
so
soap
sober
sociaal
sociaaldemocrat
social
sociale
socialism
socialist
socialisten
society
socio
sociologie
société
soelaas
soennitisch
soep
soepel
soeverein
soevereiniteit
sofa
soft
softdrugs
software
soja
sokkel
sokken
sol
soldaat
soldaten
solidair
solidariteit
solide
solist
sollicitant
sollicitatie
solliciteren
solo
som
somber
sombere
somme
sommige
sommigen
soms
sonde
song
songs
songwriter
sont
soort
soorten
soortgelijk
sopraan
sorr
sorteren
sou
soul
sound
soundtrack
souterrain
souvenir
sovjet
sowie
sp
spa
spaar
spaargeld
spaarrekening
spaarzaam
spaghetti
span
spande
spandoek
spannen
spannend
spannende
spanning
sparen
spartel
spat
spatte
speaker
spec
specerijen
speciaal
special
speciale
specialisatie
specialist
specialisten
specialiteit
specificatie
specifiek
specifieke
spectaculair
spectrum
speculatie
speculeren
speech
speed
speeksel
speel
speeldag
speelde
speelfilm
speelgoed
speelronde
speelse
speelster
speelt
speeltijd
speeltuin
speer
speerpunt
speet
spek
spektakel
spel
speld
spelen
speler
spelers
spelersgroep
spellen
spelletje
spelletjes
spelling
spelonk
spelregels
sper
sperma
speur
speurders
speurtocht
spiegel
spiegelbeeld
spier
spieren
spijbel
spijker
spijkerbroek
spijt
spijtig
spil
spin
spinazie
spinne
spinnen
spinnensoort
spion
spionage
spionnen
spiraal
spirit
spiritualiteit
spiritue
spirituele
spit
spits
spleet
spleetje
splijt
splitsing
splitst
spoed
spoedig
spoel
spoelde
spoken
spongi
spons
sponsor
sponsors
spontaan
spontane
sponzen
spook
spookachtig
spoor
spoorlijn
spoorloos
spoorweg
spoorwegen
spoorwegstation
sporadisch
sporen
sport
sporten
sporters
sporthal
sportief
sportieve
sportschool
sportwagen
spot
spottend
spraakmakend
sprak
sprake
sprakeloos
sprankelend
spreek
spreekkamer
spreekt
spreekwoord
spreid
spreidde
spreiding
spreken
spreker
spreuk
spring
springen
springt
sprint
sprinter
sproei
sproet
sprokkel
sprong
sprongen
sprookje
sprookjes
spuit
spul
spullen
spulletje
spurt
spuug
spuwde
st
sta
staaf
staakt
staal
staaltje
staan
staande
staarde
staart
staat
staats
staatsbezoek
staatsburger
staatsgreep
staatshoofd
staatsobligatie
staatsschuld
stabiel
stabiele
stabiliteit
stad
stadhouder
stadhuis
stadion
stadium
stadje
stads
stadsbestuur
stadsdeel
staf
stage
stagiair
stak
staken
staking
stal
stalen
stallen
stam
stamboom
stamelde
stamhoofd
stammen
stamp
stampen
stampte
stamt
stand
standaard
standbeeld
standplaats
standpunt
standvastig
stang
stank
stap
stapel
stapels
stapeltje
stapje
stappen
stapt
stapte
stapten
staren
starend
starre
start
starten
startte
statement
staten
station
stations
stationsgebouw
statisch
statistiek
statistieken
statistisch
status
statuten
statuut
staven
stedelijk
stedelijke
steden
stee
steeds
steeg
steegje
steek
steekpartij
steekpenningen
steekproef
steekt
steel
steen
steenkool
steentje
steiger
steil
steile
stek
stekel
steken
stekker
stel
stelde
stelden
stelen
stellen
stelletje
stellig
stelling
stellingen
stelsel
stelselmatig
stelt
stem
stembus
stemde
stemmen
stemmer
stemmetje
stemming
stempel
stemrecht
stemt
stenen
stengel
steppe
ster
stereo
stereotype
sterf
sterfelijk
sterft
steriel
sterk
sterke
sterker
sterkst
sterkste
sterkte
sterren
sterrenbeeld
sterrenstelsel
sterretje
sterspeler
sterveling
sterven
stervende
steun
steunde
steunen
steunpunt
steunt
steven
stevig
stevige
steviger
steward
stewardess
stichten
stichter
stichting
stichtte
sticker
stief
stiefmoeder
stiefvader
stiekem
stier
stijf
stijgen
stijgend
stijger
stijging
stijgt
stijl
stijve
stik
stikken
stikstof
stil
stilgelegd
stille
stilletje
stilstaan
stilstaand
stilstand
stilte
stilzwijgen
stilzwijgend
stimulans
stimuleer
stimuleren
stimulering
stink
stinkend
stip
stippel
stoei
stoel
stoelen
stoep
stoer
stoere
stoet
stof
stoffelijk
stoffen
stoffig
stoffige
stofwolk
stofzuiger
stok
stokje
stokken
stokoud
stokte
stol
stom
stomme
stommiteit
stomp
stompzinnig
stomverbaasd
stond
stonden
stonk
stoof
stook
stoom
stoor
stoorde
stoornis
stoot
stootte
stop
stopcontact
stopgezet
stoplicht
stoppel
stoppen
stopt
stopte
storen
storing
storm
stormde
stormen
stort
storten
stortte
stortvloed
stoten
stotter
stout
stoïcijns
str
straal
straalde
straaljager
straalt
straalvinnige
straat
straatbeeld
straatje
straf
strafbaar
strafbar
straffe
straffen
strafrecht
strafrechtelijk
strafschop
strafschoppen
strak
strakke
straks
stralen
stralend
stralende
straling
stram
strand
strandde
stranden
strategie
strategisch
strategische
straten
streaming
streed
streef
streek
streel
streelde
streep
streepje
streken
strekken
strekking
strekt
strekte
strelen
streng
strenge
strenger
strepen
stress
streven
striem
strijd
strijden
strijders
strijdkracht
strijdlustig
strijk
strijken
strik
strikt
strikte
strip
stro
stroef
stromen
stromend
stroming
strompel
strompelde
stront
strooi
strook
stroom
stroomafwaarts
stroomde
stroomopwaarts
stroomt
stroop
strop
stropdas
structuree
structurele
structuren
structuur
struik
struikel
struikelde
struikgewas
studeer
studeerde
studeerkamer
student
studenten
studeren
studie
studies
studio
studioalbum
stug
stuip
stuit
stuiten
stuitte
stuk
stukje
stukjes
stukken
stuks
stunt
sturen
stuur
stuurboord
stuurde
stuurman
stuurt
stuw
su
sub
subjectie
subliem
subsidie
subsidies
subsidiër
substantie
subtiel
subtiele
succes
successen
succesvol
succesvolle
suf
suggereerde
suggereert
suggereren
suggestie
suiker
suisde
suite
suizen
sukkel
sul
sultan
summier
super
superheld
superieur
superioriteit
supermarkt
supermarkten
supermarktketen
supporter
supporters
sur
surf
surrealis
surveillance
sussen
sweat
swing
symbolen
symboliek
symbolisch
symbolische
symboliseer
symbool
symfonie
symmetrisch
symp
sympathie
sympathiek
sympathisant
symposi
symptomen
syn
synagoge
synode
synoniem
synthesizer
synthetisch
systeem
systematisch
systemen
taai
taak
taakstraf
taal
taalgebruik
taalkundige
taart
tab
tabak
tabaks
tabel
tablet
tabloid
taboe
tachtig
tact
tactiek
tactisch
tafel
tafels
tafeltennis
tafeltje
tafere
tafereel
taille
tak
taken
takje
takken
tal
talen
talent
talenten
talisman
talkshow
talloze
talrijk
talrijke
tam
tamelijk
tand
tandarts
tanden
tandenborstel
tandvlinders
tank
tanks
tankstation
tante
tap
tape
tapijt
tarief
tarieven
tart
tarwe
tas
tasje
tassen
tast
tastbaar
tasten
tastte
tatoeage
taveerne
tax
taxi
taxichauffeur
taxonomisch
tbs
te
team
teamgenote
teams
technici
techniek
technisch
technische
techno
technologie
technologieën
technologisch
tegelijk
tegelijkertijd
tegels
tegemoet
tegemoetkoming
tegen
tegenaan
tegengestelde
tegenhanger
tegenhouden
tegenkom
tegenkwam
tegenover
tegenslag
tegenstand
tegenstander
tegenstanders
tegenstelling
tegenstrijdig
tegenvallend
tegenvaller
tegenwoordig
tekeer
teken
tekenaar
tekende
tekenen
tekenfilm
tekening
tekeningen
tekent
tekort
tekortkoming
tekst
teksten
tel
telde
tele
telecom
telefoneren
telefonie
telefonisch
telefoon
telefooncel
telefoongesprek
telefoonnummer
telefoons
telefoontje
telegraaf
telegram
telepathisch
teleporte
teleurgesteld
teleurstellen
teleurstellend
teleurstelling
televisie
televisieserie
televisiezender
telg
tellen
teloor
telt
tempel
temperament
temperaturen
temperatuur
tempo
tendens
tenein
tenen
tenger
tenmin
tennis
tennisser
tennistoernooi
tent
tentakels
tenten
tentoon
tentoongesteld
tentoonstelling
tenzij
ter
terecht
terechtkom
terechtkwam
terloops
term
termen
termijn
terminal
terras
terrassen
terrein
terreinen
terreinwagen
terreur
terreuraanslag
terreurgroep
territoriale
territorium
terrorisme
terrorist
terroristen
terroristisch
terstond
terug
terugbetaald
terugbetal
terugblik
terugdenk
terugdring
teruggaan
teruggebracht
teruggekeerd
teruggestuurd
teruggetrokken
teruggeven
teruggevonden
terughoudend
terugkeer
terugkeerde
terugkeert
terugkeren
terugkerend
terugkomen
terugkrijg
terugkwam
terugtrekken
terugtrekking
terugtrok
terugval
terugvind
terugweg
terugwerkend
terwijl
terzijde
test
testament
testen
testosteron
tests
teugels
tevergeefs
tevreden
tevredenheid
teweeg
tewerkstelling
textiel
tezamen
th
than
that
the
theater
theatra
theatral
thee
theelepel
thema
theologie
theologisch
theoretisch
theoretische
theorie
therapeut
therapeutisch
therapie
thermo
thermometer
this
thriller
thuis
thuishoor
thuiskomen
thuiskwam
thuisland
thuisploeg
thuiswedstrijd
thuiszorg
ticket
tickets
tiebreak
tien
tiende
tienduizend
tiener
tieners
tienpotigen
tiental
tientall
tij
tijd
tijdelijk
tijdelijke
tijden
tijdens
tijdig
tijdje
tijdperk
tijdrit
tijdrovend
tijdschrift
tijdschriften
tijdstip
tijger
tik
tikje
tikkel
tikken
tikte
tilde
tillen
tilt
time
timing
timmer
timmerman
tint
tip
tips
tirade
tiran
tirannie
tit
titel
titels
titelverdediger
tja
to
toast
toch
tocht
toe
toebedeeld
toebehoor
toedoen
toegang
toegangs
toegangspoort
toegangsweg
toegankelijk
toegebracht
toegediend
toegekend
toegelaten
toegepast
toegesta
toegestaan
toegeven
toegevoegd
toegewijd
toegezegd
toehoorder
toejuich
toekennen
toekenning
toekijken
toekomst
toekomstige
toelaat
toelage
toelaten
toelating
toeleverancier
toelichting
toen
toenadering
toename
toenemen
toenemende
toenmalig
toenmalige
toentertijd
toepasselijk
toepassen
toepassing
toepast
toereikend
toeren
toerisme
toerist
toeristen
toeristisch
toernooi
toeschouwer
toeschouwers
toespeling
toespraak
toesprak
toestaan
toestand
toestel
toestelle
toestemming
toeter
toetreding
toets
toetsen
toetsenbord
toetsing
toetste
toeval
toevallig
toevertrouw
toevertrouwd
toevlucht
toevluchtsoord
toevoegde
toevoegen
toevoeging
toewijding
toezegging
toezicht
toezichthouder
toezien
toffe
toilet
toilette
tol
tolerant
tolerantie
tolere
tolk
tomaat
tomaten
tombe
ton
toneel
toneelstuk
toneelstukken
tonen
tong
tonijn
tonnen
toog
toon
toonaangevende
toonbank
toonbeeld
toonde
toont
toorn
toorts
top
topclub
topman
topmanager
toppen
topper
toppers
topschutter
topscorer
topsport
topsporter
toptien
toren
torens
torpedo
tot
totaal
totale
totdat
totstandkom
touch
tour
tournee
touroperator
tout
touw
touwen
touwtjes
tovenaar
tover
toverkracht
tra
traag
traan
traangas
tracer
tracht
trachten
trachtte
track
tractor
tracé
trad
traditie
tradities
traditionele
trage
tragedie
trager
tragisch
tragische
trailer
train
trainde
trainen
trainer
trainers
training
trainingen
trainings
trainingskamp
traint
traject
trakteer
tralies
tram
tramlijn
trance
tranen
trans
transactie
transacties
transfer
transfervrij
transformatie
transgender
transitie
transparant
transparantie
transport
trant
trap
trapje
trappelen
trappen
trappenhuis
trapte
trauma
traumatische
travail
trechter
tred
treden
tree
tref
treffen
treffer
trefzeker
trein
treinen
treinstation
treinverkeer
treiter
trek
trekken
trekker
trekpleister
trekt
trend
trendy
treur
treurig
tri
triatlon
tribu
tribune
triest
trilde
trillen
trillende
trilling
trilogie
trio
triomf
triomfantelijk
trip
troebel
troef
troep
troepen
troepenmacht
trof
trofee
trok
trol
trollen
trom
trommel
trompet
trompettist
troon
troonopvolger
troost
troosten
troostend
tropen
tropisch
tropische
trots
trottoir
trouw
trouwde
trouwe
trouwen
truc
trucje
truck
truffel
trui
trut
tsaar
tsunami
tuberculose
tucht
tuimel
tuimelde
tuin
tuinbouw
tuinen
tuitte
tulband
tulpen
tumor
tumult
tuniek
tunnel
turbo
turbulent
turen
turf
turn
tusschen
tussen
tussenbeide
tussendoor
tussenkomst
tussenpoze
tussentijd
tussentijds
tuurde
tv
twaalf
twaalfde
twee
tweede
tweedehands
tweederangs
tweederde
tweeduizend
tweehonderd
tweekleppigen
tweeling
tweelingbroer
tweeslachtig
tweetal
tweevleugelige
tweeën
tweeënhalf
tweeëntwintig
twijfel
twijfelachtig
twijfelde
twijfelen
twijfels
twinkel
twintig
twintigste
twintigtal
twist
twitter
type
typen
typerend
types
typisch
typische
té
tó
ui
uien
uilen
uit
uitbarsting
uitbater
uitbetaald
uitblijven
uitblink
uitblinker
uitbouw
uitbraak
uitbrak
uitbreid
uitbreiden
uitbreiding
uitbreken
uitbundig
uitdagend
uitdager
uitdaging
uitdrukkelijk
uitdrukking
uitdrukt
uiteen
uiteenlopende
uiteenvallen
uiteenzetting
uiteinde
uiteindelijk
uiterlijk
uiterst
uiterste
uitgaan
uitgaans
uitgang
uitgangspunt
uitgave
uitgaven
uitge
uitgebracht
uitgebreid
uitgebreide
uitgedaagd
uitgedeeld
uitgedost
uitgedrukt
uitgegroeid
uitgehaald
uitgehongerd
uitgekeerd
uitgekiend
uitgekozen
uitgelaten
uitgeleend
uitgelegd
uitgelekt
uitgeleverd
uitgemaakt
uitgenodigd
uitgeoefend
uitgeprocedeerd
uitgeput
uitgereikt
uitgerekend
uitgeroeid
uitgeroepen
uitgerust
uitgeschakeld
uitgescho
uitgesloten
uitgespreid
uitgesproken
uitgestald
uitgesteld
uitgestippeld
uitgestorven
uitgestrekt
uitgestrekte
uitgevaardigd
uitgeven
uitgever
uitgeverij
uitgevers
uitgevoerd
uitgewerkt
uitgezet
uitgezocht
uitgifte
uitging
uitgroeien
uithalen
uithangbord
uitkering
uitkeringen
uitkijk
uitkijken
uitkomen
uitkomst
uitkwam
uitlating
uitleg
uitleggen
uitlevering
uitmaakt
uitmaakte
uitmaken
uitmuntend
uitnodigen
uitnodigend
uitnodiging
uitoefen
uitpuilend
uitputtend
uitputting
uitreiking
uitrusten
uitrusting
uitschakelen
uitschakeling
uitschieter
uitslag
uitslagen
uitsluiten
uitsluitend
uitsluiting
uitspraak
uitsprak
uitspraken
uitspreken
uitstak
uitstapje
uitstapte
uitsteeksel
uitstek
uitstekend
uitstekende
uitstel
uitsterven
uitstoot
uitstraalde
uitstraling
uitstrekt
uitvaart
uitval
uitvallen
uitvalsbasis
uitverkocht
uitverkoren
uitvinder
uitvinding
uitvoer
uitvoerde
uitvoeren
uitvoerig
uitvoering
uitvoert
uitwedstrijd
uitwerking
uitwerpsel
uitwijken
uitwisselen
uitwisseling
uitzag
uitzend
uitzendbureau
uitzenden
uitzending
uitzendkracht
uitzicht
uitzien
uitziend
uitzoek
uitzondering
uitzonderlijk
uitzonderlijke
ultiem
ultimatum
ultra
unaniem
und
undercover
une
uni
uniek
unieke
uniform
universeel
universele
universitair
universiteit
universiteiten
universum
up
update
uranium
uren
urenlang
urgent
urgentie
urine
utopi
uur
uurtje
uw
va
vaag
vaak
vaal
vaandel
vaar
vaardig
vaardigheden
vaart
vaartuig
vaas
vaat
vaatziekten
vacature
vacatures
vaccin
vaccinatie
vacht
vacu
vader
vaderland
vaders
vage
vagina
vak
vakantie
vakantieganger
vakbeweging
vakblad
vakbond
vakcentrale
vaker
vakgebied
vakken
vakkundig
vakmanschap
val
valk
valkuil
vallei
vallen
valpartij
valreep
vals
valse
valstrik
valt
valuta
vampier
van
vanaf
vanavond
vanbinnen
vandaag
vandaan
vandaar
vangen
vangrail
vangt
vanmiddag
vanmorgen
vannacht
vanouds
vanuit
vanwege
vanzelf
vanzelfsprekend
varen
variabele
variant
variatie
varieer
variëren
variërend
variëteit
varken
varkens
varkensvlees
vast
vastberaden
vastbesloten
vaste
vasteland
vastge
vastgehouden
vastgelegd
vastgemaakt
vastgesteld
vastgezet
vastgoed
vasthield
vasthouden
vastlegg
vaststellen
vaststelling
vastzat
vastzitten
vatbaar
vaten
vatte
vatten
vazal
ve
vecht
vechten
vechtpartij
vedette
vee
veeg
veegde
veel
veelbelovend
veelbetekenend
veeleisend
veelvoud
veelvuldig
veelzeggend
veelzijdig
veen
veer
veerboot
veerkracht
veertien
veertiende
veertig
veeteelt
veevoe
vegen
vegetarisch
vegetariër
vegetatie
veil
veilig
veilige
veiliger
veiligheid
veiligheids
veiling
veilinghui
vel
veld
velden
veldrijden
veldslag
veldtocht
vele
velen
vellen
velletje
venijnig
vennootschap
venster
vensterbank
vensters
vent
ventilatie
ventilator
ventje
venture
ver
veracht
verachtelijk
verafschuw
veranda
verander
veranderd
veranderde
veranderen
verandering
verankerd
verantwoord
verantwoording
verbaal
verbaas
verbaasd
verbaasde
verbale
verband
verbannen
verbanning
verbazen
verbazend
verbazing
verbeeld
verbeelding
verbergen
verbeten
verbeter
verbeterd
verbeterde
verbeteren
verbetering
verbieden
verbiedt
verbijster
verbijsterd
verbijsterend
verbind
verbinden
verbinding
verbintenis
verbitter
verbitterd
verbleekt
verblijf
verblijfplaats
verblijft
verblijven
verblind
verblindend
verbluffend
verbluft
verbod
verboden
verbolgen
verbond
verbonden
verborg
verborgen
verbouwd
verbouwereerd
verbouwing
verbrak
verbrand
verbranden
verbranding
verbreding
verbreed
verbreid
verbrek
verbrijzeld
verbrok
verbruik
verdacht
verdachte
verdachten
verdampt
verdedig
verdedigd
verdedigde
verdedigen
verdediger
verdedigers
verdediging
verdeel
verdeeld
verdeeldheid
verdelen
verdeling
verdenk
verdenking
verder
verdien
verdiend
verdiende
verdienen
verdienste
verdienstelijk
verdiepen
verdieping
verdiepingen
verdiept
verdoezelen
verdomd
verdomme
verdoofd
verdovend
verdoving
verdraaid
verdrag
verdragen
verdreven
verdriet
verdrietig
verdringen
verdrinken
verdrongen
verdronk
verdronken
verdubbeld
verdubbelen
verdubbeling
verduidelijkt
verduisterd
verduistering
verdure
verdwaald
verdwaasd
verdwe
verdwenen
verdwijnen
verdwijning
verdwijnt
vereenzelvig
vereerd
vereffen
vereis
vereist
vereiste
verenigd
verenigen
vereniging
verenigingen
verf
verfijnd
verfilmd
verfilming
verfomfaaid
verfraai
verfrissend
verfrommeld
verg
vergaan
vergaard
vergader
vergadering
vergaderingen
vergaderzaal
vergat
vergeef
vergeefs
vergeeld
vergeet
vergelding
vergele
vergeleken
vergelijk
vergelijkbaar
vergelijken
vergelijking
vergemakkelijk
vergetelheid
vergeten
vergeven
vergeving
vergezeld
vergezellen
vergif
vergiftigd
vergis
vergisse
vergissing
vergist
vergoed
vergoeding
vergrijp
vergrijzing
vergroeid
vergroot
vergrootgla
vergroten
verguld
vergunning
vergunningen
verhaal
verhaallijn
verhaaltje
verhalen
verhandeld
verhandeling
verhard
verheffen
verhelp
verheug
verheugd
verheven
verhinder
verhinderd
verhit
verhitte
verhogen
verhoging
verhoog
verhoogd
verhoogde
verhoor
verhoord
verhoren
verhouding
verhuis
verhuisd
verhuisde
verhuizen
verhuizing
verhuld
verhullen
verhuren
verhuur
verhuurd
verhuurder
verijdel
verjaagd
verjaardag
verjagen
verkaveling
verkeer
verkeerd
verkeerde
verkeers
verkeersongeluk
verkeersongeval
verkeersveilig
verkend
verkennen
verkenners
verkenning
verkeren
verkies
verkiezen
verkiezing
verkiezingen
verkiezings
verklaar
verklaard
verklaarde
verklapt
verklaren
verklaring
verklaringen
verklede
verkleed
verkleind
verkleinen
verknoei
verkocht
verkondig
verkondigde
verkoo
verkoold
verkoop
verkoopt
verkopen
verkoper
verkort
verkoudheid
verkozen
verkracht
verkrachting
verkrampt
verkreeg
verkregen
verkrijgbaar
verkrijgen
verlaagd
verlaat
verlagen
verlaging
verlamd
verlammen
verlang
verlangd
verlangde
verlangen
verlaten
verleden
verleen
verleend
verleende
verlegd
verlegen
verleid
verleidelijk
verleiden
verleiding
verlenen
verlengd
verlengde
verlengen
verlenging
verlengstuk
verlicht
verlichte
verlichten
verlichting
verlichtte
verliefd
verliep
verlies
verliest
verliet
verliezen
verliezer
verliezers
verloeder
verlof
verloo
verloochen
verloofd
verloofde
verloop
verlopen
verloren
verloskundige
verlossen
verlossing
verlost
verloving
verluid
vermaak
vermaakt
vermaard
vermakelijk
vermeden
vermeend
vermeld
vermelden
vermelding
vermeldt
vermeng
vermengd
vermenigvuldig
vermijd
vermijden
verminder
verminderd
verminderde
verminderen
vermindering
verminkt
vermissing
vermist
vermiste
vermoed
vermoedde
vermoedelijk
vermoeden
vermoeid
vermoeide
vermoeidheid
vermoeiend
vermogen
vermogens
vermomd
vermomming
vermoord
vermorzel
vernam
vernederd
vernederen
vernederend
vernedering
vernemen
vernield
vernieling
vernietigd
vernietigen
vernietiging
vernieuwd
vernieuwde
vernieuwen
vernieuwend
vernieuwing
vernoemd
vernomen
vernuft
veronderstel
verondersteld
veronderstelde
veronderstellen
verongelijkt
verongelukt
verontrust
verontrustend
verontschuldig
verontwaardigd
veroordeel
veroordeeld
veroordeelde
veroordelen
veroordeling
veroorloven
veroorzaakt
veroorzaakte
veroorzaken
verorber
verordening
verouderd
veroverd
veroverde
veroveren
verovering
verpakking
verpakt
verpest
verplaatsen
verplaatsing
verplaatst
verpleeg
verpleeghuis
verpleegkundige
verpleegster
verpleger
verpletterd
verpletterend
verplicht
verplichte
verplichting
verraad
verraden
verrader
verraderlijk
verrassen
verrassend
verrassende
verrassing
verrassingen
verrast
verraste
verre
verregaand
verrekijker
verrekt
verricht
verrichtte
verried
verrijken
verrijkt
verrijzen
verroerde
verroeren
verruil
verruilde
verrukkelijk
verrukking
verrukt
vers
versch
verschaffen
verschaft
verschanst
verscheen
verscheept
verscheiden
verscheidene
verschenen
verscherpt
verscheurd
verschiet
verschijnen
verschijning
verschijnsel
verschijnselen
verschijnt
verschil
verschillen
verschillend
verschillende
verschilt
verschoven
verschrikkelijk
verschrikking
verschrikt
verschroeid
verschrompel
verschuil
verschuiven
verschuiving
verschuldigd
verse
versie
versierd
versierde
versieren
verslaafd
verslaan
verslag
verslagen
verslaggeefster
verslaggever
verslaggevers
verslapt
verslavend
verslaving
verslechterd
versleten
verslinden
versloeg
verslond
versneld
versnelde
versnellen
versnelling
versoepel
verspeeld
versperd
verspild
verspillen
versplinter
verspreid
verspreidde
verspreiden
verspreiding
verst
versta
verstaan
verstaanbaar
verstand
verstandelijk
verstandhouding
verstandig
verste
versteend
verstek
versteld
versterken
versterking
versterkt
versterkte
verstevigd
verstijfd
verstijfde
verstikkend
verstikt
verstoken
verstomd
verstond
verstoord
verstopp
verstopt
verstoren
verstoring
verstrakte
verstrek
verstrekken
verstrekt
verstrengeld
verstrijk
verstrik
verstrooid
versturen
verstuurd
versuft
vertaald
vertaalde
vertalen
vertaler
vertaling
verte
verteerd
vertegenwoordig
vertel
verteld
vertelde
vertellen
verteller
vertelling
vertelt
verticaal
verticale
vertoef
vertoeven
vertolk
vertolking
vertolkt
vertonen
vertoning
vertoon
vertoond
vertoonde
vertraagd
vertragen
vertraging
vertrapt
vertrek
vertrekken
vertrekt
vertroebel
vertrok
vertrokken
vertrouw
vertrouwd
vertrouwde
vertrouwelijk
vertrouwelijke
vertrouweling
vertrouwen
vertwijfeld
veruit
vervaagd
vervaardig
vervaardigd
vervaarlijk
vervagen
verval
vervallen
vervalst
vervangen
vervanger
vervanging
vervangt
vervatte
verveeld
vervelen
vervelend
vervelende
verveling
verving
vervloekt
vervloekte
vervoer
vervoerd
vervoeren
vervoermiddel
vervolg
vervolgd
vervolgde
vervolgen
vervolgens
vervolging
vervolgt
vervormd
vervreemd
vervroegd
vervuild
vervuiling
vervul
vervuld
vervulde
vervullen
vervulling
verwaand
verwaarloos
verwaarloosd
verwaarloz
verwacht
verwachte
verwachten
verwachting
verwachtingen
verwachtingsvol
verwachtte
verwant
verwanten
verwantschap
verward
verwarde
verwarmd
verwarmen
verwarming
verwarren
verwarrend
verwarring
verwee
verweer
verweerde
verwees
verwekt
verwelkomd
verwelkomen
verwend
verwensing
verweren
verwerken
verwerking
verwerkt
verwerp
verwerpelijk
verwerven
verweten
verweven
verwezen
verwezenlijk
verwier
verwierp
verwijderd
verwijderde
verwijderen
verwijdering
verwijst
verwijt
verwijten
verwijzen
verwijzing
verwikkeld
verwilderd
verwissel
verwisseld
verwittig
verwoed
verwoest
verwoestende
verwoesting
verwond
verwonder
verwonderd
verwonderlijk
verwonding
verwoord
verword
verworpen
verworven
verwrong
verzacht
verzachten
verzadigd
verzamel
verzameld
verzamelde
verzamelen
verzameling
verzamelt
verzegeld
verzeild
verzeker
verzekeraar
verzekeraars
verzekerd
verzekerde
verzekering
verzekerings
verzelfstandig
verzen
verzet
verzette
verzetten
verzilver
verzinne
verzinsel
verzocht
verzoek
verzoeken
verzoend
verzoenen
verzoening
verzonden
verzonk
verzorg
verzorgd
verzorgde
verzorgen
verzorging
verzorgingshui
verzucht
verzuchtte
verzuimd
verzwakken
verzwakt
verzwegen
verzwijg
vest
vestigde
vestigen
vestiging
vesting
vet
vetera
veteranen
veterinair
veto
vette
vettig
veulen
vezel
vi
via
viaduct
vibr
vice
vicepremier
vicepresident
vicevoorzitter
video
videoband
videobeeld
videoclip
viel
vielen
vier
vierde
vierduizend
vieren
vierentwintig
vierhonderd
viering
vierkant
vierkante
viert
viertal
vies
vieze
vijand
vijandelijk
vijanden
vijandig
vijandige
vijf
vijfde
vijfendertig
vijfentwintig
vijfenveertig
vijfhonderd
vijfjarig
vijftal
vijftien
vijftiende
vijftig
vijftigduizend
vijve
vijver
villa
vilt
vind
vinden
vindingrijk
vindt
ving
vinger
vingerafdruk
vingerafdrukken
vingers
vingertop
vinnig
vinyl
violen
violet
violist
viool
vir
virtueel
virtuele
virus
vis
visie
visioen
visite
visitekaartje
vissen
vissensoort
visser
visserij
vissers
visueel
visuele
visum
vitaal
vitale
vitaliteit
vitamine
vitrine
vizier
vlag
vlaggen
vlaggetje
vlak
vlakbij
vlakke
vlakte
vlam
vlammen
vlammetje
vlecht
vleermuizen
vlees
vlei
vleiend
vlek
vlekke
vlekken
vleug
vleugel
vleugels
vlieg
vliegdek
vliegen
vlieger
vliegt
vliegticket
vliegtuig
vliegtuigen
vliegveld
vliesvleugelig
vlijmscherp
vlinder
vloed
vloedgolf
vloeibaar
vloeibare
vloeide
vloeien
vloeiend
vloeistof
vloeit
vloek
vloeken
vloekte
vloer
vloerbedekking
vlokreeften
vloo
vlooien
vloot
vlot
vlotte
vlucht
vluchteling
vluchtelingen
vluchten
vluchtig
vluchtige
vluchtte
vlug
vmbo
vo
vocale
vocht
vochtig
vochtige
vodden
voed
voeden
voeding
voedings
voedingsbodem
voedsel
voeg
voegde
voegen
voegt
voel
voelbaar
voelde
voelen
voelt
voer
voerde
voeren
voert
voertuig
voertuigen
voet
voetbal
voetbalbond
voetbalclub
voetbalelftal
voetballen
voetballer
voetballers
voetbalstadion
voetbalveld
voeten
voeteneind
voetgangers
voetpad
vogel
vogelgriep
vogels
vogeltje
voice
voicemail
vol
volbracht
voldaan
voldoe
voldoen
voldoende
volg
volgde
volgden
volgeling
volgen
volgend
volgende
volgens
volgers
volgorde
volgt
volhoud
volk
volken
volkeren
volkomen
volks
volksgezondheid
volkslied
volksmon
volkstelling
volksver
volle
volledig
volledige
volleybal
volmaakt
volmaakte
volslagen
volstaa
volstrekt
voltallig
voltijds
voltooid
voltooide
voltooien
voltooiing
voluit
volume
volwaardig
volwassen
volwassenen
von
vond
vondst
vonk
vonken
vonnis
voogdij
voor
vooraan
vooraanstaand
vooraanstaande
vooraf
voorafgaand
voorafgaande
vooral
vooraleer
vooralsnog
vooravond
voorbarig
voorbeeld
voorbeelden
voorbeeldig
voorbehoud
voorbereid
voorbereiden
voorbereiding
voorbestemd
voorbij
voorbijgaan
voorbijganger
voorbode
voordeel
voordelen
voordelig
voordeur
voordoen
voordracht
voorgaande
voorganger
voorgelegd
voorgeschoteld
voorgeschreven
voorgesteld
voorhand
voorhoede
voorhoofd
voorjaar
voorkant
voorkeur
voorkeurstemmen
voorkomen
voorkwam
voorlaatste
voorlezen
voorlichter
voorlichting
voorloper
voorlopig
voormalig
voormalige
voornaam
voornaamste
voornamelijk
voornemen
vooroorlogs
voorop
voorouders
voorover
voorpagina
voorproefje
voorraad
voorraden
voorrang
voorronde
voorruit
voorschriften
voorspelbaar
voorspeld
voorspelde
voorspellen
voorspelling
voorspelt
voorspoedig
voorsprong
voorstander
voorste
voorstel
voorstelde
voorstellen
voorstelling
voorstellingen
voortbestaan
voortbreng
voortduren
voortdurend
voortdurende
voortgang
voortgebracht
voortgezet
voortijdig
voortkom
voortplanting
voortreffelijk
voorts
voortvarend
voortvloei
voortvluchtig
voortzetten
voortzetting
vooruit
vooruitgang
vooruitstrevend
vooruitzicht
voorval
voorwaarde
voorwaardelijk
voorwaarden
voorwaarts
voorwendsel
voorwerp
voorwerpen
voorzag
voorzet
voorzichtig
voorzichtigheid
voorzien
voorzieningen
voorzitster
voorzitter
voorzitterschap
voorzorg
vorder
vorderde
vorderingen
voren
vorig
vorige
vork
vorm
vormde
vormen
vormgeving
vorming
vormt
vorst
vorsten
vos
vossen
vous
vouw
vouwde
vr
vraag
vraaggesprek
vraagt
vraagtekens
vracht
vrachtauto
vrachtschip
vrachtwagen
vrachtwagens
vragen
vragend
vragenlijst
vrede
vredes
vredesakkoord
vredesmacht
vredesmissie
vredig
vreedzaam
vreedzame
vreemd
vreemde
vreemdeling
vreemdelingen
vrees
vreesde
vreet
vreselijk
vreselijke
vreugde
vrezen
vriend
vriendelijk
vriendelijke
vrienden
vriendin
vriendinnen
vriendinnetje
vriendje
vriendjes
vriendschap
vriendschappe
vries
vrij
vrijblijvend
vrijdag
vrijdagavond
vrijdagmiddag
vrije
vrijetijds
vrijgekomen
vrijgelaten
vrijgemaakt
vrijgesproken
vrijgezel
vrijheid
vrijkomen
vrijlating
vrijstaand
vrijstelling
vrijwillig
vrijwillige
vrijwilliger
vrijwilligers
vroedvrouw
vroeg
vroege
vroeger
vroegere
vroegtijdig
vrolijk
vrolijke
vrolijkheid
vrome
vroolijk
vroom
vrouw
vrouwelijk
vrouwelijke
vrouwen
vrouwtje
vrouwtjes
vrucht
vruchtbaar
vruchtbaarheid
vruchtbare
vruchteloo
vruchten
vuil
vuile
vuilnis
vuilnisbak
vuilniszak
vuist
vuisten
vul
vulde
vulden
vulkaan
vulkanische
vullen
vult
vuren
vurig
vurige
vuur
vuurgevecht
vuurpijl
vuurtje
vuurtoren
vuurwapen
vuurwerk
vuurwerkramp
vwo
véél
vóór
wa
waag
waagde
waaide
waaier
waakt
waakzaam
waan
waanzin
waanzinnig
waanzinnige
waar
waaraan
waarbij
waarborgen
waard
waarde
waardeer
waardeloos
waarden
waarderen
waardering
waardevol
waardevolle
waardig
waardigheid
waardoor
waargenomen
waarheid
waarin
waarlijk
waarmee
waarna
waarnaar
waarnemen
waarnemend
waarnemer
waarnemers
waarneming
waarom
waaronder
waarover
waarschijnlijk
waarschuw
waarschuwde
waarschuwen
waarschuwend
waarschuwing
waarschuwt
waartegen
waarto
waarvan
waarvoor
waas
wacht
wachten
wachters
wachtkamer
wachtlijst
wachtpost
wachtte
wachttijd
wachtwoord
wagen
wagens
wagon
waken
wakker
wal
walgelijk
walging
wallen
walvis
walvissen
wan
wand
wandel
wandelaars
wandelde
wandelen
wandelgang
wandeling
wandelpad
wandelstok
wang
wangedrag
wanhoop
wanhopig
wanhopige
wankel
wankelde
wanneer
wanorde
want
wantrouwen
wantrouwig
wapen
wapenbezit
wapenrusting
wapens
wapenstilstand
wapperde
wapperend
war
ware
waren
warenhuis
warm
warme
warmer
warmte
warrig
was
wassen
wat
water
waterdicht
waterleiding
wateroppervlak
wateroverlast
waterpolo
waterschap
waterstof
waterval
wazig
wc
we
web
website
websites
webwinkel
wedden
weddenschap
weder
wederopbouw
wederzijds
wedijver
wedstrijd
wedstrijden
weduwe
weduwnaar
weefsel
weegschaal
weegt
week
weekblad
weekdier
weekeinde
weekend
weelderig
weemoed
weemoedig
weer
weerbarstig
weergave
weergegeven
weerhield
weerhouden
weerkaatst
weerklonk
weerspiegel
weerspiegeld
weerstand
weerszijde
weerzin
weerzinwekkend
wees
weeshui
weet
weg
wegdek
wegen
wegens
wegge
weggebruiker
weggegooid
weggehaald
weggestuurd
wegging
weggooi
wegliep
weglopen
wegvallen
weide
weids
weifel
weifelend
weigerde
weigeren
weigering
weigert
weiland
weinig
weinige
wekelijks
weken
wekenlang
wekken
wekker
wekt
wekte
wel
weldra
weleer
welgestelde
welk
welke
welkom
wellicht
wellustig
welvaart
welvarend
welwillend
welzijn
wemelde
wendde
wenden
wending
wenkbrauw
wenkbrauwen
wenken
wenkte
wens
wensch
wenselijk
wensen
wenst
wenste
went
wenteltrap
werd
werden
wereld
wereldbeker
wereldberoemd
wereldkampioen
wereldranglijst
wereldrecord
wereldtitel
wereldtop
wereldwijd
weren
werf
werk
werkdag
werkdruk
werkelijk
werkelijke
werkelijkheid
werken
werkende
werkgelegenheid
werkgever
werkgevers
werkgroep
werking
werkkamer
werkloos
werkloosheid
werklozen
werknemer
werknemers
werkplaats
werkplek
werkstraf
werkt
werkte
werkten
werkvloer
werkwijze
werkwoord
werkzaam
werkzame
werkzoekenden
werpen
werpt
wervel
wervelend
werven
west
westelijk
westelijke
westen
westerling
western
westkust
wet
weten
wetenschap
wetenschappen
wetenschapper
wetgever
wetgeving
wethouder
wethouders
wetsontwerp
wetsvoorstel
wettelijk
wetten
wettig
wezen
wezenlijk
wezens
what
whisky
who
wi
wie
wiebel
wieg
wiel
wielen
wieler
wielerploeg
wielersport
wielrennen
wielrenner
wier
wierook
wierp
wij
wijd
wijdde
wijde
wijden
wijdopen
wijfje
wijk
wijkagent
wijken
wijn
wijngaard
wijs
wijsheid
wijst
wijsvinger
wijze
wijzen
wijzend
wijzer
wijzigen
wijziging
wijzigingen
wikkelde
wil
wild
wildcard
wilde
wilden
wildernis
willekeur
willekeurig
willekeurige
willen
wilskracht
wilt
wimpel
wimper
win
wind
winderig
windmolens
winkel
winkelcentr
winkelen
winkelier
winkeliers
winkelketen
winkels
winkeltje
winnaar
winnaars
winnares
winnen
winnende
winst
winstgevend
winstmarge
winstwaarschuw
wint
winter
wintersport
wip
wipte
wiskunde
wiskundige
wispelturig
wissel
wisselde
wisselen
wisselend
wisselkoers
wisselvallig
wissen
wist
wisten
wit
with
witte
witwasse
wo
wodka
woedde
woede
woedend
woedende
woei
woeker
woelige
woensdag
woensdagavond
woensdagmiddag
woest
woeste
woestijn
woiwodschap
wol
wolf
wolk
wolken
wolkenkrabber
wollen
wolven
won
wond
wonder
wonderbaarlijk
wonderbaarlijke
wonderen
wonderlijk
wonen
woning
woningbouw
woningen
woningmarkt
wonnen
woog
woon
woonachtig
woonde
woonhui
woonkamer
woonplaats
woonruimte
woont
woonwagen
woonwijk
woord
woorden
woordenboek
woordje
woordvoerder
word
worden
wordt
work
workshop
worm
worst
worstelaar
worstelde
worstelen
worsteling
worstelt
wortel
wortels
wou
woud
wraak
wrak
wrang
wrede
wree
wreed
wreken
wrevel
wrijf
wrijven
wrijving
wrok
wrong
wuifde
wurg
wurmde
www
wèl
wél
wéé
wéér
xtc
year
yoga
yoghurt
you
your
za
zaad
zaag
zaaien
zaak
zaakvoerder
zaakwaarnemer
zaal
zacht
zachtaardig
zachte
zachter
zachtjes
zadel
zaden
zag
zagen
zak
zakdoek
zakelijk
zakelijke
zaken
zakenbank
zakenman
zakje
zakken
zaklamp
zaklantaarn
zakt
zakte
zal
zand
zang
zanger
zangeres
zangvogel
zat
zaterdag
zaterdagavond
zaterdagmiddag
zaterdagochtend
ze
zeebodem
zeehonden
zeeman
zeep
zeer
zeespiegel
zeewater
zeewier
zeeën
zeg
zege
zegel
zegen
zegevierde
zegevieren
zeggen
zeggenschap
zegt
zei
zeide
zeiden
zeil
zeilen
zeker
zekere
zekerheid
zelden
zeldzaam
zeldzame
zelf
zelfbewust
zelfdoding
zelfgemaakt
zelfmoord
zelfrijdend
zelfs
zelfstandig
zelfstandige
zelfstandigheid
zelfverdediging
zelfvertrouwen
zelfverzekerd
zelve
zenden
zender
zenders
zending
zendt
zendtijd
zenuw
zenuwachtig
zenuwen
zenuwstelsel
zes
zesde
zesduizend
zesentwintig
zeshonderd
zestien
zestiende
zestienjarige
zestig
zet
zetel
zetels
zette
zetten
zeuren
zeven
zevende
zevenhonderd
zeventien
zeventiende
zeventienjarige
zeventig
zich
zichtbaar
zichtbare
zichzelf
zie
ziek
zieke
ziekelijk
zieken
ziekenfonds
ziekenhuis
ziekenhuizen
ziekte
ziektekosten
ziekten
ziekteverzuim
ziel
zielen
zielig
zien
zigeuner
zigzag
zij
zijde
zijdelings
zijden
zijkant
zijn
zilver
zilveren
zilverkleurig
zin
zinderend
zingen
zingt
zinken
zinloos
zinnen
zinnetje
zintuigen
zinvol
zit
zitkamer
zitten
zitting
zo
zoals
zocht
zodanig
zodat
zoek
zoekactie
zoeken
zoekmachine
zoekt
zoektocht
zoemen
zoenen
zoet
zoete
zoge
zogenaamd
zogenoemd
zoiet
zolder
zomaar
zombie
zomer
zomermaand
zomervakantie
zon
zond
zondag
zondagavond
zondagmiddag
zondagochtend
zonde
zondebok
zonder
zondig
zone
zonen
zong
zonk
zonlicht
zonne
zonnebloem
zonnebril
zonnepane
zonneschijn
zonnestelsel
zonnestral
zonnetje
zonnig
zonnige
zonsondergang
zonsopgang
zoo
zooals
zoodat
zoog
zoogdier
zoogdieren
zoon
zoons
zoontje
zooveel
zorg
zorgde
zorgelijk
zorgeloos
zorgen
zorginstelling
zorgt
zorgverzekeraar
zorgvuldig
zorgwekkend
zou
zouden
zoveel
zovele
zover
zowel
zucht
zuchtend
zuchtte
zuid
zuidelijk
zuidelijke
zuiden
zuidkan
zuidoost
zuidoosten
zuidwaarts
zuidwest
zuidwestelijke
zuidwesten
zuigeling
zuigen
zuilen
zuinig
zuivel
zuiver
zuivere
zuivering
zul
zulk
zulke
zullen
zult
zure
zus
zusje
zuster
zusters
zuur
zuurstof
zwaaide
zwaaien
zwaaiend
zwaailicht
zwaait
zwaan
zwaar
zwaarbewolkt
zwaard
zwaarden
zwaarder
zwaargewicht
zwaargewond
zwaarst
zwaartekracht
zwaartepunt
zwager
zwak
zwakke
zwakker
zwakte
zwanen
zwanger
zwangere
zwangerschap
zware
zwart
zwarte
zwavel
zwee
zweef
zweefde
zweem
zweep
zweer
zweet
zwem
zwembad
zwemmen
zweren
zwerf
zwerm
zwerven
zwerver
zweten
zweven
zwever
zwiep
zwier
zwierig
zwijg
zwijgen
zwijgend
zwijgt
zwijgzaam
zwijn
zwoegen
zwoel
zwoer
zwol
zwom
zyn
zélf
zó
zóó
éc
écht
éen
én
één
óf
##00
##0000
##01
##02
##030
##07
##08
##09
##10
##100
##101
##1010
##11
##1100
##113
##12
##13
##14
##15
##16
##17
##18
##181
##1815
##1816
##1817
##1820
##1825
##1829
##1833
##1834
##1842
##1845
##1846
##1848
##1849
##1851
##1852
##1853
##1855
##1856
##1857
##1859
##1860
##1861
##1862
##1865
##1866
##1867
##1872
##1873
##1877
##1882
##1883
##19
##191
##20
##200
##2000
##201
##2022
##203
##21
##211
##2110
##213
##214
##219
##22
##2200
##221
##223
##226
##229
##23
##231
##233
##236
##238
##24
##241
##243
##246
##248
##25
##251
##255
##26
##261
##27
##28
##29
##30
##300
##301
##31
##313
##314
##32
##323
##33
##34
##35
##36
##37
##38
##39
##40
##400
##41
##411
##413
##42
##43
##430
##44
##45
##46
##47
##475
##48
##49
##50
##500
##5000
##50cc
##51
##513
##52
##53
##54
##55
##56
##57
##58
##59
##60
##600
##61
##62
##623
##64
##65
##66
##67
##68
##69
##70
##700
##71
##74
##75
##76
##77
##78
##79
##80
##800
##81
##83
##84
##85
##86
##87
##870
##88
##89
##90
##91
##92
##93
##94
##95
##96
##97
##98
##99
##AA
##AAF
##AAG
##AAL
##AAN
##AAR
##AAT
##AB
##AC
##ACH
##ACHT
##AD
##AE
##AF
##AG
##AGEN
##AI
##AK
##AL
##ALE
##ALITEIT
##ALL
##AM
##AMC
##AMP
##AN
##AND
##ANDER
##ANG
##ANK
##ANNE
##ANS
##ANT
##AO
##AP
##AR
##ARA
##ARC
##ARD
##ARE
##ART
##AS
##ASH
##AST
##AT
##ATE
##ATIE
##AU
##AV
##AW
##AZ
##App
##Australaziatisch
##BA
##BAL
##BB
##BC
##BE
##BEEK
##BEKE
##BERG
##BG
##BH
##BI
##BL
##BM
##BO
##BP
##BR
##BS
##BT
##BU
##BURG
##BVV
##BW
##BZ
##Bladzijde
##CA
##CB
##CC
##CD
##CE
##CG
##CH
##CI
##CK
##CL
##CM
##CN
##CO
##COM
##CP
##CR
##CS
##CT
##CTIE
##CTU
##CU
##CW
##Chrysler
##Co
##DA
##DB
##DC
##DD
##DE
##DEL
##DEN
##DER
##DF
##DG
##DH
##DI
##DK
##DL
##DM
##DN
##DO
##DP
##DR
##DS
##DT
##DU
##DV
##DW
##De
##EA
##EB
##EC
##ECT
##ED
##EDE
##EE
##EEFT
##EEL
##EER
##EEUW
##EF
##EG
##EGEM
##EGEN
##EH
##EI
##EK
##EKEN
##EL
##ELD
##ELE
##ELEN
##ELIJK
##ELLE
##ELS
##ELT
##EM
##EMENT
##EN
##END
##ENE
##ENS
##ENT
##EO
##EP
##ER
##ERE
##EREN
##ERN
##ERS
##ERT
##ES
##ESO
##EST
##ET
##ETER
##EU
##EUR
##EV
##EVEN
##EVER
##EW
##EY
##EZ
##Element
##FA
##FB
##FC
##FE
##FF
##FI
##FK
##FL
##FM
##FN
##FO
##FOR
##FR
##FS
##FT
##GA
##GB
##GC
##GD
##GE
##GEL
##GEM
##GEN
##GER
##GESTELD
##GG
##GH
##GI
##GL
##GM
##GN
##GO
##GR
##GS
##GT
##GZ
##Govern
##HA
##HAN
##HB
##HBO
##HC
##HE
##HEID
##HEM
##HH
##HI
##HIL
##HL
##HM
##HN
##HO
##HOUT
##HOVEN
##HP
##HR
##HS
##HT
##HV
##Hoofdstuk
##IA
##IB
##IC
##ICH
##ID
##IE
##IEK
##IEN
##IER
##IES
##IET
##IF
##IFA
##IG
##II
##III
##IJ
##IJN
##IK
##IL
##ILL
##ILLE
##IM
##IN
##INA
##INE
##ING
##INGEN
##INT
##IO
##IOC
##IOD
##ION
##IP
##IR
##IS
##ISS
##IST
##IT
##IV
##IVD
##IZ
##JE
##KA
##KE
##KEL
##KEN
##KER
##KI
##KING
##KK
##KM
##KO
##KOM
##KP
##KR
##KS
##KT
##KV
##KW
##KZ
##LA
##LAN
##LAND
##LB
##LC
##LD
##LE
##LEM
##LEN
##LF
##LI
##LIE
##LIJK
##LIJN
##LIN
##LK
##LL
##LM
##LN
##LO
##LP
##LS
##LT
##LTO
##LU
##LV
##MA
##MAN
##MB
##MC
##MD
##ME
##MER
##MG
##MI
##MK
##ML
##MM
##MO
##MP
##MS
##MT
##MTS
##MU
##MV
##MW
##MZ
##Ma
##Mittal
##Mobil
##NA
##NB
##NC
##ND
##NE
##NET
##NG
##NHC
##NI
##NIS
##NK
##NL
##NM
##NMI
##NMa
##NNEN
##NO
##NP
##NPO
##NR
##NS
##NSB
##NT
##NU
##NV
##NVB
##NY
##Nobel
##OA
##OB
##OC
##OCK
##OD
##OE
##OED
##OEK
##OEN
##OET
##OF
##OG
##OI
##OK
##OL
##OM
##ON
##OND
##ONG
##ONT
##OO
##OOD
##OON
##OOR
##OORD
##OP
##OR
##ORT
##OS
##OT
##OU
##OUD
##OUR
##OUW
##OV
##OVV
##OW
##OZ
##PA
##PC
##PCC
##PD
##PE
##PEC
##PEL
##PEN
##PER
##PF
##PG
##PH
##PI
##PK
##PL
##PLA
##PM
##PN
##PO
##PORT
##PP
##PR
##PRO
##PS
##PT
##PU
##PV
##RA
##RAN
##RB
##RC
##RD
##RE
##RECHT
##RED
##RF
##RG
##RI
##RICHT
##RIE
##RIJ
##RIJS
##RIS
##RK
##RL
##RM
##RO
##RON
##ROS
##RP
##RR
##RS
##RT
##RU
##RV
##RW
##SA
##SB
##SC
##SCH
##SCHE
##SD
##SDAP
##SE
##SF
##SG
##SH
##SI
##SINT
##SJ
##SK
##SKA
##SL
##SM
##SML
##SN
##SO
##SP
##SR
##SS
##SSEN
##ST
##STAD
##STAT
##STE
##STEL
##STER
##SV
##SW
##Staatssecretaris
##T5
##TA
##TABEL
##TB
##TC
##TE
##TEN
##TER
##TF
##TG
##TH
##TI
##TL
##TM
##TO
##TON
##TOR
##TP
##TPG
##TR
##TRE
##TS
##TT
##TV
##TZ
##Today
##UB
##UC
##UCK
##UD
##UE
##UG
##UI
##UID
##UIT
##UL
##UM
##UN
##UP
##UR
##US
##UST
##UT
##UUR
##UV
##UWE
##UWV
##UY
##VA
##VB
##VC
##VD
##VE
##VEL
##VEN
##VER
##VERS
##VG
##VH
##VI
##VK
##VL
##VM
##VO
##VP
##VR
##VS
##VSE
##VT
##VV
##VW
##VZ
##Vandaag
##Visie
##Vredenburg
##WA
##WC
##WERK
##WF
##WI
##WIJK
##WIN
##WO
##WS
##Wetenschappelijk
##ZA
##ZE
##ZEN
##ZO
##ZW
##Zullen
##aaaa
##aad
##aag
##aagd
##aai
##aaien
##aak
##aal
##aan
##aanbidder
##aanbieder
##aanbod
##aandeel
##aandeelhouder
##aandelen
##aandoening
##aanduiding
##aangifte
##aanse
##aantal
##aantallen
##aanval
##aanvallen
##aanvraag
##aap
##aar
##aard
##aarde
##aardig
##aardverschuiving
##aars
##aas
##aat
##ab
##aba
##abel
##abele
##abi
##abilis
##abilit
##abiliteit
##able
##ablo
##abo
##abonnement
##abri
##ac
##aca
##academie
##acanth
##acci
##accommodatie
##account
##ace
##acea
##ach
##acher
##achi
##acht
##achter
##achtereenvolgend
##achtereenvolgens
##achterstand
##achtig
##achtige
##aci
##ack
##acker
##aco
##acris
##act
##acteur
##actie
##acties
##activ
##activiteit
##activiteiten
##actrice
##ada
##add
##adder
##adel
##adelijk
##adem
##ademing
##ader
##ades
##adh
##adi
##administratie
##ado
##ador
##adre
##adres
##ads
##adulf
##advertentie
##advies
##adviseur
##advocaat
##ady
##adze
##aeda
##aere
##aert
##aerts
##aeus
##af
##afdeling
##afdrukken
##affaire
##afgebroken
##afgesproken
##afhankelijk
##afide
##afoor
##afspraken
##afstand
##aftrek
##afval
##afweten
##afwijking
##ag
##aga
##age
##agenda
##agent
##agenten
##agentschap
##ager
##ages
##agh
##agi
##aglia
##agne
##ago
##ahl
##aid
##aida
##ailleurs
##aim
##aine
##ains
##air
##aire
##aise
##ait
##aja
##aji
##ajo
##ajoor
##ak
##aka
##ake
##aki
##akis
##akke
##akker
##akkers
##akkoord
##aks
##akte
##al
##ala
##alarm
##album
##ald
##aldo
##aldus
##aleb
##alen
##ali
##alia
##alis
##alisatie
##aliseerd
##aliseren
##alisering
##alisme
##alistische
##aliteit
##all
##alle
##allo
##ally
##almaar
##alniet
##alomtegenwoordig
##aloude
##als
##alsema
##alsnog
##altaar
##am
##ama
##amantha
##amba
##ambi
##ambt
##ambtenaar
##ambtenaren
##ambu
##america
##amerika
##ami
##amine
##amino
##amo
##amon
##amp
##ampton
##amus
##an
##ana
##analist
##analyse
##ance
##and
##anda
##ander
##andeweg
##andi
##ando
##andpasta
##andra
##andre
##andri
##anen
##anes
##ang
##anga
##angenaam
##angst
##anhopig
##ani
##ania
##anja
##anjer
##anji
##anke
##anna
##anne
##anni
##anno
##ano
##anovic
##ans
##anse
##ant
##anta
##ante
##anten
##anth
##anti
##antie
##anto
##ants
##antwoord
##anus
##any
##anza
##aoui
##ap
##app
##apparaat
##apparaten
##apparatuur
##appel
##ar
##ara
##arab
##aradzic
##arbeid
##arbeiders
##arc
##arcasme
##arch
##archief
##architect
##ard
##ardi
##are
##aren
##ares
##argument
##ari
##aria
##ario
##aris
##arium
##arius
##ark
##arm
##armate
##arne
##arni
##arno
##aro
##arokkanen
##arra
##arrest
##arrington
##arrow
##ars
##art
##arth
##artiest
##artikel
##artikelen
##arts
##ary
##asa
##asce
##asco
##ash
##ashi
##asi
##assa
##asse
##assen
##assi
##assistent
##asso
##assortiment
##ast
##aster
##at
##ata
##atar
##atelier
##aten
##ater
##ateur
##ath
##atha
##athleen
##ati
##atie
##atief
##aties
##atieve
##atine
##ation
##ations
##ative
##atlee
##ato
##atomen
##ator
##atrice
##atsu
##atta
##atti
##atum
##atur
##atus
##auber
##aud
##auer
##augh
##augur
##ault
##auri
##aut
##auteur
##auto
##automaat
##automaten
##autoriteit
##auw
##aux
##ava
##ave
##avec
##avi
##avia
##avier
##avo
##avond
##avu
##awa
##away
##ax
##ay
##aya
##azar
##azc
##azi
##azz
##aël
##aï
##ba
##baan
##baar
##baard
##baarheid
##baas
##baat
##bac
##bach
##back
##bad
##bag
##bahn
##bak
##bakken
##bakker
##bal
##balans
##balk
##ball
##ballen
##ballon
##ban
##band
##banden
##banen
##bang
##bank
##banken
##bannen
##bar
##bare
##barometer
##barsten
##bas
##bases
##basiliek
##basis
##bat
##batterij
##bau
##baum
##bay
##bazen
##bb
##bbel
##bben
##bber
##bby
##be
##beambte
##beck
##bed
##bedacht
##bedden
##bediende
##bedient
##bedrag
##bedrijf
##bedrijven
##bedrijventerrein
##beeck
##beek
##beeld
##beelden
##been
##beer
##beest
##beet
##begaanbaar
##begeerte
##begeleider
##begeleiding
##beginsel
##begrepen
##begrip
##begroting
##begrotingstekort
##behalve
##behandeling
##beheer
##beheerder
##beheersing
##behoefte
##behoud
##bei
##bek
##beke
##bekend
##beker
##bekerwedstrijd
##bekken
##beklag
##bekwaam
##bel
##belang
##belangrijkste
##belasting
##belastingbetaler
##belde
##beleid
##bell
##bella
##bellen
##ben
##bende
##benen
##bepalend
##bepaling
##bepalingen
##beperking
##ber
##bereid
##bereik
##berg
##bergen
##berger
##bergh
##berghe
##bericht
##berichten
##beroepsonderwijs
##berry
##bert
##bes
##beschadiging
##bescherming
##beschouwing
##beschrijving
##besef
##beslissing
##besluit
##besnijdenis
##bespreekbaar
##bespreking
##besproken
##bessen
##bestaan
##bestand
##besteden
##besteding
##bestemming
##bestendig
##bestrijding
##besturen
##bestuur
##bestuurder
##bestuurders
##bet
##betaald
##betalen
##betaling
##beth
##betrouwbare
##betuigd
##betuiging
##beuk
##beur
##beurs
##beurt
##beurzen
##beveiliging
##bevel
##bevol
##bevolking
##bevredig
##bewaarder
##bewaking
##beweging
##bewegingen
##bewerken
##bewerking
##bewijs
##bewijzen
##bewoner
##bewoners
##bewust
##bewustzijn
##bezetting
##bezit
##bezitters
##bezoedeld
##bezoek
##bezoekers
##bezorger
##beëindigen
##bi
##bia
##bibliotheek
##bie
##biedt
##bier
##bij
##bijdrage
##bijeenkomst
##bike
##bil
##biljet
##biljetten
##bin
##binden
##binnen
##bino
##bio
##bird
##bis
##bit
##bius
##bl
##bla
##blaadje
##blaadjes
##blaas
##blad
##bladen
##bladeren
##blanc
##blauw
##blauwe
##blazen
##blazer
##ble
##bleef
##bleek
##blessure
##bleven
##bli
##blijfsvergunning
##blijft
##blijven
##blijvers
##blik
##blind
##blo
##bloed
##bloei
##bloem
##bloemen
##bloesem
##blog
##blok
##blokken
##blond
##blote
##blus
##bo
##board
##bod
##bodem
##body
##boe
##boek
##boeken
##boekje
##boel
##boer
##boerderij
##boeren
##boezem
##bogen
##bok
##bol
##bollen
##bom
##bomen
##bommen
##bon
##bond
##bonnen
##bood
##boodschap
##boog
##book
##boom
##boompje
##boon
##boord
##boot
##bor
##bord
##borden
##borg
##born
##borough
##borrel
##borst
##borstel
##bos
##bosch
##bossen
##bot
##boten
##botst
##bouillon
##bour
##bourg
##bourne
##bout
##bouw
##bouwer
##boven
##bow
##box
##boy
##br
##bra
##braak
##bracht
##braden
##brak
##branche
##brand
##brander
##bre
##brecht
##breed
##breek
##breekt
##breken
##breker
##breng
##brengen
##brengt
##breuk
##bridge
##brief
##brieven
##brigade
##bril
##brink
##bro
##broeck
##broeder
##broeders
##broek
##bron
##bronnen
##brood
##brook
##brouck
##brouwen
##bru
##brug
##brugge
##bruikbare
##bruin
##bsoluut
##bu
##budget
##bui
##buik
##building
##buis
##buiten
##buizen
##buk
##bul
##bulletin
##bun
##bundel
##bur
##bureau
##bureaus
##buren
##burg
##burger
##burn
##bury
##bus
##business
##bussen
##but
##buurt
##by
##bé
##ca
##cabine
##cade
##cadeau
##café
##cal
##calcul
##cale
##cam
##camera
##camp
##campagne
##can
##cant
##cap
##capaciteit
##car
##card
##carrière
##cast
##cat
##cata
##categorie
##cauda
##cc
##cca
##cchi
##cco
##ceae
##cel
##cell
##cellen
##celli
##cent
##centra
##centrale
##centrum
##ceo
##cephal
##ceps
##cept
##ceptie
##cera
##ceremonie
##cert
##certificaat
##certificaten
##ces
##cey
##ch
##cha
##champ
##chan
##char
##chard
##charmeerd
##chauffeur
##che
##check
##chef
##chel
##chem
##chemie
##chen
##cheque
##cher
##ches
##chester
##chi
##chia
##child
##chin
##chirurg
##chloride
##chner
##chneumon
##cho
##choorsteenmantel
##chor
##chov
##christ
##chroma
##cht
##chten
##chter
##chtig
##chu
##chudding
##chuldig
##chus
##chy
##ché
##ci
##cia
##cie
##cijfer
##cijfers
##cil
##cili
##cilinder
##cin
##cine
##cini
##cino
##cio
##cip
##cir
##circuit
##circulatie
##cirkel
##cis
##cisme
##ción
##ck
##ckaert
##cke
##ckel
##cken
##cker
##cks
##ckx
##cla
##claim
##class
##clausule
##clav
##cle
##cliff
##clo
##club
##clubs
##clusief
##co
##coach
##coalitie
##coalitiepartijen
##cock
##code
##coin
##col
##cola
##collectie
##college
##collis
##color
##com
##combinatie
##comité
##comm
##commandant
##commando
##commandocentrale
##commercial
##commissaria
##commissaris
##commissarissen
##commissie
##communicatie
##comp
##compartiment
##competentie
##competitie
##complex
##component
##computer
##con
##concentratie
##concentratiekamp
##concept
##concern
##concert
##concludeerd
##concours
##conferentie
##conflict
##congres
##conjunctuur
##console
##construct
##constructie
##consulent
##consumptie
##contact
##container
##continent
##contr
##contract
##contracten
##controle
##conventionele
##cor
##cord
##cornis
##corp
##corporate
##cott
##coup
##cour
##coureur
##court
##coëfficiënt
##coöperatie
##coördinator
##cq
##cra
##craft
##cre
##cri
##criminaliteit
##crisis
##criticus
##cro
##croft
##croix
##cross
##cru
##crypt
##crème
##cta
##ctin
##ction
##ctis
##cto
##ctor
##ctu
##ctus
##cu
##cul
##cula
##culaire
##culturele
##culturen
##cultuur
##culus
##cum
##cun
##cup
##cur
##cursus
##curve
##cus
##cut
##cy
##cycl
##cyclop
##cyclus
##cyrt
##czy
##cé
##da
##daad
##daags
##daagse
##daagt
##daal
##daar
##dacht
##dactyl
##dadig
##dag
##dagboek
##dagen
##dah
##dak
##dal
##dale
##daling
##dam
##damane
##dan
##dance
##dank
##dankbare
##dans
##daq
##dar
##dat
##datum
##day
##ddin
##dding
##ddle
##ddy
##de
##deal
##debat
##debuut
##deed
##deel
##deeltjes
##defensie
##dekken
##dekker
##dekkingsreiziger
##delen
##delict
##delige
##deling
##dell
##demonstratie
##demonstreerd
##den
##denken
##der
##derbij
##derdaad
##derde
##deren
##derhand
##derom
##ders
##dertig
##dertijd
##deskundige
##detective
##detector
##deur
##deuren
##dheid
##di
##dia
##dic
##dicht
##dichtgeknepen
##die
##dief
##diefstal
##dien
##dienst
##diensten
##diep
##dier
##dieren
##dieven
##dig
##dij
##dijk
##dil
##dimension
##dimensional
##dina
##dine
##diner
##ding
##dingen
##dini
##dino
##dio
##diploma
##directeur
##directie
##directrice
##dische
##disciplinair
##discipline
##discussie
##distributeur
##district
##dit
##dium
##div
##divisie
##dja
##dji
##do
##doc
##docent
##dochter
##dock
##document
##doe
##doek
##doel
##doelpunt
##doelstelling
##doen
##doende
##doening
##doet
##dok
##doken
##dokter
##dol
##dom
##domein
##don
##donck
##dong
##donk
##donker
##dood
##dook
##dool
##door
##doos
##dor
##dorf
##dorie
##dorp
##dorven
##dos
##dossier
##dou
##down
##dra
##draad
##draag
##draagt
##draai
##draaide
##draaien
##draait
##dracht
##dragen
##drager
##dragers
##drama
##drang
##drank
##draven
##dreef
##dreiging
##drempel
##dreun
##dreven
##dri
##drie
##drift
##drijft
##drijven
##drijver
##drijving
##dringt
##drink
##dro
##droeg
##droeve
##drogen
##dron
##dronken
##droog
##droom
##druk
##drukken
##drukking
##drukte
##drup
##druppel
##dschap
##dubbel
##duc
##duct
##duel
##duid
##duif
##duik
##duin
##duister
##duits
##duivel
##duizelingwekkend
##duizend
##duk
##dun
##duo
##dur
##durende
##dus
##dustrieel
##duur
##duurd
##duurste
##duwde
##dwalen
##dyn
##dzj
##dé
##earctisch
##eau
##eaux
##ebola
##ech
##echt
##echtold
##eck
##ecker
##econo
##economie
##ect
##ectie
##edel
##eder
##editie
##edric
##educatie
##eel
##eenheden
##eenheid
##eens
##eerbaar
##eerbare
##eerd
##eerde
##eerden
##eerder
##eerst
##eert
##eestal
##eeuw
##eeën
##eff
##effect
##effecten
##eft
##egel
##egelijkertijd
##egem
##egh
##eghem
##eheran
##eid
##eigen
##eigenaar
##eigenare
##eiland
##eilanden
##eiligheidsdienst
##eind
##einde
##eira
##eiroet
##eisen
##eke
##eks
##eksuele
##ekt
##el
##ela
##elaar
##elaars
##elaer
##elaere
##elaine
##elaren
##elarij
##eld
##elde
##ele
##elementen
##elen
##elenbos
##elend
##elftal
##eli
##elia
##elijk
##elijke
##elijkheid
##elinda
##eling
##elingen
##ell
##ella
##elle
##ellen
##elli
##ellida
##ellini
##ello
##ellus
##elman
##elobject
##eloos
##eloze
##els
##elsnaam
##elt
##eltje
##ema
##emb
##embargo
##emde
##ement
##emi
##emlin
##emon
##emp
##en
##enbach
##enberg
##enburg
##ence
##endael
##ende
##endha
##endijk
##energie
##engevolge
##eniveau
##enko
##ennegentig
##ennessee
##ense
##ensis
##enstein
##enswaardige
##entachtig
##entegen
##enti
##entwintigste
##enveertig
##enverstrengeling
##enzestig
##eonato
##eongchang
##epidemie
##ept
##er
##era
##eraard
##erd
##erde
##erden
##eredith
##ereert
##eren
##erend
##erende
##erf
##erhaupt
##eria
##erie
##erig
##erige
##erij
##erijen
##ering
##eringen
##erink
##erkenning
##erle
##ermann
##ermate
##ernis
##erno
##ernood
##erpstra
##erre
##ers
##ertje
##ertoe
##erts
##erusten
##ervaring
##ervorst
##erwijs
##erwten
##erzijds
##escens
##eschrokken
##escu
##esh
##essa
##esse
##essen
##essie
##essler
##essoir
##est
##etappe
##eten
##eter
##eters
##eth
##ethiek
##etje
##etronic
##ets
##etta
##ettafel
##ette
##etten
##etter
##etti
##etto
##eur
##eurs
##euse
##eux
##euze
##eve
##eveld
##even
##evenement
##ever
##evergeefs
##evic
[...]
